-- begin_signature
-- weight_memory(num_weight
-- 784
-- data_width
-- 16
-- address_width
-- 10
-- weight_file
-- "C:/SystemVerilog_NPU/w_1_3.mif")
-- end_signature
WIDTH=16;
DEPTH=784;

ADDRESS_RADIX=UNS;
DATA_RADIX=BIN;

CONTENT BEGIN
	783 :	0000000000101100;
	782 :	1111111111011011;
	781 :	0000000000001101;
	780 :	0000000000010101;
	779 :	1111111110111111;
	778 :	0000000011111111;
	777 :	0000000010010101;
	776 :	0000000011000110;
	775 :	1111111111111101;
	774 :	0000000010010111;
	773 :	1111111111110100;
	772 :	1111111110000010;
	771 :	1111111111001100;
	770 :	1111111111011000;
	769 :	0000000000010100;
	768 :	0000000001100111;
	767 :	0000000000010011;
	766 :	1111111100110011;
	765 :	1111111111000010;
	764 :	1111111111010011;
	763 :	1111111111111101;
	762 :	0000000000011011;
	761 :	1111111111011110;
	760 :	1111111111111011;
	759 :	0000000000010010;
	758 :	0000000000011000;
	757 :	1111111111111000;
	756 :	1111111111110110;
	755 :	0000000000100110;
	754 :	0000000000110000;
	753 :	1111111111111000;
	752 :	1111111110111100;
	751 :	0000000001000111;
	750 :	0000000011000000;
	749 :	0000001001010110;
	748 :	0000001011000100;
	747 :	0000000100001011;
	746 :	0000000111100100;
	745 :	0000001011000101;
	744 :	0000001100000001;
	743 :	0000001001011001;
	742 :	0000001001100011;
	741 :	0000010010011000;
	740 :	0000010000111011;
	739 :	0000001101001011;
	738 :	0000010010000010;
	737 :	0000001010000110;
	736 :	1111111100111101;
	735 :	1111111110111000;
	734 :	0000000111010001;
	733 :	0000001000110010;
	732 :	0000000001111000;
	731 :	0000000000010010;
	730 :	1111111111110101;
	729 :	0000000000101110;
	728 :	1111111111111011;
	727 :	1111111111101111;
	726 :	0000000000000100;
	725 :	1111111111111010;
	724 :	0000000001010001;
	723 :	0000000011011000;
	722 :	0000001000101110;
	721 :	0000010000101010;
	720 :	0000001101000000;
	719 :	0000001101001010;
	718 :	0000010000100000;
	717 :	0000000101000000;
	716 :	1111111011111100;
	715 :	1111101110000110;
	714 :	1111110101101011;
	713 :	0000000000011011;
	712 :	1111101111110101;
	711 :	0000010100001111;
	710 :	0000010011001111;
	709 :	1111111010110001;
	708 :	1111110101111001;
	707 :	0000000010111101;
	706 :	1111111011111100;
	705 :	1111110111111010;
	704 :	1111110111100100;
	703 :	1111111111011110;
	702 :	0000000000001101;
	701 :	1111111111011011;
	700 :	1111111111111100;
	699 :	1111111111101100;
	698 :	0000000000010101;
	697 :	1111111011101010;
	696 :	1111111000011100;
	695 :	1111111111001001;
	694 :	0000000110010001;
	693 :	0000000000001111;
	692 :	0000001110000101;
	691 :	0000010000010111;
	690 :	0000000111001101;
	689 :	1111110011101000;
	688 :	0000000110001001;
	687 :	1111101101100101;
	686 :	1111110011111011;
	685 :	0000000000011111;
	684 :	0000010001111010;
	683 :	0000001101101111;
	682 :	0000001111111010;
	681 :	1111110100010000;
	680 :	1111110111001010;
	679 :	0000001001011010;
	678 :	1111110011100000;
	677 :	1111110111001001;
	676 :	1111110111000011;
	675 :	1111111111001111;
	674 :	1111111111100000;
	673 :	0000000000010111;
	672 :	0000000000011100;
	671 :	1111111111100101;
	670 :	1111111110101001;
	669 :	1111110111000110;
	668 :	1111110111000001;
	667 :	1111101101111111;
	666 :	1111110001001110;
	665 :	1111110010110001;
	664 :	0000001110000000;
	663 :	0000000010101000;
	662 :	1111110111100000;
	661 :	0000010010011010;
	660 :	0000000010111110;
	659 :	1111111001100000;
	658 :	0000000101100000;
	657 :	0000000000101101;
	656 :	1111110110101100;
	655 :	1111110011100001;
	654 :	1111111110101000;
	653 :	1111111101010101;
	652 :	0000010100101100;
	651 :	0000000001011011;
	650 :	1111110011110011;
	649 :	1111111010011011;
	648 :	0000000000111000;
	647 :	0000000011001101;
	646 :	0000000001111100;
	645 :	0000000000101000;
	644 :	1111111111110101;
	643 :	1111111111010011;
	642 :	1111111111110011;
	641 :	1111110110111100;
	640 :	1111110010110010;
	639 :	1111101111110001;
	638 :	1111101001011010;
	637 :	1111101001101110;
	636 :	1111111101010000;
	635 :	0000000010111111;
	634 :	0000010001011100;
	633 :	1111111110111011;
	632 :	1111111011101000;
	631 :	0000000001010000;
	630 :	0000000111101111;
	629 :	1111111110110000;
	628 :	1111111000101100;
	627 :	1111111111100100;
	626 :	1111110000100010;
	625 :	1111111010100001;
	624 :	1111111010001010;
	623 :	1111100101100000;
	622 :	1111110000000010;
	621 :	1111110010010100;
	620 :	1111110111000000;
	619 :	1111111111111011;
	618 :	1111111111011100;
	617 :	1111111111011111;
	616 :	0000000000100001;
	615 :	1111111111100111;
	614 :	0000000001101101;
	613 :	1111111011101110;
	612 :	1111111010001000;
	611 :	1111110011010000;
	610 :	1111111000110100;
	609 :	1111111001100100;
	608 :	1111101010011001;
	607 :	1111100101100001;
	606 :	1111111100001010;
	605 :	1111110110111011;
	604 :	0000001110011000;
	603 :	0000001010000110;
	602 :	1111101011110010;
	601 :	1111101101100010;
	600 :	1111110110100011;
	599 :	0000001101100101;
	598 :	1111110010000111;
	597 :	1111111010111010;
	596 :	1111110010101011;
	595 :	1111110100010111;
	594 :	1111111111110001;
	593 :	0000010010000111;
	592 :	0000000010111010;
	591 :	1111110101001101;
	590 :	1111111110010110;
	589 :	1111111111011110;
	588 :	1111111111101011;
	587 :	0000000000101010;
	586 :	1111111111011101;
	585 :	1111111011001100;
	584 :	1111110110101010;
	583 :	1111110101110111;
	582 :	0000000000000001;
	581 :	1111111110111000;
	580 :	1111110010010101;
	579 :	0000001000001110;
	578 :	0000001011010010;
	577 :	1111111100010010;
	576 :	0000000111101000;
	575 :	1111111010111111;
	574 :	1111110011100010;
	573 :	1111110111010101;
	572 :	1111111100110101;
	571 :	1111110100111011;
	570 :	1111111111100001;
	569 :	1111111010000001;
	568 :	1111100100011110;
	567 :	1111100101110011;
	566 :	1111110101000110;
	565 :	0000000011000111;
	564 :	1111110110011101;
	563 :	1111111011110010;
	562 :	0000000110010101;
	561 :	0000000000101011;
	560 :	0000000000001000;
	559 :	1111111101110010;
	558 :	1111111110010111;
	557 :	1111111011100001;
	556 :	1111111010000110;
	555 :	1111110111110111;
	554 :	1111111110100101;
	553 :	0000001001101101;
	552 :	0000001011000110;
	551 :	1111111011010111;
	550 :	0000000110001111;
	549 :	1111111101101100;
	548 :	1111111010011000;
	547 :	1111111000010000;
	546 :	0000000100100110;
	545 :	1111101000010111;
	544 :	1111111011010111;
	543 :	1111110110100101;
	542 :	1111111001001010;
	541 :	1111101111110010;
	540 :	1111101000101001;
	539 :	1111100101110111;
	538 :	1111110011110010;
	537 :	1111101010001000;
	536 :	1111101101110111;
	535 :	1111110111111001;
	534 :	0000000110000011;
	533 :	0000000000111101;
	532 :	1111111111000100;
	531 :	1111111111000011;
	530 :	1111111110101000;
	529 :	1111111011100000;
	528 :	1111111110011111;
	527 :	0000000100110010;
	526 :	0000000111110110;
	525 :	0000001101000010;
	524 :	0000010001001001;
	523 :	1111101110011010;
	522 :	1111111100000100;
	521 :	1111110000101100;
	520 :	1111110101000111;
	519 :	1111101100000011;
	518 :	0000000000111111;
	517 :	1111110010011000;
	516 :	1111101000100100;
	515 :	0000000101000101;
	514 :	0000000010000110;
	513 :	0000010010101110;
	512 :	1111111100011000;
	511 :	1111101100100000;
	510 :	0000000101101001;
	509 :	1111101100110110;
	508 :	1111101001001011;
	507 :	1111110000011011;
	506 :	1111111111101000;
	505 :	1111111111111011;
	504 :	1111111111110001;
	503 :	1111111111110001;
	502 :	1111111110100100;
	501 :	1111110111110101;
	500 :	1111111010011001;
	499 :	0000010000111000;
	498 :	0000001111010100;
	497 :	0000001000001011;
	496 :	0000001001101110;
	495 :	1111101111110110;
	494 :	0000000101110111;
	493 :	1111110010011010;
	492 :	1111111011010111;
	491 :	1111111101101001;
	490 :	0000000110100001;
	489 :	0000000110100010;
	488 :	0000000001011100;
	487 :	1111101011111110;
	486 :	1111111101101010;
	485 :	0000001011100000;
	484 :	1111111001111011;
	483 :	0000000011111101;
	482 :	0000010000111101;
	481 :	0000010010110011;
	480 :	0000000111100000;
	479 :	1111111100111011;
	478 :	1111111110111110;
	477 :	1111111111101110;
	476 :	0000000000010011;
	475 :	1111111111111011;
	474 :	1111111110000001;
	473 :	1111111001101110;
	472 :	1111110010001001;
	471 :	0000000111100011;
	470 :	0000000111100110;
	469 :	1111101000101001;
	468 :	1111111001011101;
	467 :	1111101101110011;
	466 :	1111101001011001;
	465 :	1111101110011000;
	464 :	1111110011111011;
	463 :	1111111010101110;
	462 :	0000001010100000;
	461 :	0000001011011111;
	460 :	1111100101111110;
	459 :	1111110101011000;
	458 :	1111111110101001;
	457 :	0000001010111000;
	456 :	0000001100110111;
	455 :	0000011001010001;
	454 :	0000110011111011;
	453 :	0000100111111001;
	452 :	0000011100110100;
	451 :	1111111110101111;
	450 :	1111111101001101;
	449 :	1111111111001001;
	448 :	1111111111010101;
	447 :	1111111111011110;
	446 :	1111111101101011;
	445 :	1111111011011101;
	444 :	1111110001111001;
	443 :	0000000000100001;
	442 :	0000000100001100;
	441 :	1111110111010011;
	440 :	0000000000000111;
	439 :	0000000110111011;
	438 :	1111110101011100;
	437 :	1111111011010011;
	436 :	1111110110011101;
	435 :	1111101110011000;
	434 :	0000000110000111;
	433 :	1111111100111100;
	432 :	0000000010001100;
	431 :	1111101111100111;
	430 :	0000000010000100;
	429 :	0000010101110100;
	428 :	0000101010101101;
	427 :	0000101111000101;
	426 :	0000110101010010;
	425 :	0000100100111111;
	424 :	0000011001100010;
	423 :	0000000110010010;
	422 :	1111111110011001;
	421 :	0000000000101100;
	420 :	1111111111010010;
	419 :	0000000000100010;
	418 :	1111111101000001;
	417 :	1111111101001011;
	416 :	1111110010000100;
	415 :	1111110101101011;
	414 :	0000000101111110;
	413 :	1111111011000111;
	412 :	0000000100011010;
	411 :	1111111110011100;
	410 :	1111111101001010;
	409 :	0000000000010100;
	408 :	0000000011001011;
	407 :	0000001001010010;
	406 :	1111101011000110;
	405 :	0000010101000000;
	404 :	0000000111100000;
	403 :	0000001010100101;
	402 :	0000101000111011;
	401 :	0001001000011100;
	400 :	0001010000000010;
	399 :	0000011101110101;
	398 :	0000100111011111;
	397 :	0000011110001101;
	396 :	0000010110000001;
	395 :	0000001111111110;
	394 :	1111111110110100;
	393 :	0000000000110001;
	392 :	1111111111111010;
	391 :	1111111101100000;
	390 :	1111111110001010;
	389 :	1111111001010101;
	388 :	1111111000011110;
	387 :	0000001010000100;
	386 :	0000010110101101;
	385 :	0000000010001101;
	384 :	0000010001011011;
	383 :	0000011110101101;
	382 :	0000001100011001;
	381 :	0000000001110111;
	380 :	0000001101100110;
	379 :	0000010001010100;
	378 :	1111110111001010;
	377 :	0000100000011000;
	376 :	0000111100001111;
	375 :	0000110010001100;
	374 :	0001000010001101;
	373 :	0000101110000000;
	372 :	0000011011100111;
	371 :	0000100110111101;
	370 :	0000010011000101;
	369 :	0000010100111001;
	368 :	0000011001111100;
	367 :	0000001101111000;
	366 :	1111111110011010;
	365 :	0000000000000000;
	364 :	0000000000110010;
	363 :	1111111111110101;
	362 :	1111111110100101;
	361 :	1111110101110010;
	360 :	1111111010100100;
	359 :	0000010110110001;
	358 :	0000011110101010;
	357 :	1111111001000010;
	356 :	1111111101100100;
	355 :	0000010010010100;
	354 :	1111111100111110;
	353 :	1111111001100000;
	352 :	1111110001111001;
	351 :	1111110101111110;
	350 :	0000100001101001;
	349 :	0001001011001011;
	348 :	0000101100110110;
	347 :	0000111011101101;
	346 :	0000011011011000;
	345 :	0000001011111111;
	344 :	1111110101101000;
	343 :	1111110000100010;
	342 :	1111111010010111;
	341 :	0000001000110100;
	340 :	0000010000001100;
	339 :	0000001000001111;
	338 :	0000000001000011;
	337 :	1111111111111011;
	336 :	0000000000000001;
	335 :	0000000000001000;
	334 :	1111111110110110;
	333 :	1111111100001111;
	332 :	0000001010001011;
	331 :	0000001100101001;
	330 :	0000010001110111;
	329 :	0000000110011100;
	328 :	1111110000000011;
	327 :	1111100111101101;
	326 :	1111110000001010;
	325 :	1111110001111111;
	324 :	1111110101100100;
	323 :	1111101000011110;
	322 :	0000100110011001;
	321 :	0000111101111010;
	320 :	0000011000000111;
	319 :	1111111101101110;
	318 :	1111101101110011;
	317 :	1111110100110011;
	316 :	0000000010000000;
	315 :	1111101001111000;
	314 :	1111101111011011;
	313 :	1111111001011100;
	312 :	0000000100101000;
	311 :	0000000101000100;
	310 :	0000000001100001;
	309 :	0000000000011000;
	308 :	1111111111000100;
	307 :	0000000000101001;
	306 :	1111111111011001;
	305 :	0000000100111100;
	304 :	0000010011111010;
	303 :	0000010100001101;
	302 :	0000001011001010;
	301 :	0000000101111110;
	300 :	1111111000110101;
	299 :	1111101011000100;
	298 :	0000000100100010;
	297 :	1111110100001111;
	296 :	1111110001001001;
	295 :	1111010110010110;
	294 :	0000001110110100;
	293 :	0000010111100110;
	292 :	1111111000010011;
	291 :	0000010011001111;
	290 :	1111101000101011;
	289 :	1111101100100010;
	288 :	1111101010110001;
	287 :	1111110011111000;
	286 :	1111101001010111;
	285 :	1111110100000011;
	284 :	1111110111010111;
	283 :	0000000010111111;
	282 :	0000000000101100;
	281 :	1111111111110011;
	280 :	0000000000001001;
	279 :	0000000000011000;
	278 :	1111111111001010;
	277 :	0000001001011101;
	276 :	0000100000000000;
	275 :	0000001101000000;
	274 :	1111111100001000;
	273 :	1111111100111111;
	272 :	0000000010101100;
	271 :	1111111110110111;
	270 :	0000000100010100;
	269 :	1111101100101100;
	268 :	1111001011000101;
	267 :	1111011011100000;
	266 :	0000010101000011;
	265 :	0000011101010101;
	264 :	1111111110110100;
	263 :	0000011011111010;
	262 :	1111110001000001;
	261 :	1111111001000010;
	260 :	0000000011011111;
	259 :	1111111011011000;
	258 :	1111110100001011;
	257 :	1111100110101101;
	256 :	1111101111010011;
	255 :	0000000011000000;
	254 :	0000000000100011;
	253 :	0000000000111101;
	252 :	0000000000100101;
	251 :	0000000000110100;
	250 :	0000000000000110;
	249 :	0000001101111101;
	248 :	0000100100001100;
	247 :	0000001101100010;
	246 :	1111101110011001;
	245 :	1111111110000100;
	244 :	1111111110100011;
	243 :	1111101111010110;
	242 :	1111110001011111;
	241 :	1111110110001110;
	240 :	1111111111010100;
	239 :	1111101010101001;
	238 :	0000000110011011;
	237 :	0000100011001011;
	236 :	0000000111011100;
	235 :	0000000110110111;
	234 :	1111111001010110;
	233 :	0000000111101011;
	232 :	1111111111100001;
	231 :	1111110011010000;
	230 :	0000000011000010;
	229 :	1111101110010001;
	228 :	1111110010111100;
	227 :	1111111011110101;
	226 :	1111111111110010;
	225 :	0000000000001110;
	224 :	1111111111110000;
	223 :	1111111111101001;
	222 :	1111111111000111;
	221 :	0000001110110010;
	220 :	0000011000000011;
	219 :	0000001110001011;
	218 :	1111110001111100;
	217 :	1111100111011011;
	216 :	1111101000110100;
	215 :	1111101001110111;
	214 :	1111110110000000;
	213 :	1111111101001101;
	212 :	1111110001100111;
	211 :	0000000100010111;
	210 :	0000001110101011;
	209 :	0000000110100110;
	208 :	0000001100010100;
	207 :	0000010111101000;
	206 :	0000000111110011;
	205 :	0000000000001101;
	204 :	0000000011011100;
	203 :	0000000010011111;
	202 :	1111111010101001;
	201 :	1111111000011111;
	200 :	1111111010011100;
	199 :	1111111011010000;
	198 :	0000000000110001;
	197 :	1111111110111000;
	196 :	0000000000011111;
	195 :	1111111111100100;
	194 :	1111111111010010;
	193 :	0000000011100111;
	192 :	0000001011011010;
	191 :	0000010001010000;
	190 :	0000000011011010;
	189 :	1111111110001011;
	188 :	1111111110111001;
	187 :	0000001010110010;
	186 :	1111110011010111;
	185 :	1111110101110000;
	184 :	1111110011001001;
	183 :	0000000001110000;
	182 :	0000000101111000;
	181 :	0000010111110010;
	180 :	0000001110100101;
	179 :	0000011010111000;
	178 :	1111111101101100;
	177 :	0000000010010100;
	176 :	0000000000010110;
	175 :	0000000101110101;
	174 :	1111111010111000;
	173 :	1111111110001111;
	172 :	0000000001110011;
	171 :	0000000000110110;
	170 :	0000000001110010;
	169 :	1111111111010101;
	168 :	1111111111111100;
	167 :	0000000001010101;
	166 :	0000000010100001;
	165 :	0000000100101110;
	164 :	0000001001001010;
	163 :	0000000100111100;
	162 :	0000000001111111;
	161 :	1111111001010100;
	160 :	1111110000110001;
	159 :	0000000011001101;
	158 :	1111101000011110;
	157 :	0000001110111100;
	156 :	1111100001000111;
	155 :	1111110101011001;
	154 :	0000000100111001;
	153 :	0000001111001110;
	152 :	0000001011110011;
	151 :	0000010011111110;
	150 :	0000010010110100;
	149 :	0000001001010000;
	148 :	0000001000011100;
	147 :	0000001111111010;
	146 :	0000000111110010;
	145 :	0000000100111100;
	144 :	0000000001000010;
	143 :	0000000000010110;
	142 :	0000000000101110;
	141 :	0000000000000001;
	140 :	0000000000001010;
	139 :	0000000001000000;
	138 :	0000000000010001;
	137 :	0000000101101011;
	136 :	0000001101100010;
	135 :	0000010010100011;
	134 :	0000001010100100;
	133 :	0000000101111010;
	132 :	1111100110001010;
	131 :	1111110111100001;
	130 :	0000000111101010;
	129 :	1111110111100110;
	128 :	1111100101111110;
	127 :	1111100100010000;
	126 :	0000000011110100;
	125 :	0000000110000101;
	124 :	0000000110000101;
	123 :	0000010011010100;
	122 :	0000001111000010;
	121 :	0000010000000000;
	120 :	0000000111000000;
	119 :	0000000000101011;
	118 :	0000000001000101;
	117 :	1111111111010001;
	116 :	0000000000010000;
	115 :	0000000000011001;
	114 :	0000000000000000;
	113 :	0000000000111100;
	112 :	1111111110100100;
	111 :	0000000000100110;
	110 :	0000000000110100;
	109 :	0000000001010111;
	108 :	0000000011010001;
	107 :	0000000101100101;
	106 :	0000000111110000;
	105 :	0000000101100011;
	104 :	1111111110010000;
	103 :	1111111100101000;
	102 :	1111110111100011;
	101 :	1111111010001111;
	100 :	1111110010100000;
	99 :	1111101010101101;
	98 :	1111101100101100;
	97 :	1111110110001101;
	96 :	1111110110101001;
	95 :	1111111010100001;
	94 :	0000001010010000;
	93 :	0000000101010111;
	92 :	0000000100011011;
	91 :	0000000000000111;
	90 :	0000000001100010;
	89 :	0000000001000111;
	88 :	1111111111110010;
	87 :	0000000000100010;
	86 :	0000000001000011;
	85 :	1111111111110000;
	84 :	1111111111011011;
	83 :	0000000000100000;
	82 :	1111111111010000;
	81 :	0000000000000011;
	80 :	0000000000000010;
	79 :	0000000001001000;
	78 :	0000000000111001;
	77 :	0000000000011100;
	76 :	1111111111011110;
	75 :	0000000001111000;
	74 :	0000000000100000;
	73 :	0000000110101110;
	72 :	0000000000000000;
	71 :	0000000000110010;
	70 :	1111111101010000;
	69 :	1111110101110111;
	68 :	1111111001001011;
	67 :	1111111010101010;
	66 :	0000000000010011;
	65 :	0000000000100110;
	64 :	0000000000010110;
	63 :	0000000000101011;
	62 :	1111111111011111;
	61 :	0000000000000000;
	60 :	0000000000000100;
	59 :	1111111111111100;
	58 :	1111111111110011;
	57 :	1111111111100111;
	56 :	0000000000000111;
	55 :	0000000000011111;
	54 :	0000000000001010;
	53 :	1111111111110111;
	52 :	0000000000000011;
	51 :	0000000000000011;
	50 :	0000000000010000;
	49 :	1111111111101111;
	48 :	0000000000101110;
	47 :	0000000000101010;
	46 :	1111111111110101;
	45 :	0000000010110110;
	44 :	0000000100101011;
	43 :	0000000100110101;
	42 :	0000000010100110;
	41 :	0000000000010000;
	40 :	0000000001001010;
	39 :	0000000000110110;
	38 :	0000000000010101;
	37 :	0000000000010001;
	36 :	1111111111101101;
	35 :	0000000000011001;
	34 :	0000000000110001;
	33 :	0000000000110111;
	32 :	0000000000101111;
	31 :	1111111111111011;
	30 :	1111111111101101;
	29 :	1111111111101111;
	28 :	1111111111101100;
	27 :	1111111111111011;
	26 :	1111111111110010;
	25 :	0000000000001100;
	24 :	0000000000101011;
	23 :	0000000000011000;
	22 :	1111111111010111;
	21 :	0000000000000110;
	20 :	0000000000111011;
	19 :	1111111111100110;
	18 :	0000000000010000;
	17 :	0000000000001011;
	16 :	1111111111001111;
	15 :	0000000000001011;
	14 :	0000000000001011;
	13 :	0000000000100000;
	12 :	1111111111101011;
	11 :	1111111111101101;
	10 :	1111111111100111;
	9 :	1111111111110110;
	8 :	0000000000001110;
	7 :	0000000000010111;
	6 :	0000000000001111;
	5 :	1111111111011001;
	4 :	1111111111100010;
	3 :	1111111111111011;
	2 :	0000000000011001;
	1 :	0000000000011110;
	0 :	0000000000000110;
END;
