-- begin_signature
-- weight_memory(num_weight
-- 784
-- data_width
-- 16
-- address_width
-- 10
-- weight_file
-- "C:/SystemVerilog_NPU/w_1_9.mif")
-- end_signature
WIDTH=16;
DEPTH=784;

ADDRESS_RADIX=UNS;
DATA_RADIX=BIN;

CONTENT BEGIN
	783 :	0000000000100100;
	782 :	1111111111100010;
	781 :	1111111111011010;
	780 :	1111111111101001;
	779 :	1111111111110100;
	778 :	1111111111111111;
	777 :	0000000000100100;
	776 :	1111111111001111;
	775 :	0000000000001100;
	774 :	1111111101011010;
	773 :	1111111110101111;
	772 :	1111111110110100;
	771 :	1111111111100111;
	770 :	1111111111100111;
	769 :	1111111111100000;
	768 :	1111111110111110;
	767 :	0000000000000000;
	766 :	1111111111100110;
	765 :	1111111111011100;
	764 :	1111111111110101;
	763 :	0000000000001111;
	762 :	1111111111111110;
	761 :	0000000000101000;
	760 :	0000000000000011;
	759 :	0000000000011011;
	758 :	0000000000001100;
	757 :	0000000000100101;
	756 :	1111111111000011;
	755 :	0000000000011001;
	754 :	0000000000001101;
	753 :	1111111111111100;
	752 :	1111111111110010;
	751 :	0000000000001111;
	750 :	1111111111110110;
	749 :	1111111100100001;
	748 :	1111111011011011;
	747 :	1111111001011000;
	746 :	1111111000000111;
	745 :	1111110001000111;
	744 :	1111101110010110;
	743 :	1111101101010001;
	742 :	1111110000001101;
	741 :	1111101111001111;
	740 :	1111110000001011;
	739 :	1111111010010111;
	738 :	1111111010001000;
	737 :	1111111101001111;
	736 :	1111111101100011;
	735 :	1111111010000010;
	734 :	1111111100001011;
	733 :	1111111110001100;
	732 :	1111111110000100;
	731 :	1111111111111100;
	730 :	1111111111101111;
	729 :	1111111111010111;
	728 :	0000000000000110;
	727 :	0000000000010000;
	726 :	1111111111100111;
	725 :	0000000001001010;
	724 :	0000000000010000;
	723 :	0000000010101000;
	722 :	1111111111111010;
	721 :	1111111111010100;
	720 :	1111111000101110;
	719 :	1111101110100001;
	718 :	1111111010001001;
	717 :	0000000000111100;
	716 :	1111110001010010;
	715 :	1111101101010011;
	714 :	1111111100111000;
	713 :	1111111011110111;
	712 :	1111111111011011;
	711 :	0000000000101001;
	710 :	1111110000111001;
	709 :	1111111010010110;
	708 :	1111111101100100;
	707 :	1111110101100111;
	706 :	1111110110010000;
	705 :	1111111010001110;
	704 :	0000000010010111;
	703 :	0000000000001000;
	702 :	1111111111111000;
	701 :	1111111111100110;
	700 :	0000000001000101;
	699 :	1111111111011010;
	698 :	0000000000101010;
	697 :	0000000001001010;
	696 :	0000000001101100;
	695 :	0000000010011100;
	694 :	0000000101110010;
	693 :	0000001001001100;
	692 :	1111111101110010;
	691 :	0000010001100000;
	690 :	0000001100100010;
	689 :	0000000011000001;
	688 :	1111100000101101;
	687 :	1111110010010000;
	686 :	1111111101110110;
	685 :	1111110111100100;
	684 :	1111111111111111;
	683 :	1111111100110100;
	682 :	1111101001000001;
	681 :	1111110000100100;
	680 :	1111110011001000;
	679 :	1111110001110000;
	678 :	0000000010010111;
	677 :	0000000010101110;
	676 :	1111111110011000;
	675 :	1111111100010000;
	674 :	0000000000000000;
	673 :	0000000000010100;
	672 :	0000000000101010;
	671 :	1111111111111010;
	670 :	0000000000100000;
	669 :	0000000001101101;
	668 :	0000000010000100;
	667 :	0000000001000011;
	666 :	0000000010111101;
	665 :	1111111100101010;
	664 :	0000000000110000;
	663 :	0000000111000100;
	662 :	0000000100101000;
	661 :	0000010010111000;
	660 :	0000001011111100;
	659 :	0000000111100000;
	658 :	0000000000001101;
	657 :	0000001011010000;
	656 :	0000101100101010;
	655 :	1111111100101010;
	654 :	1111110000101000;
	653 :	0000000011110011;
	652 :	1111110010110011;
	651 :	0000000110110001;
	650 :	0000001010111101;
	649 :	0000001000001011;
	648 :	1111110100110000;
	647 :	1111111000110000;
	646 :	0000000000010101;
	645 :	0000000000011111;
	644 :	0000000000100001;
	643 :	0000000000100011;
	642 :	1111111111110110;
	641 :	0000000010010011;
	640 :	0000000100011011;
	639 :	0000000010011000;
	638 :	1111111011000110;
	637 :	0000001111101111;
	636 :	0000010110101110;
	635 :	0000001010011110;
	634 :	0000100011011110;
	633 :	0000000110100001;
	632 :	0000000010111010;
	631 :	0000000001001111;
	630 :	0000001110010111;
	629 :	1111101111000111;
	628 :	1111100100001101;
	627 :	1111110100111010;
	626 :	1111110100111000;
	625 :	0000010011110110;
	624 :	0000001100001110;
	623 :	0000000110111100;
	622 :	0000001010101101;
	621 :	0000011110111001;
	620 :	0000000111100101;
	619 :	0000000001100100;
	618 :	0000000000001111;
	617 :	1111111111101010;
	616 :	1111111111110000;
	615 :	1111111111101101;
	614 :	0000000010011011;
	613 :	0000000111000010;
	612 :	0000001011100100;
	611 :	0000001011111000;
	610 :	1111111111100111;
	609 :	0000000110110100;
	608 :	0000001101000011;
	607 :	0000001011111001;
	606 :	0000010010100101;
	605 :	1111111010000001;
	604 :	1111110110011110;
	603 :	0000000110011100;
	602 :	0000000111001000;
	601 :	1111111001111000;
	600 :	1111111111101111;
	599 :	1111110110000111;
	598 :	0000000100001111;
	597 :	0000000101010101;
	596 :	0000000101011000;
	595 :	1111111110010111;
	594 :	0000001001100110;
	593 :	0000010101111111;
	592 :	0000000011011100;
	591 :	0000001010011000;
	590 :	0000000000100011;
	589 :	1111111111011101;
	588 :	1111111111111101;
	587 :	1111111111000010;
	586 :	1111111111111111;
	585 :	0000001100000101;
	584 :	0000001101011100;
	583 :	0000001010111101;
	582 :	1111111100011001;
	581 :	1111111011000111;
	580 :	0000001000000001;
	579 :	1111111101000100;
	578 :	0000001001011110;
	577 :	0000010001101001;
	576 :	0000001010000011;
	575 :	0000000001110000;
	574 :	0000000101010110;
	573 :	1111111001001110;
	572 :	0000100010011011;
	571 :	0000011100001010;
	570 :	0000001101111010;
	569 :	0000001111000010;
	568 :	0000010110101001;
	567 :	1111111100011111;
	566 :	0000000100100001;
	565 :	1111101010110001;
	564 :	0000000101110101;
	563 :	0000000100011111;
	562 :	1111111111100010;
	561 :	1111111111100010;
	560 :	0000000001001101;
	559 :	0000000000110001;
	558 :	0000000001001101;
	557 :	0000001101011001;
	556 :	0000000100000101;
	555 :	0000000110010010;
	554 :	1111111110010100;
	553 :	1111111100011100;
	552 :	0000001111000011;
	551 :	1111111100100101;
	550 :	1111111110110000;
	549 :	1111111011011100;
	548 :	1111111111011010;
	547 :	1111111111111001;
	546 :	1111110000100101;
	545 :	0000010101011010;
	544 :	0000000111110000;
	543 :	0000010011111011;
	542 :	0000001111110010;
	541 :	0000100000001011;
	540 :	0000001001110110;
	539 :	0000000110010100;
	538 :	1111101011010000;
	537 :	1111011110010110;
	536 :	1111111101110101;
	535 :	1111111110111010;
	534 :	1111111110101010;
	533 :	1111111111011101;
	532 :	0000000000001100;
	531 :	0000000011010111;
	530 :	0000000010010011;
	529 :	0000001010011010;
	528 :	0000001111000001;
	527 :	0000000101001001;
	526 :	0000000001110001;
	525 :	1111111110100110;
	524 :	0000001000110111;
	523 :	0000000110011001;
	522 :	0000001000101000;
	521 :	1111101000110111;
	520 :	1111010111100001;
	519 :	1111110000011100;
	518 :	1111110011001001;
	517 :	1111111000100011;
	516 :	1111110100100011;
	515 :	1111110010011010;
	514 :	0000001000100100;
	513 :	0000001011000011;
	512 :	0000000111101000;
	511 :	1111101101010001;
	510 :	1111011011011000;
	509 :	1111101101111110;
	508 :	1111111100011010;
	507 :	1111111110011010;
	506 :	0000000000011100;
	505 :	1111111111011001;
	504 :	1111111111100100;
	503 :	1111111111101110;
	502 :	0000000011010011;
	501 :	0000001101000010;
	500 :	0000001000110000;
	499 :	1111110011101011;
	498 :	1111101101111101;
	497 :	1111100011110001;
	496 :	1111100110001101;
	495 :	1111100100001100;
	494 :	1111000110101001;
	493 :	1110101010100000;
	492 :	1111011100001101;
	491 :	1111101101000000;
	490 :	0000001011100011;
	489 :	1111111111101100;
	488 :	0000010100010101;
	487 :	0000010011000110;
	486 :	0000000000001000;
	485 :	1111110001100011;
	484 :	1111101000001010;
	483 :	1111010101100100;
	482 :	1111101010100101;
	481 :	1111110111101001;
	480 :	1111111100000010;
	479 :	1111111111101101;
	478 :	0000000000001001;
	477 :	1111111111110110;
	476 :	0000000000000100;
	475 :	0000000000101001;
	474 :	0000000011101011;
	473 :	0000000111011011;
	472 :	1111111110110111;
	471 :	1111101100111001;
	470 :	1111100001000110;
	469 :	1111010011000000;
	468 :	1111000110010011;
	467 :	1110110110101011;
	466 :	1110101001010011;
	465 :	1111000110010010;
	464 :	1111110010001100;
	463 :	1111111000000110;
	462 :	0000011100101010;
	461 :	0000000001001101;
	460 :	1111110100001011;
	459 :	1111111011101100;
	458 :	0000000101100000;
	457 :	0000001011001001;
	456 :	1111101001010001;
	455 :	1111100001111010;
	454 :	1111101001101001;
	453 :	1111110001001110;
	452 :	1111111010100001;
	451 :	1111111111001110;
	450 :	1111111111111100;
	449 :	1111111111001111;
	448 :	1111111111111001;
	447 :	0000000000000001;
	446 :	0000000101000010;
	445 :	0000000100100100;
	444 :	1111110100001011;
	443 :	1111100011111101;
	442 :	1111011011111111;
	441 :	1111010101001011;
	440 :	1111000100100110;
	439 :	1110111100010011;
	438 :	1111000110110100;
	437 :	1111101010110111;
	436 :	0000000010000000;
	435 :	1111111111000001;
	434 :	0000010010110110;
	433 :	0000001101110101;
	432 :	1111110111101010;
	431 :	1111110010100011;
	430 :	1111101110011011;
	429 :	1111101010010011;
	428 :	1111101110011101;
	427 :	1111100011100011;
	426 :	1111100001101000;
	425 :	1111101110100111;
	424 :	1111111011011010;
	423 :	1111111111111101;
	422 :	1111111111011100;
	421 :	1111111111010101;
	420 :	1111111111111000;
	419 :	1111111111011001;
	418 :	0000000100000001;
	417 :	0000000100010010;
	416 :	1111111011001100;
	415 :	1111101111111110;
	414 :	1111100111111011;
	413 :	1111100110101011;
	412 :	1111100110000011;
	411 :	1111101100110110;
	410 :	1111111010011000;
	409 :	1111111111001111;
	408 :	0000000110010011;
	407 :	0000000000111111;
	406 :	0000000010001001;
	405 :	1111101010100111;
	404 :	1111111110110111;
	403 :	1111011110000011;
	402 :	1111101111001111;
	401 :	1111110100110000;
	400 :	1111110000101000;
	399 :	1111101011001001;
	398 :	1111101110111001;
	397 :	1111111001000100;
	396 :	1111111100100101;
	395 :	0000000000100011;
	394 :	0000000000110101;
	393 :	0000000000010000;
	392 :	0000000000011011;
	391 :	1111111111101011;
	390 :	0000000000000010;
	389 :	0000000011100010;
	388 :	1111111111000100;
	387 :	1111110011110111;
	386 :	1111110000101110;
	385 :	1111111101100010;
	384 :	1111110101101001;
	383 :	1111101001110110;
	382 :	1111110101010111;
	381 :	0000001010010010;
	380 :	0000010110000111;
	379 :	0000000100001011;
	378 :	1111110111111110;
	377 :	1111111111110110;
	376 :	1111101111111011;
	375 :	1111100101101010;
	374 :	1111011100110011;
	373 :	1111111001101011;
	372 :	1111111111000000;
	371 :	1111110100011110;
	370 :	1111111001111011;
	369 :	1111111010011000;
	368 :	1111111100000100;
	367 :	0000000000001111;
	366 :	0000000000000000;
	365 :	0000000000000100;
	364 :	0000000000010001;
	363 :	0000000000010100;
	362 :	1111111100111110;
	361 :	0000000010110010;
	360 :	1111111111111011;
	359 :	1111110101001101;
	358 :	1111111010100011;
	357 :	0000001010111100;
	356 :	1111111001111111;
	355 :	1111101010010000;
	354 :	1111100001011010;
	353 :	1111111011100001;
	352 :	0000001000010010;
	351 :	1111110100110001;
	350 :	0000001001010001;
	349 :	0000000111111111;
	348 :	0000001011111010;
	347 :	1111111010101101;
	346 :	1111101100001010;
	345 :	0000000010011010;
	344 :	0000000000101100;
	343 :	1111111100000111;
	342 :	1111111100101110;
	341 :	1111111100101110;
	340 :	1111111101101001;
	339 :	1111111111011101;
	338 :	0000000000110101;
	337 :	1111111111011100;
	336 :	1111111111111100;
	335 :	1111111111110001;
	334 :	1111111100010011;
	333 :	1111111011000101;
	332 :	1111101110111010;
	331 :	1111110101000101;
	330 :	0000000001101011;
	329 :	0000010011011101;
	328 :	1111111111001000;
	327 :	1111100100010011;
	326 :	1111101010011100;
	325 :	1111110011101110;
	324 :	0000011101010000;
	323 :	0000001000001000;
	322 :	0000011110100101;
	321 :	0000011000100111;
	320 :	0000010001001011;
	319 :	0000000011001110;
	318 :	1111111111001011;
	317 :	1111111000111110;
	316 :	1111101010010111;
	315 :	1111110010010111;
	314 :	1111110100110111;
	313 :	1111110101110111;
	312 :	1111111010011101;
	311 :	1111111110101101;
	310 :	1111111110111100;
	309 :	1111111111111011;
	308 :	1111111111100110;
	307 :	0000000001101011;
	306 :	0000000000100101;
	305 :	1111111101000101;
	304 :	1111111010101100;
	303 :	1111111101011110;
	302 :	0000000000000000;
	301 :	0000001011011010;
	300 :	1111100010011110;
	299 :	1111110010011101;
	298 :	1111101111011001;
	297 :	0000010011110001;
	296 :	0000001000111111;
	295 :	0000101011011000;
	294 :	0000011100110100;
	293 :	0000010100111000;
	292 :	0000010011010011;
	291 :	0000000001101001;
	290 :	1111101000010010;
	289 :	1111111010011001;
	288 :	1111111111000101;
	287 :	1111111000000000;
	286 :	1111110101011100;
	285 :	1111110011000001;
	284 :	1111111010010011;
	283 :	1111111100010111;
	282 :	0000000001011110;
	281 :	1111111111000101;
	280 :	1111111111111001;
	279 :	0000000001111100;
	278 :	0000000001010100;
	277 :	1111111101011010;
	276 :	1111111001101000;
	275 :	0000000011111001;
	274 :	0000000000000011;
	273 :	1111111001010110;
	272 :	1111100111001001;
	271 :	1111111100101100;
	270 :	0000000010001111;
	269 :	1111111000101011;
	268 :	0000010001000100;
	267 :	0000001100111010;
	266 :	0000001000001001;
	265 :	0000010111100000;
	264 :	0000010011101001;
	263 :	0000001011010011;
	262 :	1111111110101111;
	261 :	0000000001100101;
	260 :	1111111100001110;
	259 :	0000000101101101;
	258 :	1111111101001000;
	257 :	1111111001110010;
	256 :	1111111100111101;
	255 :	1111111010010100;
	254 :	0000000000111000;
	253 :	0000000000100011;
	252 :	0000000000100000;
	251 :	1111111111010001;
	250 :	1111111110101011;
	249 :	1111111001000101;
	248 :	1111110001011010;
	247 :	0000000101110110;
	246 :	1111111111010001;
	245 :	0000000010110111;
	244 :	1111111011111111;
	243 :	0000001111010100;
	242 :	0000000111010101;
	241 :	0000010010001111;
	240 :	1111101010001100;
	239 :	1111111100101111;
	238 :	0000010001011000;
	237 :	1111111111111111;
	236 :	0000010010110111;
	235 :	0000010001011101;
	234 :	0000010010101101;
	233 :	0000000010101000;
	232 :	0000000001011100;
	231 :	0000000101100110;
	230 :	1111111110010000;
	229 :	1111111100110100;
	228 :	1111111111111001;
	227 :	1111111101001110;
	226 :	1111111111010010;
	225 :	1111111111011010;
	224 :	1111111111001000;
	223 :	0000000001001101;
	222 :	0000000001101000;
	221 :	1111110110101001;
	220 :	1111110011011111;
	219 :	1111111101100010;
	218 :	0000001000010111;
	217 :	0000010011111111;
	216 :	0000000110000001;
	215 :	0000001101111000;
	214 :	0000001100101100;
	213 :	1111110101010011;
	212 :	1111111101011000;
	211 :	1111111001010101;
	210 :	0000000111010010;
	209 :	1111110111111001;
	208 :	1111111101011011;
	207 :	1111111101011100;
	206 :	1111111110000000;
	205 :	1111111110010100;
	204 :	1111111110001010;
	203 :	1111111010000111;
	202 :	1111110000011010;
	201 :	1111110011010011;
	200 :	1111111011110010;
	199 :	1111111100101000;
	198 :	1111111110101011;
	197 :	1111111111100001;
	196 :	1111111111110101;
	195 :	0000000010010000;
	194 :	0000000001010111;
	193 :	1111111101011010;
	192 :	1111111100111001;
	191 :	0000000010001110;
	190 :	0000000100110001;
	189 :	1111111010011011;
	188 :	1111111101100101;
	187 :	1111111110001010;
	186 :	0000000010011110;
	185 :	1111110111101000;
	184 :	1111111001110011;
	183 :	1111101110100101;
	182 :	0000001000011001;
	181 :	0000000011000001;
	180 :	0000001010000100;
	179 :	1111111101101110;
	178 :	0000001011010101;
	177 :	0000000110101100;
	176 :	1111110100000001;
	175 :	1111111101010001;
	174 :	1111111000000100;
	173 :	1111101100110011;
	172 :	1111110110111000;
	171 :	1111111001111011;
	170 :	1111111100001000;
	169 :	1111111111011100;
	168 :	0000000001000011;
	167 :	0000000000110000;
	166 :	1111111111011010;
	165 :	1111111100000110;
	164 :	1111111010111001;
	163 :	0000000100011111;
	162 :	0000001010101001;
	161 :	0000000001001101;
	160 :	1111101010101101;
	159 :	1111111011000001;
	158 :	1111111101101001;
	157 :	1111101011100101;
	156 :	1111111011110000;
	155 :	0000000001001100;
	154 :	1111101111000010;
	153 :	0000000101100010;
	152 :	0000000110000100;
	151 :	0000000011010000;
	150 :	1111111110001110;
	149 :	1111111110110111;
	148 :	1111110001110110;
	147 :	1111110011111000;
	146 :	1111111010000011;
	145 :	1111111011111001;
	144 :	1111111101010000;
	143 :	1111111110001101;
	142 :	0000000000111110;
	141 :	1111111111100101;
	140 :	1111111111110011;
	139 :	1111111111100100;
	138 :	1111111111100010;
	137 :	1111111011011111;
	136 :	1111110100001010;
	135 :	1111111010101100;
	134 :	1111111111010111;
	133 :	1111110110010011;
	132 :	1111110110010110;
	131 :	1111110010001111;
	130 :	1111111001101010;
	129 :	1111111110111001;
	128 :	0000000001100011;
	127 :	0000000101101011;
	126 :	1111111101111110;
	125 :	0000000010111000;
	124 :	1111110000100110;
	123 :	1111101101000100;
	122 :	0000000100000111;
	121 :	1111111111000011;
	120 :	1111111001100100;
	119 :	1111110101010001;
	118 :	1111111001111010;
	117 :	1111111100011111;
	116 :	0000000000001101;
	115 :	0000000000010001;
	114 :	0000000000000001;
	113 :	0000000000000110;
	112 :	1111111111100111;
	111 :	1111111111110100;
	110 :	1111111111011000;
	109 :	0000000000110010;
	108 :	1111111111100001;
	107 :	1111111101110110;
	106 :	1111110110010110;
	105 :	1111101111111001;
	104 :	1111110000011110;
	103 :	1111111000010101;
	102 :	1111101111010111;
	101 :	1111111110001111;
	100 :	0000000101110101;
	99 :	1111111111100010;
	98 :	1111110011000110;
	97 :	1111111110000100;
	96 :	1111110101110100;
	95 :	1111101101011110;
	94 :	1111110001110111;
	93 :	1111110100101011;
	92 :	1111110010000100;
	91 :	1111111011001011;
	90 :	1111111100111110;
	89 :	1111111101001110;
	88 :	1111111111100001;
	87 :	1111111111110110;
	86 :	0000000000000111;
	85 :	0000000000110011;
	84 :	1111111111011101;
	83 :	0000000000111001;
	82 :	0000000000111011;
	81 :	1111111111110010;
	80 :	1111111111110101;
	79 :	1111111111011000;
	78 :	1111111111000110;
	77 :	1111111111111110;
	76 :	1111111110011111;
	75 :	0000000000101000;
	74 :	1111111111110010;
	73 :	1111111111010101;
	72 :	0000000011011101;
	71 :	0000001000011000;
	70 :	0000001000100111;
	69 :	0000001011000101;
	68 :	0000000000110100;
	67 :	1111111101000110;
	66 :	1111111110101111;
	65 :	0000000000110010;
	64 :	0000000001001110;
	63 :	0000000000000011;
	62 :	1111111111110011;
	61 :	1111111111110010;
	60 :	0000000000101111;
	59 :	0000000000000000;
	58 :	0000000000110011;
	57 :	0000000000000111;
	56 :	1111111111111001;
	55 :	0000000000100100;
	54 :	0000000000100001;
	53 :	1111111111100000;
	52 :	1111111111110110;
	51 :	0000000000011000;
	50 :	0000000000010111;
	49 :	0000000000010011;
	48 :	1111111111001010;
	47 :	1111111111111001;
	46 :	0000000000110101;
	45 :	0000000001000110;
	44 :	0000000000001001;
	43 :	0000000001100101;
	42 :	0000000000111010;
	41 :	1111111111011111;
	40 :	1111111111011111;
	39 :	1111111111111000;
	38 :	0000000000001000;
	37 :	1111111111010100;
	36 :	1111111111111011;
	35 :	0000000000000011;
	34 :	1111111111001001;
	33 :	0000000000001101;
	32 :	0000000000001111;
	31 :	0000000000010111;
	30 :	1111111111111101;
	29 :	1111111111011100;
	28 :	0000000000001011;
	27 :	0000000000001111;
	26 :	1111111111010110;
	25 :	0000000000010011;
	24 :	0000000000101011;
	23 :	1111111111100011;
	22 :	0000000000001111;
	21 :	0000000000000000;
	20 :	0000000000000001;
	19 :	1111111111110110;
	18 :	0000000000100001;
	17 :	1111111111110110;
	16 :	0000000000101001;
	15 :	1111111111111001;
	14 :	0000000000100110;
	13 :	0000000000111100;
	12 :	1111111111110110;
	11 :	0000000000000010;
	10 :	1111111111011011;
	9 :	0000000000000110;
	8 :	1111111111111000;
	7 :	1111111111111111;
	6 :	1111111111000100;
	5 :	0000000000111000;
	4 :	1111111111100111;
	3 :	1111111111110010;
	2 :	1111111111111010;
	1 :	1111111110111111;
	0 :	1111111110100111;
END;
