-- begin_signature
-- weight_memory(num_weight
-- 784
-- data_width
-- 16
-- address_width
-- 10
-- weight_file
-- "C:/SystemVerilog_NPU/w_1_2.mif")
-- end_signature
WIDTH=16;
DEPTH=784;

ADDRESS_RADIX=UNS;
DATA_RADIX=BIN;

CONTENT BEGIN
	783 :	1111111110111001;
	782 :	0000000001000010;
	781 :	0000000000011100;
	780 :	1111111111110111;
	779 :	0000000000000100;
	778 :	0000000001000010;
	777 :	1111111111110101;
	776 :	0000000000001011;
	775 :	1111111111100001;
	774 :	1111111101111110;
	773 :	1111111111011110;
	772 :	0000000000011000;
	771 :	1111111111100000;
	770 :	0000000000011010;
	769 :	1111111111110011;
	768 :	0000000000001000;
	767 :	1111111111001110;
	766 :	1111111111100100;
	765 :	0000000000000000;
	764 :	1111111111011110;
	763 :	0000000001000111;
	762 :	0000000000001010;
	761 :	1111111111000110;
	760 :	0000000000000000;
	759 :	0000000000001110;
	758 :	0000000000101000;
	757 :	0000000000001001;
	756 :	1111111111101011;
	755 :	0000000000000001;
	754 :	0000000000000001;
	753 :	0000000000100011;
	752 :	1111111111110000;
	751 :	1111111111110000;
	750 :	0000000000010100;
	749 :	0000000010000110;
	748 :	0000000001110101;
	747 :	0000000001100100;
	746 :	1111111101000101;
	745 :	1111111101011110;
	744 :	0000000110011101;
	743 :	1111111101110000;
	742 :	1111111010100011;
	741 :	0000000110101111;
	740 :	0000001101100010;
	739 :	0000000101000000;
	738 :	1111111110101111;
	737 :	1111111001011011;
	736 :	1111111011000111;
	735 :	0000000000001010;
	734 :	0000000000111110;
	733 :	0000000000000011;
	732 :	1111111110111111;
	731 :	0000000000110101;
	730 :	0000000000100011;
	729 :	0000000000011000;
	728 :	0000000000000110;
	727 :	0000000000011110;
	726 :	1111111111111001;
	725 :	1111111111010011;
	724 :	1111111111100010;
	723 :	0000000001000100;
	722 :	0000000001000100;
	721 :	0000000001101110;
	720 :	0000000010001111;
	719 :	0000000111101011;
	718 :	0000000110111110;
	717 :	0000010000100111;
	716 :	0000000100010110;
	715 :	1111110011010011;
	714 :	1111110110010000;
	713 :	0000001101011011;
	712 :	0000010000001011;
	711 :	0000000101010100;
	710 :	1111111110000111;
	709 :	1111111110111111;
	708 :	1111110111111010;
	707 :	1111111000010010;
	706 :	1111111000010010;
	705 :	1111111100010000;
	704 :	1111111100111101;
	703 :	1111111111110011;
	702 :	0000000000110000;
	701 :	1111111110101010;
	700 :	1111111111101010;
	699 :	1111111111110101;
	698 :	1111111111110010;
	697 :	1111111101111100;
	696 :	1111111111111011;
	695 :	0000000000010010;
	694 :	1111111110111010;
	693 :	1111111011101010;
	692 :	1111111111010100;
	691 :	1111111111011111;
	690 :	0000001010100111;
	689 :	0000001101001000;
	688 :	1111111000111100;
	687 :	1111110110011110;
	686 :	0000000011101011;
	685 :	0000000100011100;
	684 :	1111111011101100;
	683 :	1111111100010000;
	682 :	0000000010010100;
	681 :	0000001001011001;
	680 :	0000000010100100;
	679 :	1111111111010011;
	678 :	1111111001100110;
	677 :	1111111001000000;
	676 :	1111111110001101;
	675 :	0000000000100100;
	674 :	0000000000010110;
	673 :	1111111111100001;
	672 :	0000000000100101;
	671 :	1111111111111110;
	670 :	1111111111010001;
	669 :	1111111111010100;
	668 :	1111111111111100;
	667 :	1111111100110110;
	666 :	1111111011011110;
	665 :	0000000000111110;
	664 :	0000000110001011;
	663 :	0000000001010010;
	662 :	0000000010101100;
	661 :	1111111111011011;
	660 :	0000000101110011;
	659 :	0000000110110011;
	658 :	0000001010110111;
	657 :	1111101011101101;
	656 :	1111111110000011;
	655 :	0000000100111010;
	654 :	1111111111010001;
	653 :	1111111110100100;
	652 :	1111111100110110;
	651 :	1111110000110000;
	650 :	1111110101010000;
	649 :	1111111100001011;
	648 :	0000000010111100;
	647 :	0000000001000001;
	646 :	1111111111011101;
	645 :	0000000000110010;
	644 :	0000000000100110;
	643 :	0000000000011101;
	642 :	1111111111110011;
	641 :	1111111111101111;
	640 :	1111111111011100;
	639 :	1111111101011001;
	638 :	1111111100101100;
	637 :	0000000100010110;
	636 :	0000001010100110;
	635 :	0000000110110110;
	634 :	0000001000111010;
	633 :	0000010100001000;
	632 :	0000000000001001;
	631 :	0000000011101001;
	630 :	0000000110100100;
	629 :	1111111101110110;
	628 :	0000001001001110;
	627 :	0000001010010111;
	626 :	0000000011000000;
	625 :	0000001000001101;
	624 :	1111111100101001;
	623 :	1111101111001011;
	622 :	1111111101010001;
	621 :	1111110111110110;
	620 :	1111111000011110;
	619 :	1111111100101000;
	618 :	1111111111110111;
	617 :	1111111111100101;
	616 :	1111111111101010;
	615 :	1111111111011000;
	614 :	0000000000010101;
	613 :	1111111110110110;
	612 :	1111111101001011;
	611 :	1111111000111100;
	610 :	1111111010000101;
	609 :	1111110101010100;
	608 :	0000001111101010;
	607 :	0000010011010101;
	606 :	0000001000000000;
	605 :	0000000100100101;
	604 :	1111110010011010;
	603 :	0000011011011001;
	602 :	0000000100001000;
	601 :	0000000000010000;
	600 :	1111111101000000;
	599 :	0000000111100000;
	598 :	1111111111111101;
	597 :	1111111100001000;
	596 :	0000001011101111;
	595 :	1111111101010111;
	594 :	1111111000001101;
	593 :	1111111101010101;
	592 :	1111110011100000;
	591 :	1111110101101101;
	590 :	1111111111100011;
	589 :	0000000000001110;
	588 :	0000000000010111;
	587 :	0000000000110001;
	586 :	0000000000010000;
	585 :	0000000001010010;
	584 :	0000000011101111;
	583 :	1111111110011111;
	582 :	1111111010101011;
	581 :	1111100111111001;
	580 :	0000000010101110;
	579 :	0000011111100001;
	578 :	0000000101111001;
	577 :	0000001110101100;
	576 :	0000001010100100;
	575 :	1111111101010010;
	574 :	1111111010000100;
	573 :	0000000010101001;
	572 :	0000001000000111;
	571 :	0000000100111111;
	570 :	1111111110101010;
	569 :	1111111101000101;
	568 :	0000001101110010;
	567 :	0000000001011111;
	566 :	0000001100101110;
	565 :	0000000001110001;
	564 :	1111101111110000;
	563 :	1111111000001110;
	562 :	1111111111110011;
	561 :	0000000000010000;
	560 :	1111111111100101;
	559 :	0000000000011110;
	558 :	1111111111010101;
	557 :	0000000010111110;
	556 :	0000000000101001;
	555 :	1111111101011110;
	554 :	1111110100111011;
	553 :	1111101011101010;
	552 :	0000000101110011;
	551 :	0000010001111010;
	550 :	1111110000001100;
	549 :	0000000011110101;
	548 :	0000010101110001;
	547 :	0000010000100111;
	546 :	0000010100110111;
	545 :	0000010101001111;
	544 :	0000000001110000;
	543 :	0000000100001010;
	542 :	1111111010010111;
	541 :	1111111010011110;
	540 :	0000000101100101;
	539 :	1111111111001010;
	538 :	0000001100101001;
	537 :	0000000111000000;
	536 :	1111111100101011;
	535 :	1111111011001101;
	534 :	1111111111111011;
	533 :	1111111111101111;
	532 :	0000000000100100;
	531 :	1111111111010101;
	530 :	1111111111011101;
	529 :	0000000000000101;
	528 :	1111110110101001;
	527 :	1111101110000110;
	526 :	1111101101010100;
	525 :	1111101110011101;
	524 :	0000001000100101;
	523 :	0000001110001011;
	522 :	1111111001011100;
	521 :	0000000111000000;
	520 :	1111111010101101;
	519 :	0000000010001001;
	518 :	0000001100111010;
	517 :	1111111101000100;
	516 :	1111111000010001;
	515 :	1111111100001100;
	514 :	1111111010001101;
	513 :	1111110100011100;
	512 :	0000000000110110;
	511 :	1111111011100011;
	510 :	1111111111011101;
	509 :	1111110101011101;
	508 :	0000000011111111;
	507 :	1111111101100000;
	506 :	1111111111001111;
	505 :	1111111111011010;
	504 :	0000000000011111;
	503 :	1111111111001111;
	502 :	1111111111000001;
	501 :	1111111100101010;
	500 :	1111110110100111;
	499 :	1111110101111111;
	498 :	1111110001010000;
	497 :	1111101100110011;
	496 :	1111111011101100;
	495 :	1111111000000110;
	494 :	1111111110001110;
	493 :	0000000111001100;
	492 :	1111111011111110;
	491 :	0000001101111001;
	490 :	0000010011110010;
	489 :	1111111110000111;
	488 :	1111110100110011;
	487 :	1111101101111111;
	486 :	1111110011101110;
	485 :	0000000001010101;
	484 :	1111111111011101;
	483 :	0000000010011111;
	482 :	1111111111010001;
	481 :	0000000110000010;
	480 :	0000000001011001;
	479 :	0000000001100111;
	478 :	1111111111001010;
	477 :	1111111111111000;
	476 :	1111111111101000;
	475 :	1111111111010111;
	474 :	1111111111101111;
	473 :	1111111101100111;
	472 :	1111110010001010;
	471 :	1111101100000010;
	470 :	1111101011000001;
	469 :	1111101110101101;
	468 :	1111110001100101;
	467 :	1111110011010001;
	466 :	1111110110111111;
	465 :	1111111100100001;
	464 :	1111101101100011;
	463 :	1111110110010100;
	462 :	1111110111100111;
	461 :	0000000000100101;
	460 :	0000000100010000;
	459 :	1111111101011011;
	458 :	1111101111100100;
	457 :	1111101101000100;
	456 :	0000000010011110;
	455 :	1111111010111100;
	454 :	0000001000111000;
	453 :	0000001011100101;
	452 :	1111111100110100;
	451 :	0000000000001000;
	450 :	0000000000100111;
	449 :	0000000000010010;
	448 :	0000000000001000;
	447 :	1111111111011100;
	446 :	0000000000001011;
	445 :	1111111100111111;
	444 :	1111101110001010;
	443 :	1111101010101100;
	442 :	1111100010110111;
	441 :	1111101010111110;
	440 :	1111100110010101;
	439 :	1111100110001000;
	438 :	1111111111000100;
	437 :	1111110000000100;
	436 :	1111110111101100;
	435 :	1111111111001000;
	434 :	1111111111100101;
	433 :	1111111010000000;
	432 :	0000010011100110;
	431 :	1111101100110100;
	430 :	1111111110001000;
	429 :	0000010000001001;
	428 :	1111111110011100;
	427 :	0000000110101101;
	426 :	0000010001101110;
	425 :	0000001001110110;
	424 :	0000000001011011;
	423 :	1111111111001111;
	422 :	0000000000100000;
	421 :	1111111111111110;
	420 :	1111111111011010;
	419 :	1111111111001010;
	418 :	0000000000000000;
	417 :	1111111010001110;
	416 :	1111101000110010;
	415 :	1111100010101100;
	414 :	1111100010101000;
	413 :	1111100101001111;
	412 :	1111011110100100;
	411 :	1111010100000001;
	410 :	1111110101001100;
	409 :	1111111110011110;
	408 :	1111111010011000;
	407 :	0000000000111001;
	406 :	1111110011001110;
	405 :	1111101001110110;
	404 :	1111110010000000;
	403 :	1111100101110111;
	402 :	1111110111110011;
	401 :	0000000111000001;
	400 :	1111110101011010;
	399 :	1111111001101100;
	398 :	1111110101010111;
	397 :	1111111101101110;
	396 :	1111111111101111;
	395 :	0000000001010011;
	394 :	0000000001001100;
	393 :	0000000000100101;
	392 :	1111111111100011;
	391 :	1111111111010101;
	390 :	0000000000000010;
	389 :	1111111001110101;
	388 :	1111100110100000;
	387 :	1111011110110111;
	386 :	1111010111101101;
	385 :	1111010100110100;
	384 :	1111010101100010;
	383 :	1111000100100010;
	382 :	1111001000101011;
	381 :	1111100010111110;
	380 :	1111111000001100;
	379 :	1111100101111100;
	378 :	0000010000001011;
	377 :	1111111111000101;
	376 :	0000000100011110;
	375 :	1111111111000000;
	374 :	0000000101111001;
	373 :	0000000100101010;
	372 :	0000001001101010;
	371 :	1111111101101111;
	370 :	1111110100101101;
	369 :	1111111000000110;
	368 :	1111111001011010;
	367 :	1111111111010111;
	366 :	1111111111110100;
	365 :	0000000000000101;
	364 :	0000000000001001;
	363 :	0000000000110000;
	362 :	0000000001111111;
	361 :	0000000001010001;
	360 :	1111101001111110;
	359 :	1111100100110100;
	358 :	1111100111001010;
	357 :	1111011100010111;
	356 :	1111011100001111;
	355 :	1110111010001000;
	354 :	1110101110011000;
	353 :	1111000000111110;
	352 :	1111010100101101;
	351 :	1111011101001000;
	350 :	1111110100100100;
	349 :	1111111110110010;
	348 :	0000000000011101;
	347 :	1111111001111010;
	346 :	0000000011101111;
	345 :	0000000111111010;
	344 :	1111111000101101;
	343 :	1111110101111110;
	342 :	1111110010110110;
	341 :	1111110110011010;
	340 :	1111111010111011;
	339 :	0000000000001110;
	338 :	1111111111111000;
	337 :	1111111111001110;
	336 :	1111111111110101;
	335 :	1111111111000011;
	334 :	0000000110111110;
	333 :	0000010111111111;
	332 :	0000001001101110;
	331 :	0000000101110001;
	330 :	1111111101101000;
	329 :	0000000010100111;
	328 :	1111111011110000;
	327 :	1111101101010110;
	326 :	1111100100110001;
	325 :	1111011111110110;
	324 :	1111101000001011;
	323 :	1111101100110001;
	322 :	1111111110010101;
	321 :	1111101010101011;
	320 :	1111110010000010;
	319 :	1111110100010101;
	318 :	1111110001001110;
	317 :	1111101101001100;
	316 :	1111101101001000;
	315 :	1111110100111111;
	314 :	1111110011010000;
	313 :	1111111101001001;
	312 :	0000000000011000;
	311 :	0000000000110111;
	310 :	0000000000010000;
	309 :	0000000000010110;
	308 :	0000000000010110;
	307 :	0000000000000111;
	306 :	0000000110011001;
	305 :	0000100010001111;
	304 :	0000100111100110;
	303 :	0000010000110010;
	302 :	0000001101100111;
	301 :	0000001001111100;
	300 :	0000000100000000;
	299 :	0000001011000010;
	298 :	0000000001111001;
	297 :	1111110000101000;
	296 :	1111110011000100;
	295 :	0000010010100100;
	294 :	0000001000000101;
	293 :	0000001010010011;
	292 :	1111110010110000;
	291 :	1111110010011001;
	290 :	0000000100100101;
	289 :	1111110110001011;
	288 :	1111101110100111;
	287 :	0000000011000110;
	286 :	1111111011101011;
	285 :	1111111011101010;
	284 :	1111111110011000;
	283 :	0000000000100100;
	282 :	0000000000011111;
	281 :	1111111111100000;
	280 :	1111111111101101;
	279 :	0000000000111101;
	278 :	1111111111110010;
	277 :	0000011000011100;
	276 :	0000100010000001;
	275 :	1111111001100001;
	274 :	0000001110011001;
	273 :	0000010100100000;
	272 :	0000000101010111;
	271 :	0000000101000010;
	270 :	0000001110010110;
	269 :	0000001011111011;
	268 :	0000000000100010;
	267 :	0000001011011110;
	266 :	0000010110101001;
	265 :	0000001110101000;
	264 :	1111110111100011;
	263 :	0000000010010001;
	262 :	0000000011100110;
	261 :	1111110000110101;
	260 :	1111110000110001;
	259 :	1111111110101111;
	258 :	0000000010111000;
	257 :	1111111001010101;
	256 :	1111111110101000;
	255 :	0000000000010001;
	254 :	1111111111001001;
	253 :	0000000000010110;
	252 :	0000000000110101;
	251 :	0000000000011100;
	250 :	0000000111110001;
	249 :	0000011001100000;
	248 :	0000011001101010;
	247 :	1111111110100111;
	246 :	0000010010000011;
	245 :	0000010101110001;
	244 :	0000001011001000;
	243 :	1111111101100001;
	242 :	1111111101110000;
	241 :	1111111011100100;
	240 :	0000000010100111;
	239 :	0000000110110110;
	238 :	0000000101100101;
	237 :	0000000100100111;
	236 :	0000000111001010;
	235 :	1111110001001110;
	234 :	1111101100011111;
	233 :	1111111101110011;
	232 :	1111110110001100;
	231 :	1111110111111100;
	230 :	1111110111011101;
	229 :	1111110111110001;
	228 :	1111111110000111;
	227 :	0000000001000010;
	226 :	1111111111010001;
	225 :	0000000000000011;
	224 :	0000000001001000;
	223 :	0000000000111100;
	222 :	0000001101100000;
	221 :	0000000000100110;
	220 :	0000001010001111;
	219 :	0000001011100011;
	218 :	0000001000110100;
	217 :	0000000111011000;
	216 :	0000010010010111;
	215 :	1111110010101110;
	214 :	1111110011100111;
	213 :	1111111001100101;
	212 :	1111110111001010;
	211 :	1111110001000100;
	210 :	1111110100111010;
	209 :	1111101010110001;
	208 :	0000010100101101;
	207 :	1111101111010110;
	206 :	0000000100111100;
	205 :	1111110100110001;
	204 :	1111101000110010;
	203 :	1111101101110000;
	202 :	1111110011111100;
	201 :	1111111011010111;
	200 :	0000000000010101;
	199 :	0000000001100100;
	198 :	1111111111101110;
	197 :	0000000000011000;
	196 :	0000000000000101;
	195 :	0000000001101100;
	194 :	0000000101001011;
	193 :	1111111101110000;
	192 :	0000010010101100;
	191 :	0000010100110111;
	190 :	0000000100111001;
	189 :	0000000100110110;
	188 :	0000010100100000;
	187 :	0000001101011000;
	186 :	1111111001111001;
	185 :	1111110110010010;
	184 :	1111101110110010;
	183 :	1111101100111111;
	182 :	0000000100101001;
	181 :	0000000011101011;
	180 :	0000000011101111;
	179 :	1111110111010110;
	178 :	1111110111001001;
	177 :	1111100001100100;
	176 :	1111010111010100;
	175 :	1111100100000000;
	174 :	1111110101011010;
	173 :	1111111101101000;
	172 :	1111111110111111;
	171 :	0000000000011110;
	170 :	0000000000011110;
	169 :	1111111111100111;
	168 :	0000000000111111;
	167 :	1111111111010001;
	166 :	1111111110101111;
	165 :	1111111011010010;
	164 :	0000001110010100;
	163 :	0000010001001001;
	162 :	1111111111100101;
	161 :	1111110010101111;
	160 :	0000001110110010;
	159 :	1111111000000001;
	158 :	1111101010000010;
	157 :	1111101101111000;
	156 :	1111111011111010;
	155 :	0000000010011100;
	154 :	1111101110101001;
	153 :	1111111110000010;
	152 :	1111110011111110;
	151 :	1111110000010010;
	150 :	1111100101001100;
	149 :	1111101011000011;
	148 :	1111101101011011;
	147 :	1111110010110110;
	146 :	1111111001111110;
	145 :	1111111111100101;
	144 :	1111111111111011;
	143 :	0000000000000010;
	142 :	1111111111100000;
	141 :	0000000000011100;
	140 :	1111111111100100;
	139 :	1111111110101011;
	138 :	1111111100101100;
	137 :	0000000010111000;
	136 :	0000001111000100;
	135 :	0000001100001011;
	134 :	0000000000101001;
	133 :	0000000101110101;
	132 :	0000000000001100;
	131 :	1111110010000111;
	130 :	1111110010001110;
	129 :	1111110110101000;
	128 :	1111110111010101;
	127 :	1111111010001001;
	126 :	1111101100110010;
	125 :	1111111011100101;
	124 :	1111110110101100;
	123 :	1111110100100100;
	122 :	1111101101111111;
	121 :	1111110011010100;
	120 :	1111110111001000;
	119 :	1111111001101011;
	118 :	1111111101001010;
	117 :	1111111110001101;
	116 :	0000000000010111;
	115 :	0000000000010011;
	114 :	1111111111110101;
	113 :	1111111111101110;
	112 :	0000000000101100;
	111 :	0000000000001111;
	110 :	0000000000010001;
	109 :	0000000111100011;
	108 :	0000000011110101;
	107 :	0000000001001001;
	106 :	1111111111101000;
	105 :	1111111010000001;
	104 :	1111111100001011;
	103 :	1111111011000011;
	102 :	1111111011101011;
	101 :	0000000001110110;
	100 :	0000000111011100;
	99 :	1111111101101111;
	98 :	1111101100101110;
	97 :	1111111101001101;
	96 :	1111111110111111;
	95 :	1111110011100001;
	94 :	1111111001010010;
	93 :	1111111011100010;
	92 :	1111111111000100;
	91 :	0000000000000100;
	90 :	1111111111000111;
	89 :	1111111101101000;
	88 :	0000000001001011;
	87 :	1111111111000110;
	86 :	1111111111001000;
	85 :	1111111111110001;
	84 :	1111111111100010;
	83 :	0000000000011011;
	82 :	1111111111001110;
	81 :	0000000000011101;
	80 :	1111111111101111;
	79 :	1111111110110000;
	78 :	1111111111101001;
	77 :	1111111110111100;
	76 :	1111111111000010;
	75 :	1111111110111011;
	74 :	1111111111000001;
	73 :	0000000000101010;
	72 :	0000001001110110;
	71 :	0000001100101011;
	70 :	0000000010100100;
	69 :	0000000001011010;
	68 :	1111111110111000;
	67 :	1111111110010110;
	66 :	1111111111010010;
	65 :	1111111101101110;
	64 :	1111111110011111;
	63 :	0000000000011001;
	62 :	0000000000001000;
	61 :	1111111111011111;
	60 :	1111111111110011;
	59 :	1111111111101111;
	58 :	1111111111110110;
	57 :	0000000001000011;
	56 :	1111111111011010;
	55 :	0000000000010101;
	54 :	1111111111111111;
	53 :	0000000000000011;
	52 :	1111111111110110;
	51 :	1111111111111111;
	50 :	1111111111111100;
	49 :	1111111111110001;
	48 :	1111111111101101;
	47 :	1111111111101011;
	46 :	0000000000010000;
	45 :	0000000000000000;
	44 :	0000000000000010;
	43 :	0000000010001100;
	42 :	1111111111100110;
	41 :	0000000000001000;
	40 :	1111111111011010;
	39 :	0000000000101001;
	38 :	1111111111101010;
	37 :	1111111111111100;
	36 :	1111111111110010;
	35 :	1111111111100111;
	34 :	1111111111011111;
	33 :	1111111111101101;
	32 :	0000000000100110;
	31 :	1111111111010101;
	30 :	1111111111111100;
	29 :	0000000000001010;
	28 :	1111111111100101;
	27 :	1111111111101010;
	26 :	0000000000101010;
	25 :	0000000000000000;
	24 :	1111111111110100;
	23 :	1111111111110010;
	22 :	1111111111111100;
	21 :	0000000000010010;
	20 :	1111111111111101;
	19 :	0000000000001101;
	18 :	1111111111010001;
	17 :	0000000000111000;
	16 :	0000000000000011;
	15 :	0000000000110101;
	14 :	0000000000010100;
	13 :	1111111111111110;
	12 :	0000000000001111;
	11 :	1111111111111100;
	10 :	0000000001010001;
	9 :	1111111111010001;
	8 :	1111111111001101;
	7 :	1111111111110110;
	6 :	0000000000011110;
	5 :	0000000000000000;
	4 :	0000000000101011;
	3 :	1111111110101011;
	2 :	0000000000010000;
	1 :	1111111111011000;
	0 :	1111111111110001;
END;
