-- begin_signature
-- weight_memory(num_weight
-- 784
-- data_width
-- 16
-- address_width
-- 10
-- weight_file
-- "C:/SystemVerilog_NPU/w_1_13.mif")
-- end_signature
WIDTH=16;
DEPTH=784;

ADDRESS_RADIX=UNS;
DATA_RADIX=BIN;

CONTENT BEGIN
	783 :	0000000000000000;
	782 :	0000000000010100;
	781 :	1111111111110101;
	780 :	0000000000011111;
	779 :	1111111111001111;
	778 :	1111111010011111;
	777 :	1111111110100001;
	776 :	1111111110110000;
	775 :	1111111110111110;
	774 :	1111111110111110;
	773 :	1111111110111100;
	772 :	1111111111001111;
	771 :	1111111111011011;
	770 :	1111111111110110;
	769 :	0000000000000110;
	768 :	1111111111001110;
	767 :	1111111110101100;
	766 :	0000000000011001;
	765 :	1111111111111011;
	764 :	1111111111111001;
	763 :	0000000000001101;
	762 :	1111111111101110;
	761 :	0000000000011011;
	760 :	1111111111100101;
	759 :	1111111111011001;
	758 :	0000000000101100;
	757 :	0000000000001110;
	756 :	0000000000001100;
	755 :	1111111111010101;
	754 :	0000000000011001;
	753 :	0000000000010001;
	752 :	1111111110111110;
	751 :	0000000000010010;
	750 :	1111111011000110;
	749 :	1111111000111101;
	748 :	1111111100100010;
	747 :	1111111101001000;
	746 :	1111111010100001;
	745 :	1111111000101100;
	744 :	1111111000100001;
	743 :	1111110110101011;
	742 :	1111110101010100;
	741 :	1111111001101101;
	740 :	1111111101100011;
	739 :	1111111100111111;
	738 :	1111111101011111;
	737 :	1111110110111110;
	736 :	1111111011101000;
	735 :	1111111101101100;
	734 :	1111111110110001;
	733 :	1111111110010110;
	732 :	1111111111100001;
	731 :	0000000000000001;
	730 :	0000000000001111;
	729 :	1111111111100100;
	728 :	1111111111001100;
	727 :	0000000000011001;
	726 :	0000000001000100;
	725 :	0000000000011010;
	724 :	1111111111111001;
	723 :	1111111110000011;
	722 :	1111111010100011;
	721 :	1111110111110011;
	720 :	1111110101000110;
	719 :	1111110110010110;
	718 :	1111111100101110;
	717 :	0000000001110100;
	716 :	1111111110100010;
	715 :	0000000100100001;
	714 :	1111111111111101;
	713 :	1111110100110011;
	712 :	1111110110100001;
	711 :	1111110101101100;
	710 :	1111101101101111;
	709 :	1111100110000110;
	708 :	1111101111110101;
	707 :	1111111001000111;
	706 :	1111111011000100;
	705 :	1111111011001111;
	704 :	1111111110100111;
	703 :	0000000000000110;
	702 :	1111111111111011;
	701 :	0000000000010011;
	700 :	0000000000100100;
	699 :	1111111111101001;
	698 :	0000000001000010;
	697 :	0000000110110111;
	696 :	0000000111111011;
	695 :	0000000110000000;
	694 :	0000000100111010;
	693 :	0000001000110110;
	692 :	0000010000111001;
	691 :	0000001110001100;
	690 :	0000001100110111;
	689 :	0000010111101100;
	688 :	0000011011011110;
	687 :	0000010000110010;
	686 :	0000001010010011;
	685 :	0000001100101010;
	684 :	0000010100001111;
	683 :	1111110101011100;
	682 :	1111101100001010;
	681 :	1111111100010101;
	680 :	1111111110011101;
	679 :	1111110001000001;
	678 :	1111110110111110;
	677 :	1111110101100000;
	676 :	1111111000111010;
	675 :	1111111101110100;
	674 :	1111111110011110;
	673 :	0000000000010111;
	672 :	1111111111111001;
	671 :	0000000000001000;
	670 :	0000000000101010;
	669 :	0000000001100010;
	668 :	0000000011000000;
	667 :	0000001000111100;
	666 :	0000000111001010;
	665 :	0000001101111011;
	664 :	0000010000110011;
	663 :	0000001010001010;
	662 :	0000000100001111;
	661 :	0000000111111010;
	660 :	0000000011110110;
	659 :	0000000101110101;
	658 :	1111111110001001;
	657 :	1111111111011010;
	656 :	0000000010011100;
	655 :	1111110111110101;
	654 :	0000000010100010;
	653 :	1111111111101110;
	652 :	1111110011111100;
	651 :	1111101110110101;
	650 :	1111110101100001;
	649 :	1111110010000010;
	648 :	1111110010101001;
	647 :	1111111110001001;
	646 :	0000000000100001;
	645 :	0000000000000000;
	644 :	0000000000101010;
	643 :	1111111111110010;
	642 :	0000000000000000;
	641 :	0000000000000110;
	640 :	0000000001011111;
	639 :	0000001101010111;
	638 :	0000000100101111;
	637 :	0000001100000111;
	636 :	0000001101011101;
	635 :	1111110101000010;
	634 :	1111111011011111;
	633 :	0000000100111000;
	632 :	0000011100111111;
	631 :	0000001001001011;
	630 :	0000010011000000;
	629 :	1111111000100000;
	628 :	1111110111000011;
	627 :	1111101110100100;
	626 :	1111111100010110;
	625 :	0000000100011100;
	624 :	1111110100100110;
	623 :	1111110001101100;
	622 :	1111011111011001;
	621 :	0000000000010111;
	620 :	1111111000100101;
	619 :	1111111110010100;
	618 :	0000000000000101;
	617 :	1111111111011001;
	616 :	1111111111101000;
	615 :	0000000000101001;
	614 :	0000000001010111;
	613 :	1111111110111111;
	612 :	0000000010011001;
	611 :	0000010011110011;
	610 :	0000000110010100;
	609 :	1111111101001110;
	608 :	0000001110011010;
	607 :	0000010100110101;
	606 :	0000010000001011;
	605 :	0000010010000111;
	604 :	0000000000100010;
	603 :	0000001011010101;
	602 :	0000011111101010;
	601 :	0000010111110011;
	600 :	0000010101101000;
	599 :	1111110101111101;
	598 :	1111110010001111;
	597 :	0000000011011000;
	596 :	0000001000010110;
	595 :	1111111101101001;
	594 :	1111111000000110;
	593 :	0000001010010110;
	592 :	0000001000101011;
	591 :	0000000000101011;
	590 :	1111111110101100;
	589 :	0000000000001011;
	588 :	1111111111011011;
	587 :	0000000000001110;
	586 :	0000000000111011;
	585 :	1111111101011101;
	584 :	0000000111111011;
	583 :	0000001111000011;
	582 :	1111111011111000;
	581 :	1111111001110100;
	580 :	0000010111000101;
	579 :	0000001010111110;
	578 :	0000000110111100;
	577 :	0000001001010010;
	576 :	0000010011010011;
	575 :	0000000101111110;
	574 :	0000001010011101;
	573 :	0000010111010000;
	572 :	0000101101001001;
	571 :	0000001111110011;
	570 :	0000010101100000;
	569 :	0000001010100110;
	568 :	0000001110110110;
	567 :	0000000000100011;
	566 :	0000010011011011;
	565 :	0000010011110000;
	564 :	0000001110010101;
	563 :	0000000101110111;
	562 :	1111111110011110;
	561 :	0000000000110101;
	560 :	1111111111011111;
	559 :	0000000000001010;
	558 :	0000000000100100;
	557 :	1111111111100010;
	556 :	0000001101001010;
	555 :	0000010111001000;
	554 :	0000010001110000;
	553 :	0000010110011101;
	552 :	0000010100001010;
	551 :	0000000101101111;
	550 :	0000000110000100;
	549 :	0000010000001000;
	548 :	0000001100111001;
	547 :	1111110111001000;
	546 :	0000011001101110;
	545 :	0000011110101011;
	544 :	0000111011100101;
	543 :	0000110111111001;
	542 :	0000011010010111;
	541 :	0000100011010010;
	540 :	0000100110101011;
	539 :	0000011011110111;
	538 :	0000011100101001;
	537 :	0000010110010111;
	536 :	0000011001111000;
	535 :	0000001011010101;
	534 :	1111111111000010;
	533 :	1111111111111000;
	532 :	0000000000011011;
	531 :	0000000000110100;
	530 :	1111111110111100;
	529 :	0000000101100000;
	528 :	0000010000000011;
	527 :	0000010010101010;
	526 :	0000010010000111;
	525 :	0000000111110101;
	524 :	0000000101011101;
	523 :	0000010101000011;
	522 :	0000011011101011;
	521 :	0000110001000000;
	520 :	0000010101110010;
	519 :	0000001001111010;
	518 :	1111110010000110;
	517 :	1111110100101001;
	516 :	0000010100101111;
	515 :	0000001011110000;
	514 :	0000110001111000;
	513 :	0000101111000101;
	512 :	0000110001111001;
	511 :	0000101100001000;
	510 :	0000011110101010;
	509 :	0000100001001101;
	508 :	0000011110100001;
	507 :	0000000010010010;
	506 :	1111111110000100;
	505 :	0000000000001000;
	504 :	0000000000010001;
	503 :	0000000001011111;
	502 :	0000000000010110;
	501 :	0000001011101100;
	500 :	0000001001000011;
	499 :	0000010000010000;
	498 :	0000000110100000;
	497 :	1111110100110010;
	496 :	0000001101011110;
	495 :	0000100001101010;
	494 :	0000010001101100;
	493 :	0000001110100011;
	492 :	0000000101010110;
	491 :	1111111100111000;
	490 :	1111101101110011;
	489 :	1111100010111010;
	488 :	1111110110101010;
	487 :	0000000110100101;
	486 :	0000011010101001;
	485 :	0000000000010001;
	484 :	0000011101000001;
	483 :	0000100100100111;
	482 :	0000011111011001;
	481 :	0000100101111000;
	480 :	0000010100100110;
	479 :	1111111111101000;
	478 :	1111111100001001;
	477 :	1111111111010110;
	476 :	1111111111100111;
	475 :	1111111111110010;
	474 :	0000000011111111;
	473 :	0000001111100010;
	472 :	0000010000000110;
	471 :	0000011010111001;
	470 :	0000000010101101;
	469 :	0000000001010010;
	468 :	0000010110010010;
	467 :	0000011110101100;
	466 :	0000000110011010;
	465 :	1111110001001010;
	464 :	1111110101011110;
	463 :	1111110000011010;
	462 :	1111100110100101;
	461 :	1111011100000011;
	460 :	1111011001101101;
	459 :	1111110101110110;
	458 :	1111110011111011;
	457 :	1111111010111101;
	456 :	0000000001010001;
	455 :	0000010111110111;
	454 :	0000010000011010;
	453 :	0000010110101101;
	452 :	0000001111101001;
	451 :	0000000001110010;
	450 :	1111111011011110;
	449 :	1111111110111110;
	448 :	0000000000001101;
	447 :	0000000000101011;
	446 :	0000000110001110;
	445 :	0000001001000101;
	444 :	0000001100110000;
	443 :	0000001110110111;
	442 :	1111110100100000;
	441 :	1111111100000001;
	440 :	0000000111010100;
	439 :	1111111010011101;
	438 :	1111110111011101;
	437 :	1111110010110010;
	436 :	1111110110110010;
	435 :	1111110000011011;
	434 :	1111100001001100;
	433 :	1111101011001001;
	432 :	1111011111011100;
	431 :	1111100010000110;
	430 :	1111011111111010;
	429 :	1111010100011000;
	428 :	1111110000101000;
	427 :	1111110101101000;
	426 :	1111110101100101;
	425 :	0000000100010100;
	424 :	0000001101111100;
	423 :	1111111101100111;
	422 :	1111111101010011;
	421 :	1111111100101010;
	420 :	1111111111111010;
	419 :	1111111111010011;
	418 :	0000000000111010;
	417 :	0000000000010001;
	416 :	0000000101101110;
	415 :	0000001100100000;
	414 :	0000000000000001;
	413 :	1111111101010110;
	412 :	1111111010011011;
	411 :	0000000010110010;
	410 :	0000010101010101;
	409 :	1111110000000000;
	408 :	0000000011011111;
	407 :	1111101101110111;
	406 :	1111101100111001;
	405 :	1111101010011100;
	404 :	1111110100010010;
	403 :	1111110110011100;
	402 :	1111101101000100;
	401 :	1111100011011000;
	400 :	1111100110111000;
	399 :	1111101111101000;
	398 :	1111110000100011;
	397 :	1111101110110010;
	396 :	0000000010100000;
	395 :	1111111101010010;
	394 :	1111111101111110;
	393 :	1111111110000101;
	392 :	1111111111011010;
	391 :	0000000000101101;
	390 :	1111111101011111;
	389 :	1111111100001010;
	388 :	0000001001000001;
	387 :	0000010101100001;
	386 :	0000000010110000;
	385 :	1111111000111011;
	384 :	1111101110011001;
	383 :	0000010001010100;
	382 :	0000000101110100;
	381 :	1111111111110111;
	380 :	0000001010001001;
	379 :	1111100101110100;
	378 :	1111110000111110;
	377 :	1111101000111010;
	376 :	1111110001100101;
	375 :	1111101001110000;
	374 :	1111110111011000;
	373 :	1111101010101110;
	372 :	1111100100101101;
	371 :	1111101111011011;
	370 :	1111101011110101;
	369 :	1111110001001011;
	368 :	1111110000100100;
	367 :	1111111011110001;
	366 :	0000000000001000;
	365 :	1111111111111000;
	364 :	1111111111110101;
	363 :	1111111111110111;
	362 :	1111111010011110;
	361 :	1111111101101110;
	360 :	0000001010100110;
	359 :	1111110110000110;
	358 :	1111110000100110;
	357 :	0000000010111101;
	356 :	0000000010000110;
	355 :	1111111011101011;
	354 :	1111110011010101;
	353 :	1111111000001110;
	352 :	0000000101110010;
	351 :	0000000111010010;
	350 :	1111110010010111;
	349 :	1111101010000010;
	348 :	1111110001011011;
	347 :	1111110001100110;
	346 :	1111101010100011;
	345 :	1111111011100010;
	344 :	1111101010110000;
	343 :	1111101110011001;
	342 :	1111101111100111;
	341 :	1111110110010000;
	340 :	1111101111100010;
	339 :	1111111101100010;
	338 :	1111111111011001;
	337 :	1111111111100010;
	336 :	1111111111100011;
	335 :	0000000000111001;
	334 :	1111111000100001;
	333 :	1111111100001010;
	332 :	0000000101001100;
	331 :	1111110001001111;
	330 :	1111111100110001;
	329 :	0000001011010010;
	328 :	1111110000111010;
	327 :	1111111001000000;
	326 :	1111111101110100;
	325 :	1111111110111110;
	324 :	0000000101110110;
	323 :	0000000111111101;
	322 :	1111111110000101;
	321 :	1111101100001001;
	320 :	1111110101001010;
	319 :	1111111010111010;
	318 :	1111110110010000;
	317 :	1111101001101011;
	316 :	1111100101100010;
	315 :	1111110010010011;
	314 :	1111110100111001;
	313 :	1111111100101011;
	312 :	1111101111010110;
	311 :	1111111010001110;
	310 :	0000000000000111;
	309 :	0000000000000100;
	308 :	0000000000000000;
	307 :	0000000000011000;
	306 :	1111111011011111;
	305 :	1111110011111111;
	304 :	1111110101010011;
	303 :	1111101001010001;
	302 :	1111110000111111;
	301 :	0000000101001111;
	300 :	1111101001010110;
	299 :	1111110010011011;
	298 :	1111111011011011;
	297 :	1111101110110010;
	296 :	1111101011110101;
	295 :	0000000111010010;
	294 :	0000000100111001;
	293 :	1111111001101011;
	292 :	1111110101111101;
	291 :	1111111110011010;
	290 :	1111111101100000;
	289 :	0000000010110000;
	288 :	1111111100101010;
	287 :	1111110111011101;
	286 :	1111101100001010;
	285 :	1111110111100111;
	284 :	1111110110011000;
	283 :	1111111001101101;
	282 :	0000000000111010;
	281 :	1111111111111100;
	280 :	0000000000010001;
	279 :	0000000000001011;
	278 :	1111111011001100;
	277 :	1111101111001101;
	276 :	1111100011000101;
	275 :	1111101100101001;
	274 :	1111100011110011;
	273 :	1111100110100010;
	272 :	1111110100111010;
	271 :	1111101110001110;
	270 :	1111111010101110;
	269 :	1111011001001111;
	268 :	1111111110111110;
	267 :	0000000011110000;
	266 :	1111110100010001;
	265 :	1111101111101001;
	264 :	1111111001010001;
	263 :	1111110000101011;
	262 :	0000010100010111;
	261 :	1111111001100010;
	260 :	1111110011010010;
	259 :	1111101001000101;
	258 :	1111100001111010;
	257 :	0000000000011110;
	256 :	0000000001000111;
	255 :	1111111001110010;
	254 :	0000000000001001;
	253 :	1111111111110000;
	252 :	1111111111100110;
	251 :	1111111111010111;
	250 :	1111111101001001;
	249 :	1111110010010001;
	248 :	1111100001011101;
	247 :	1111110110000111;
	246 :	1111111011111101;
	245 :	1111110101101000;
	244 :	1111101100100101;
	243 :	1111110011011100;
	242 :	1111110010001111;
	241 :	1111111011110000;
	240 :	1111110001100000;
	239 :	1111111001100001;
	238 :	0000000111011110;
	237 :	1111110100100110;
	236 :	1111111011110001;
	235 :	0000000010010110;
	234 :	0000000110010011;
	233 :	0000000011010110;
	232 :	1111111110011100;
	231 :	1111111011110101;
	230 :	1111110011001110;
	229 :	0000000001100100;
	228 :	0000000010111011;
	227 :	1111111010001110;
	226 :	1111111111000100;
	225 :	1111111111110010;
	224 :	1111111111111101;
	223 :	0000000001001111;
	222 :	1111111101001001;
	221 :	0000000010010011;
	220 :	1111110101001010;
	219 :	1111111001000111;
	218 :	0000010001000111;
	217 :	0000001011100110;
	216 :	1111110110111001;
	215 :	0000000011111001;
	214 :	0000010100101101;
	213 :	0000000110011111;
	212 :	1111111010001011;
	211 :	0000001111001100;
	210 :	0000100100000100;
	209 :	1111110001010010;
	208 :	1111110000101100;
	207 :	0000001001011010;
	206 :	0000000000000110;
	205 :	1111111010000111;
	204 :	1111111101010100;
	203 :	0000000010010111;
	202 :	0000000010001000;
	201 :	0000001100100110;
	200 :	1111111100101000;
	199 :	1111111011010011;
	198 :	1111111110010111;
	197 :	1111111111101111;
	196 :	1111111111100100;
	195 :	0000000000111001;
	194 :	1111111111011001;
	193 :	1111111111101110;
	192 :	0000000000001001;
	191 :	1111110100111000;
	190 :	1111111111101001;
	189 :	0000000111110011;
	188 :	0000001010000010;
	187 :	0000000000001100;
	186 :	0000011001010111;
	185 :	0000000111010101;
	184 :	0000010011101110;
	183 :	0000001001010110;
	182 :	0000001010000111;
	181 :	1111101110110011;
	180 :	1111111010110000;
	179 :	1111101011110000;
	178 :	1111111101111101;
	177 :	1111111100011011;
	176 :	1111101111010000;
	175 :	1111110010001111;
	174 :	1111111001111001;
	173 :	1111111000001101;
	172 :	1111111101100101;
	171 :	1111111101011111;
	170 :	0000000000111011;
	169 :	0000000000101100;
	168 :	1111111111110010;
	167 :	0000000001110001;
	166 :	0000000011011011;
	165 :	0000000011100000;
	164 :	0000001100000001;
	163 :	0000010010101001;
	162 :	0000000000011000;
	161 :	0000000010011100;
	160 :	1111111011100111;
	159 :	0000000111101001;
	158 :	0000010011010000;
	157 :	1111100110111001;
	156 :	1111110001000010;
	155 :	0000000111010111;
	154 :	0000000000000111;
	153 :	1111110101010100;
	152 :	1111101111000101;
	151 :	1111111010100001;
	150 :	0000001101001011;
	149 :	0000000110000000;
	148 :	1111111010001000;
	147 :	1111111011011000;
	146 :	1111111111000001;
	145 :	1111111010001110;
	144 :	0000000000000000;
	143 :	1111111111110011;
	142 :	1111111111110110;
	141 :	0000000000101001;
	140 :	1111111111010111;
	139 :	0000000010000101;
	138 :	1111111111000011;
	137 :	0000000011111001;
	136 :	0000000111000110;
	135 :	0000000111110101;
	134 :	0000010000100001;
	133 :	1111111110101100;
	132 :	1111110111010110;
	131 :	1111111110100100;
	130 :	1111111001001100;
	129 :	0000000001001100;
	128 :	1111110110000100;
	127 :	0000010001111011;
	126 :	0000001110011000;
	125 :	0000000000111111;
	124 :	0000001000011011;
	123 :	0000000001110110;
	122 :	0000010001011100;
	121 :	0000010010100101;
	120 :	0000000110000010;
	119 :	0000001010101110;
	118 :	0000001000000100;
	117 :	1111111111100110;
	116 :	1111111111001011;
	115 :	1111111111101100;
	114 :	1111111111001100;
	113 :	1111111111010101;
	112 :	1111111111010100;
	111 :	1111111111101010;
	110 :	0000000001100001;
	109 :	0000000010001100;
	108 :	0000000100100001;
	107 :	0000000100100001;
	106 :	0000000110011100;
	105 :	0000000010000001;
	104 :	0000000110110011;
	103 :	0000000110100100;
	102 :	0000000111010111;
	101 :	0000010010010100;
	100 :	0000001110101000;
	99 :	0000010000010000;
	98 :	0000101000001011;
	97 :	0000100111111110;
	96 :	0000011110000000;
	95 :	0000001100110110;
	94 :	0000001110011111;
	93 :	0000001101000101;
	92 :	0000001010111101;
	91 :	0000001011001000;
	90 :	0000000111011101;
	89 :	0000000000011100;
	88 :	1111111111111011;
	87 :	1111111111011100;
	86 :	0000000000010110;
	85 :	1111111111110000;
	84 :	1111111111110110;
	83 :	0000000000011101;
	82 :	0000000000100101;
	81 :	1111111111101111;
	80 :	0000000000011101;
	79 :	0000000000100010;
	78 :	0000000010101100;
	77 :	0000000000011110;
	76 :	0000000000001000;
	75 :	1111111111101000;
	74 :	0000000000000000;
	73 :	0000000100100111;
	72 :	0000001000001111;
	71 :	0000001000001100;
	70 :	0000001110010110;
	69 :	0000001110101110;
	68 :	0000001011111001;
	67 :	0000001000101010;
	66 :	0000000110101100;
	65 :	0000000100010110;
	64 :	0000000011110001;
	63 :	0000000011001101;
	62 :	0000000000101001;
	61 :	0000000000000011;
	60 :	1111111111101010;
	59 :	0000000000001111;
	58 :	1111111111110001;
	57 :	0000000001011111;
	56 :	1111111111101000;
	55 :	0000000000001110;
	54 :	0000000000011000;
	53 :	1111111111111001;
	52 :	1111111111111111;
	51 :	0000000001101110;
	50 :	0000000000110111;
	49 :	0000000000100110;
	48 :	0000000000101010;
	47 :	0000000000111001;
	46 :	0000000000001001;
	45 :	0000000000100110;
	44 :	0000000000010000;
	43 :	1111111111010100;
	42 :	1111111111110001;
	41 :	0000000001010011;
	40 :	0000000000111010;
	39 :	0000000000101001;
	38 :	0000000000111110;
	37 :	1111111111111110;
	36 :	0000000000100110;
	35 :	1111111111111111;
	34 :	0000000000100101;
	33 :	0000000000101001;
	32 :	1111111111111110;
	31 :	1111111111110111;
	30 :	0000000000011000;
	29 :	0000000000011110;
	28 :	0000000000001011;
	27 :	1111111111011011;
	26 :	1111111111100010;
	25 :	0000000000000000;
	24 :	1111111111101001;
	23 :	0000000000000111;
	22 :	1111111111111100;
	21 :	1111111111100010;
	20 :	1111111111100111;
	19 :	1111111111110101;
	18 :	0000000000101010;
	17 :	1111111111110011;
	16 :	1111111111111101;
	15 :	1111111111110101;
	14 :	1111111111110100;
	13 :	1111111111110000;
	12 :	1111111111011100;
	11 :	1111111111010010;
	10 :	0000000001011001;
	9 :	1111111110101111;
	8 :	1111111111100100;
	7 :	0000000000001001;
	6 :	0000000000100000;
	5 :	0000000000000011;
	4 :	1111111111100011;
	3 :	0000000000001100;
	2 :	1111111111000101;
	1 :	1111111111111000;
	0 :	0000000000100001;
END;
