-- begin_signature
-- weight_memory(num_weight
-- 784
-- data_width
-- 16
-- address_width
-- 10
-- weight_file
-- "C:/SystemVerilog_NPU/w_1_29.mif")
-- end_signature
WIDTH=16;
DEPTH=784;

ADDRESS_RADIX=UNS;
DATA_RADIX=BIN;

CONTENT BEGIN
	783 :	0000000000000011;
	782 :	0000000000011110;
	781 :	0000000000001110;
	780 :	0000000000100100;
	779 :	1111111111010100;
	778 :	1111111110110000;
	777 :	0000000000001101;
	776 :	0000000000110110;
	775 :	0000000000000000;
	774 :	1111111111011010;
	773 :	1111111111110011;
	772 :	1111111111101101;
	771 :	1111111111101001;
	770 :	1111111111111010;
	769 :	1111111111011010;
	768 :	1111111111110011;
	767 :	0000000000100110;
	766 :	1111111111101010;
	765 :	1111111111101110;
	764 :	1111111111101101;
	763 :	1111111111101111;
	762 :	0000000000001001;
	761 :	1111111110111111;
	760 :	0000000000001000;
	759 :	0000000000000101;
	758 :	0000000000010011;
	757 :	1111111111111010;
	756 :	1111111111111011;
	755 :	0000000000110110;
	754 :	0000000000000110;
	753 :	1111111111000010;
	752 :	0000000000001000;
	751 :	0000000000111110;
	750 :	1111111111001001;
	749 :	1111111101001101;
	748 :	1111111110110100;
	747 :	1111111111101101;
	746 :	1111111110010001;
	745 :	1111111101011110;
	744 :	1111111111111100;
	743 :	1111111111110000;
	742 :	1111111101100010;
	741 :	1111111101111001;
	740 :	1111111110100110;
	739 :	1111111111100000;
	738 :	0000000000100110;
	737 :	0000000001100000;
	736 :	0000000001111010;
	735 :	0000000010001111;
	734 :	0000000000110101;
	733 :	0000000000001001;
	732 :	0000000000110100;
	731 :	1111111111110100;
	730 :	0000000000101000;
	729 :	0000000000110111;
	728 :	1111111111110100;
	727 :	0000000000010111;
	726 :	0000000000001101;
	725 :	0000000000001010;
	724 :	1111111110010111;
	723 :	1111111101111100;
	722 :	1111111100010010;
	721 :	1111111010111100;
	720 :	1111111011100001;
	719 :	1111111011001000;
	718 :	1111110111111100;
	717 :	1111111000001101;
	716 :	1111111001011100;
	715 :	1111111000000100;
	714 :	1111111001000011;
	713 :	1111111000010110;
	712 :	1111110100011100;
	711 :	1111110111100101;
	710 :	1111110110111001;
	709 :	1111111111010011;
	708 :	0000000000101010;
	707 :	0000000100000001;
	706 :	1111111111011111;
	705 :	0000000001111011;
	704 :	0000000000101101;
	703 :	0000000000101110;
	702 :	0000000001010011;
	701 :	1111111111100110;
	700 :	1111111111110011;
	699 :	0000000000011110;
	698 :	1111111111000010;
	697 :	0000000000011001;
	696 :	1111111110111111;
	695 :	1111111101001011;
	694 :	1111111100011101;
	693 :	1111110110011010;
	692 :	1111110101000000;
	691 :	1111111001100110;
	690 :	1111111101100011;
	689 :	1111111100010100;
	688 :	1111111000111110;
	687 :	1111111001100111;
	686 :	1111110001011010;
	685 :	1111111001010010;
	684 :	0000000101011110;
	683 :	0000000110100110;
	682 :	0000010010111110;
	681 :	0000000111101110;
	680 :	1111111111001101;
	679 :	0000000000010111;
	678 :	0000000110100010;
	677 :	0000001001111010;
	676 :	0000000010010111;
	675 :	0000000000100000;
	674 :	1111111111011100;
	673 :	0000000000000100;
	672 :	0000000000001111;
	671 :	0000000000011011;
	670 :	1111111111111010;
	669 :	1111111111010111;
	668 :	1111111111101110;
	667 :	1111111011001100;
	666 :	1111111010001111;
	665 :	1111110111011010;
	664 :	1111101111101100;
	663 :	1111101101110101;
	662 :	1111100110011000;
	661 :	1111111110000011;
	660 :	1111111111101100;
	659 :	1111111000000010;
	658 :	1111110011001100;
	657 :	1111111111110001;
	656 :	0000000010100110;
	655 :	0000001001100101;
	654 :	0000011010010111;
	653 :	0000010101101110;
	652 :	0000001110010000;
	651 :	0000001111100101;
	650 :	0000001110110010;
	649 :	0000000100011110;
	648 :	1111111101100010;
	647 :	1111111111000101;
	646 :	1111111111101000;
	645 :	1111111111110100;
	644 :	0000000000011110;
	643 :	1111111111100011;
	642 :	0000000000000011;
	641 :	1111111110100100;
	640 :	1111111101010100;
	639 :	1111111101100110;
	638 :	0000000001010000;
	637 :	0000000000100111;
	636 :	1111110110100010;
	635 :	0000000000101001;
	634 :	1111111001111000;
	633 :	1111111111100000;
	632 :	1111110110110110;
	631 :	1111110111000011;
	630 :	1111110111101000;
	629 :	1111111010100000;
	628 :	1111111101110101;
	627 :	0000000010101101;
	626 :	0000001110110001;
	625 :	0000010011110011;
	624 :	0000010011001101;
	623 :	0000000001100000;
	622 :	0000000101100011;
	621 :	0000000011111101;
	620 :	1111111100000011;
	619 :	1111111110011100;
	618 :	1111111111111000;
	617 :	1111111111011110;
	616 :	1111111111110110;
	615 :	1111111111000101;
	614 :	0000000000000001;
	613 :	1111111101000010;
	612 :	1111110101001111;
	611 :	1111110111100000;
	610 :	0000000000000010;
	609 :	1111111010001111;
	608 :	1111111101101111;
	607 :	1111101110110110;
	606 :	1111101011110001;
	605 :	1111101011101010;
	604 :	1111111001110000;
	603 :	1111111111110001;
	602 :	1111101110110101;
	601 :	1111110101010011;
	600 :	1111110111100100;
	599 :	1111111101110001;
	598 :	0000011010000101;
	597 :	0000001111011110;
	596 :	0000000101011000;
	595 :	0000001101101111;
	594 :	0000000010110101;
	593 :	1111111010110010;
	592 :	0000000010000100;
	591 :	0000000000100000;
	590 :	1111111101100010;
	589 :	1111111111011111;
	588 :	0000000000011000;
	587 :	0000000000010010;
	586 :	0000000000001111;
	585 :	1111111000000110;
	584 :	1111110001101000;
	583 :	1111101110110010;
	582 :	1111110110010010;
	581 :	1111111101100101;
	580 :	1111111001011100;
	579 :	1111111100000101;
	578 :	1111111100101001;
	577 :	1111111000100000;
	576 :	1111110110010101;
	575 :	1111110111000011;
	574 :	1111101011100111;
	573 :	0000000101100000;
	572 :	1111111110101101;
	571 :	1111111000001110;
	570 :	0000011111011001;
	569 :	0000001101001010;
	568 :	0000010100010000;
	567 :	0000010000010100;
	566 :	1111110010100000;
	565 :	1111110010101110;
	564 :	0000000011000000;
	563 :	1111111101100011;
	562 :	1111111111011000;
	561 :	0000000000111011;
	560 :	0000000001001100;
	559 :	1111111111100111;
	558 :	1111111111010001;
	557 :	1111110100100100;
	556 :	1111110010111011;
	555 :	1111111000111001;
	554 :	0000010011010100;
	553 :	0000001101101011;
	552 :	0000000001100111;
	551 :	1111110101100000;
	550 :	1111111111100110;
	549 :	1111111100101110;
	548 :	1111111010111000;
	547 :	1111110001010001;
	546 :	0000000101011001;
	545 :	1111111000110100;
	544 :	1111111100101010;
	543 :	1111011110100010;
	542 :	1111110101100101;
	541 :	0000010110111010;
	540 :	0000010110011011;
	539 :	0000000000001011;
	538 :	1111111100001011;
	537 :	1111110100111100;
	536 :	1111111111010011;
	535 :	1111111000000001;
	534 :	0000000000100001;
	533 :	0000000000110101;
	532 :	1111111111000010;
	531 :	1111111111011001;
	530 :	1111111111111000;
	529 :	1111110110010110;
	528 :	1111110010101001;
	527 :	0000000001011111;
	526 :	0000010100011011;
	525 :	1111111100110110;
	524 :	1111111000110101;
	523 :	1111111000111110;
	522 :	1111111011111100;
	521 :	1111111011010110;
	520 :	0000000011101110;
	519 :	0000000011101000;
	518 :	0000000111000001;
	517 :	1111110100011001;
	516 :	1111101010101011;
	515 :	1111100001001110;
	514 :	0000000101000110;
	513 :	0000100001010110;
	512 :	0000011010000010;
	511 :	1111110101110101;
	510 :	0000000010110010;
	509 :	0000000101100110;
	508 :	0000000111111101;
	507 :	1111110111111110;
	506 :	0000000000010101;
	505 :	0000000000100101;
	504 :	0000000000010011;
	503 :	0000000001000100;
	502 :	1111111111100101;
	501 :	1111110110010001;
	500 :	1111111100000011;
	499 :	0000000000010101;
	498 :	0000000101111001;
	497 :	1111101111010010;
	496 :	0000000011101101;
	495 :	1111111101000110;
	494 :	1111101101001001;
	493 :	1111110011110010;
	492 :	1111101001101011;
	491 :	1111101111111011;
	490 :	0000000000101000;
	489 :	1111111001010011;
	488 :	1111101001011100;
	487 :	1111011101010010;
	486 :	1111111111000001;
	485 :	0000001110011110;
	484 :	0000001100110001;
	483 :	0000001001110110;
	482 :	0000000110010110;
	481 :	0000010110001000;
	480 :	1111111100110100;
	479 :	1111111000100111;
	478 :	0000000000111110;
	477 :	0000000000011001;
	476 :	0000000000011001;
	475 :	1111111111110010;
	474 :	1111111110010101;
	473 :	1111111011000000;
	472 :	1111111000001010;
	471 :	0000000000010100;
	470 :	1111111110111010;
	469 :	1111111010101010;
	468 :	0000001010000001;
	467 :	1111110111110011;
	466 :	1111110011010000;
	465 :	1111111010010110;
	464 :	1111100110001010;
	463 :	1111101100000001;
	462 :	1111111000100001;
	461 :	1111100011010010;
	460 :	1111011011001011;
	459 :	1111011011000111;
	458 :	1111101101100111;
	457 :	0000001101011000;
	456 :	0000001101100011;
	455 :	0000001110011001;
	454 :	0000000110110110;
	453 :	0000011011110011;
	452 :	1111111110011001;
	451 :	1111110110100111;
	450 :	0000000000001101;
	449 :	0000000000001010;
	448 :	1111111111101111;
	447 :	1111111111110101;
	446 :	1111111111010111;
	445 :	1111111101011000;
	444 :	0000000010101101;
	443 :	0000001111100000;
	442 :	0000000100011011;
	441 :	1111111101101100;
	440 :	0000001001011101;
	439 :	1111110110011110;
	438 :	1111111001111000;
	437 :	1111100010110000;
	436 :	1111101011101100;
	435 :	1111110001011001;
	434 :	1111110000111101;
	433 :	1111111000101000;
	432 :	1111100111110111;
	431 :	1111100001111010;
	430 :	1111111011001001;
	429 :	0000001100110100;
	428 :	0000010110100010;
	427 :	0000001111011011;
	426 :	0000000011100101;
	425 :	0000010010000110;
	424 :	1111111101001011;
	423 :	1111110111011100;
	422 :	1111111111111101;
	421 :	1111111111100110;
	420 :	0000000000011010;
	419 :	1111111110110101;
	418 :	1111111111110001;
	417 :	0000000010110010;
	416 :	0000001001001000;
	415 :	0000010000000010;
	414 :	0000000101010011;
	413 :	0000000100110000;
	412 :	0000000010010010;
	411 :	1111111101100100;
	410 :	1111110100001010;
	409 :	1111100001000101;
	408 :	1111100010000101;
	407 :	1111110001010110;
	406 :	1111111101100000;
	405 :	0000000011110011;
	404 :	1111111001010010;
	403 :	1111111101100001;
	402 :	0000000000000100;
	401 :	0000000011110110;
	400 :	0000010000010111;
	399 :	0000010010001010;
	398 :	0000001111011110;
	397 :	0000001111100100;
	396 :	0000000011010011;
	395 :	1111111010101010;
	394 :	1111111111001011;
	393 :	0000000000000101;
	392 :	0000000000010010;
	391 :	1111111111100001;
	390 :	0000000000000111;
	389 :	0000000100010000;
	388 :	0000001011101011;
	387 :	0000010100100111;
	386 :	0000001010000100;
	385 :	1111111011011101;
	384 :	1111101111010100;
	383 :	1111111010011011;
	382 :	1111110111010101;
	381 :	1111100100101010;
	380 :	1111100000101100;
	379 :	1111101110001110;
	378 :	1111111110010010;
	377 :	0000000001101000;
	376 :	1111111101110010;
	375 :	1111110100100100;
	374 :	0000010001000011;
	373 :	0000000110001001;
	372 :	0000001010011110;
	371 :	0000000101100011;
	370 :	0000010010101101;
	369 :	0000000001000110;
	368 :	0000000000101110;
	367 :	1111111100110000;
	366 :	0000000000010000;
	365 :	1111111111110101;
	364 :	0000000000100010;
	363 :	1111111111011111;
	362 :	1111111111110001;
	361 :	0000000011110110;
	360 :	0000010011110100;
	359 :	0000010010101001;
	358 :	0000001110111100;
	357 :	1111110111110000;
	356 :	0000000011010101;
	355 :	0000001001110111;
	354 :	1111110001111000;
	353 :	1111011111001000;
	352 :	1111011110010010;
	351 :	1111101110100100;
	350 :	0000000001111001;
	349 :	0000001110100100;
	348 :	1111111100100001;
	347 :	1111111110011000;
	346 :	0000000000001001;
	345 :	0000001000000111;
	344 :	1111111110011110;
	343 :	1111111011011010;
	342 :	0000001111011110;
	341 :	1111111110110001;
	340 :	1111111011100111;
	339 :	1111111111010110;
	338 :	0000000000010011;
	337 :	1111111111111000;
	336 :	0000000000010100;
	335 :	1111111111111011;
	334 :	1111111101111011;
	333 :	1111111110010101;
	332 :	0000001011011011;
	331 :	0000001001101111;
	330 :	0000010111010001;
	329 :	0000001000010111;
	328 :	0000001110100100;
	327 :	1111111010011010;
	326 :	1111011110010101;
	325 :	1111010100111000;
	324 :	1111011100001011;
	323 :	1111110111010001;
	322 :	0000001011000110;
	321 :	1111110111010011;
	320 :	1111110010010101;
	319 :	1111111111000010;
	318 :	1111111010111110;
	317 :	0000000010110110;
	316 :	1111111011100001;
	315 :	0000000110011100;
	314 :	0000001011100000;
	313 :	1111110101010011;
	312 :	1111111010001010;
	311 :	1111111101101011;
	310 :	0000000000010001;
	309 :	0000000000000011;
	308 :	0000000000010110;
	307 :	0000000000001101;
	306 :	1111111010101010;
	305 :	1111110110011011;
	304 :	0000000001001110;
	303 :	0000010011000001;
	302 :	0000011100101110;
	301 :	0000010100111101;
	300 :	0000010011100111;
	299 :	0000000111110000;
	298 :	0000000001101100;
	297 :	0000000011011101;
	296 :	0000000111100100;
	295 :	0000010010001001;
	294 :	0000000111111001;
	293 :	1111110101000101;
	292 :	0000001101011101;
	291 :	1111110100101111;
	290 :	1111101010110100;
	289 :	0000000010111010;
	288 :	0000000000111010;
	287 :	0000000101000001;
	286 :	1111110111000101;
	285 :	1111111011000011;
	284 :	1111111010010100;
	283 :	1111111110011101;
	282 :	1111111111001010;
	281 :	1111111111111001;
	280 :	0000000000000110;
	279 :	1111111111011101;
	278 :	1111111010001110;
	277 :	1111110011110110;
	276 :	1111111110111111;
	275 :	0000001101000110;
	274 :	1111110110110011;
	273 :	1111110110001100;
	272 :	0000101110000011;
	271 :	0000010110100111;
	270 :	0000001001000100;
	269 :	1111110101111011;
	268 :	0000000011101100;
	267 :	1111110100000100;
	266 :	1111101110100000;
	265 :	0000000001011000;
	264 :	1111110001001001;
	263 :	1111100101100110;
	262 :	1111110101101001;
	261 :	0000000000000000;
	260 :	1111110101111100;
	259 :	1111110110010100;
	258 :	1111111100010011;
	257 :	1111111000110110;
	256 :	1111111101000010;
	255 :	1111111110111010;
	254 :	1111111111110011;
	253 :	0000000000000111;
	252 :	1111111111101111;
	251 :	1111111111100010;
	250 :	1111111010110011;
	249 :	1111110110111101;
	248 :	1111111110100111;
	247 :	0000000000010100;
	246 :	1111111101010001;
	245 :	1111110101101111;
	244 :	0000010001111111;
	243 :	0000010101111010;
	242 :	0000010000101100;
	241 :	1111111000011001;
	240 :	0000011100110100;
	239 :	0000000000111000;
	238 :	0000000011001010;
	237 :	1111110111110010;
	236 :	0000000010100010;
	235 :	1111111010100111;
	234 :	1111110001000101;
	233 :	1111110100110110;
	232 :	1111101011011000;
	231 :	1111110100000101;
	230 :	1111111110111110;
	229 :	1111111000101100;
	228 :	1111111111100110;
	227 :	0000000000000100;
	226 :	0000000000000100;
	225 :	0000000000000101;
	224 :	1111111111111101;
	223 :	1111111111101100;
	222 :	1111111101100111;
	221 :	0000000110010100;
	220 :	0000001010010001;
	219 :	0000001000100101;
	218 :	0000000010010000;
	217 :	0000000101110010;
	216 :	0000001001010100;
	215 :	0000100010000101;
	214 :	0000011011100100;
	213 :	0000000111000100;
	212 :	0000000011011001;
	211 :	0000000001101110;
	210 :	1111111111011111;
	209 :	0000001011100010;
	208 :	0000000110001101;
	207 :	0000000001000110;
	206 :	0000000110000011;
	205 :	1111110000010011;
	204 :	1111100001010000;
	203 :	0000000110111001;
	202 :	0000000110010010;
	201 :	0000000000101110;
	200 :	0000000001101011;
	199 :	0000000000100000;
	198 :	0000000000000010;
	197 :	1111111111100100;
	196 :	1111111111110001;
	195 :	1111111101110101;
	194 :	1111111100101111;
	193 :	1111110110000100;
	192 :	1111101101100000;
	191 :	1111110011010101;
	190 :	0000000101001001;
	189 :	0000001000100010;
	188 :	0000001010011101;
	187 :	0000001010110110;
	186 :	0000000101011100;
	185 :	0000001010100100;
	184 :	1111111011101010;
	183 :	1111111001100001;
	182 :	0000000111010010;
	181 :	0000001001100100;
	180 :	1111111000011011;
	179 :	1111110111100011;
	178 :	1111111010101101;
	177 :	1111100011110000;
	176 :	1111110110111110;
	175 :	0000000001000011;
	174 :	1111111110101111;
	173 :	1111111101101111;
	172 :	0000000010001101;
	171 :	0000000000000111;
	170 :	1111111111010000;
	169 :	0000000000001100;
	168 :	0000000000111011;
	167 :	1111111111011001;
	166 :	1111111111100000;
	165 :	1111111100000011;
	164 :	1111110111101000;
	163 :	1111110110110011;
	162 :	1111111111111000;
	161 :	1111111110011011;
	160 :	1111111100111100;
	159 :	0000000110010111;
	158 :	0000010010011100;
	157 :	0000010010101010;
	156 :	0000000110011101;
	155 :	1111111010011000;
	154 :	1111111010011000;
	153 :	0000001011101000;
	152 :	0000000010000101;
	151 :	0000000010101101;
	150 :	1111110111110011;
	149 :	1111110100110101;
	148 :	0000000001011101;
	147 :	0000000010001000;
	146 :	0000000000101110;
	145 :	0000000000110100;
	144 :	0000000010011001;
	143 :	1111111111011000;
	142 :	1111111111110000;
	141 :	0000000001000000;
	140 :	0000000000001101;
	139 :	0000000000011110;
	138 :	1111111101100101;
	137 :	1111111011111011;
	136 :	1111111011100101;
	135 :	0000000110101100;
	134 :	0000000010011011;
	133 :	1111110101101010;
	132 :	1111111100010101;
	131 :	1111110100011010;
	130 :	0000000110001101;
	129 :	0000010001001010;
	128 :	0000000010101001;
	127 :	1111111100100100;
	126 :	0000000000010111;
	125 :	1111111001011000;
	124 :	1111110000111011;
	123 :	1111111110011110;
	122 :	1111110111100110;
	121 :	1111111010100110;
	120 :	0000000000101101;
	119 :	0000000000011001;
	118 :	1111111110110011;
	117 :	1111111110110001;
	116 :	0000000000001001;
	115 :	0000000000010100;
	114 :	0000000000110101;
	113 :	0000000000000101;
	112 :	1111111111101001;
	111 :	0000000000000111;
	110 :	1111111111010101;
	109 :	1111111100010011;
	108 :	0000000001000100;
	107 :	0000000100011001;
	106 :	0000000000010100;
	105 :	1111111011111110;
	104 :	0000000100101111;
	103 :	1111110111001011;
	102 :	1111101010101011;
	101 :	1111110010101110;
	100 :	0000000010010100;
	99 :	0000000110100111;
	98 :	0000001001111010;
	97 :	1111111011100111;
	96 :	1111110110100010;
	95 :	1111111010101011;
	94 :	1111111101100000;
	93 :	1111111110000100;
	92 :	0000000001100010;
	91 :	0000000010101001;
	90 :	1111111110110011;
	89 :	1111111110010011;
	88 :	0000000000010100;
	87 :	0000000001110111;
	86 :	1111111111001110;
	85 :	1111111110111001;
	84 :	1111111111001111;
	83 :	1111111111101011;
	82 :	1111111111110101;
	81 :	1111111111011101;
	80 :	1111111111111011;
	79 :	0000000000001011;
	78 :	1111111111100100;
	77 :	0000000000001011;
	76 :	1111111101010111;
	75 :	1111111111101001;
	74 :	1111111110101111;
	73 :	1111111110010111;
	72 :	1111111100000100;
	71 :	1111111101100101;
	70 :	1111111110100110;
	69 :	1111111110100010;
	68 :	1111111111101001;
	67 :	1111111110010000;
	66 :	1111111111010111;
	65 :	1111111111010111;
	64 :	0000000000000100;
	63 :	1111111111001010;
	62 :	1111111110100110;
	61 :	1111111111111011;
	60 :	1111111111110111;
	59 :	1111111111110110;
	58 :	0000000000011100;
	57 :	1111111111011000;
	56 :	0000000000001101;
	55 :	0000000000011000;
	54 :	0000000000011011;
	53 :	1111111111011010;
	52 :	1111111111101110;
	51 :	0000000000001100;
	50 :	0000000000000001;
	49 :	0000000000110001;
	48 :	0000000000111001;
	47 :	1111111111111100;
	46 :	1111111111101110;
	45 :	0000000000000111;
	44 :	0000000000010101;
	43 :	0000000000000101;
	42 :	1111111111101111;
	41 :	0000000000110010;
	40 :	0000000001001100;
	39 :	0000000010000111;
	38 :	1111111111011100;
	37 :	1111111111010011;
	36 :	1111111111010111;
	35 :	0000000000000010;
	34 :	0000000000000010;
	33 :	0000000000101101;
	32 :	1111111111111001;
	31 :	0000000000010110;
	30 :	0000000000010000;
	29 :	0000000000011000;
	28 :	1111111111111010;
	27 :	1111111111100011;
	26 :	0000000000001100;
	25 :	1111111111100111;
	24 :	0000000000000111;
	23 :	1111111111101110;
	22 :	0000000000000001;
	21 :	1111111111001000;
	20 :	0000000000001101;
	19 :	1111111111111000;
	18 :	1111111111100100;
	17 :	1111111111111001;
	16 :	1111111111111010;
	15 :	1111111110110100;
	14 :	0000000000100111;
	13 :	1111111111011110;
	12 :	1111111111100100;
	11 :	1111111111111000;
	10 :	0000000000100010;
	9 :	0000000000001010;
	8 :	0000000000001011;
	7 :	1111111111111001;
	6 :	1111111111110001;
	5 :	1111111111100111;
	4 :	1111111111110100;
	3 :	1111111111110001;
	2 :	0000000000011111;
	1 :	0000000000011001;
	0 :	0000000000100111;
END;
