-- begin_signature
-- weight_memory(num_weight
-- 784
-- data_width
-- 16
-- address_width
-- 10
-- weight_file
-- "C:/SystemVerilog_NPU/w_1_22.mif")
-- end_signature
WIDTH=16;
DEPTH=784;

ADDRESS_RADIX=UNS;
DATA_RADIX=BIN;

CONTENT BEGIN
	783 :	1111111111110000;
	782 :	1111111110100010;
	781 :	1111111111111101;
	780 :	1111111111001101;
	779 :	1111111111100110;
	778 :	1111111110111101;
	777 :	0000000000011100;
	776 :	1111111111110110;
	775 :	1111111111001001;
	774 :	1111110111111011;
	773 :	1111111101001110;
	772 :	1111111100010001;
	771 :	1111111010101110;
	770 :	1111111011011001;
	769 :	1111111101110111;
	768 :	1111111001100000;
	767 :	1111111101011111;
	766 :	1111111110001101;
	765 :	1111111111010110;
	764 :	1111111101111011;
	763 :	1111111110000110;
	762 :	1111111111010110;
	761 :	1111111111110000;
	760 :	1111111111001001;
	759 :	1111111111111101;
	758 :	0000000000001001;
	757 :	0000000000010101;
	756 :	1111111111101011;
	755 :	1111111111111010;
	754 :	0000000000000010;
	753 :	1111111111110001;
	752 :	1111111111001110;
	751 :	1111111111101011;
	750 :	1111111101011111;
	749 :	1111110101001011;
	748 :	1111110011101001;
	747 :	1111110110100001;
	746 :	1111100110110100;
	745 :	1111100110010101;
	744 :	1111100101001000;
	743 :	1111101000111011;
	742 :	1111011000111001;
	741 :	1111101001110110;
	740 :	1111101101110011;
	739 :	1111110111101011;
	738 :	1111110010101001;
	737 :	1111110010001000;
	736 :	1111111001100010;
	735 :	1111110110100111;
	734 :	1111111001000010;
	733 :	1111111010000110;
	732 :	1111111101000111;
	731 :	0000000000100110;
	730 :	0000000000110100;
	729 :	1111111111110010;
	728 :	1111111111110100;
	727 :	1111111111101001;
	726 :	1111111111111110;
	725 :	1111111111101000;
	724 :	1111111111001011;
	723 :	1111111110100111;
	722 :	0000000000011101;
	721 :	1111111000100011;
	720 :	1111101101101111;
	719 :	1111100000111110;
	718 :	1111110000011100;
	717 :	1111101101111011;
	716 :	1111101010010001;
	715 :	1111111010000010;
	714 :	1111110100101100;
	713 :	0000000111001001;
	712 :	1111110110100111;
	711 :	1111111011011101;
	710 :	1111111100000100;
	709 :	1111101000001010;
	708 :	1111100110001011;
	707 :	1111101100111010;
	706 :	1111110100100110;
	705 :	1111110110101000;
	704 :	1111111101101101;
	703 :	1111111111110101;
	702 :	1111111111011001;
	701 :	0000000000000010;
	700 :	1111111111111100;
	699 :	1111111111111111;
	698 :	1111111111110011;
	697 :	0000000011111000;
	696 :	0000000010000011;
	695 :	1111110111100111;
	694 :	0000000000000100;
	693 :	0000000100000100;
	692 :	1111101111101100;
	691 :	0000000101101000;
	690 :	0000011111000001;
	689 :	0000011000111001;
	688 :	0000100001010010;
	687 :	0000000010001000;
	686 :	0000010100001010;
	685 :	0000000110000010;
	684 :	1111111100101101;
	683 :	1111111100010010;
	682 :	1111101101001100;
	681 :	1111110101100110;
	680 :	1111101010100010;
	679 :	1111101101110101;
	678 :	1111111001111111;
	677 :	1111111011000001;
	676 :	1111111100001111;
	675 :	1111111110101000;
	674 :	1111111111101011;
	673 :	0000000001010111;
	672 :	0000000000000000;
	671 :	1111111111010100;
	670 :	0000000000011101;
	669 :	0000000011111110;
	668 :	1111110111100101;
	667 :	1111110011011110;
	666 :	1111110110100010;
	665 :	0000001001010101;
	664 :	1111111100101100;
	663 :	0000001100000000;
	662 :	0000101001000000;
	661 :	0000011000111000;
	660 :	0000011001110111;
	659 :	0000100000000111;
	658 :	0000100001001011;
	657 :	0000000110000100;
	656 :	0000000110100001;
	655 :	0000000001110110;
	654 :	1111111000101100;
	653 :	0000000111101000;
	652 :	1111111101101011;
	651 :	1111111000011010;
	650 :	1111111000011100;
	649 :	1111111010110110;
	648 :	0000000000010001;
	647 :	0000000000001001;
	646 :	0000000001001011;
	645 :	1111111111010101;
	644 :	0000000000011111;
	643 :	0000000000000000;
	642 :	0000000000100110;
	641 :	1111111101101100;
	640 :	1111111010101010;
	639 :	1111110011000010;
	638 :	1111110001100011;
	637 :	0000000110100001;
	636 :	1111111111001110;
	635 :	0000001110111111;
	634 :	0000011101010001;
	633 :	0000011010000100;
	632 :	0000000110011110;
	631 :	0000001110010010;
	630 :	0000000000110110;
	629 :	0000100000000111;
	628 :	0000001110100011;
	627 :	0000011010010100;
	626 :	0000000000101011;
	625 :	0000001110111111;
	624 :	0000010010101000;
	623 :	0000000110001100;
	622 :	1111111101011101;
	621 :	1111111101001001;
	620 :	1111111110011100;
	619 :	0000000001011110;
	618 :	0000000001011011;
	617 :	1111111111111011;
	616 :	0000000000100011;
	615 :	0000000000000001;
	614 :	0000000001011000;
	613 :	0000000001000101;
	612 :	1111111001110111;
	611 :	0000000100011001;
	610 :	1111111100010111;
	609 :	0000000110000101;
	608 :	1111110001110101;
	607 :	1111111101010111;
	606 :	0000010010101000;
	605 :	0000000100100111;
	604 :	1111110111111000;
	603 :	1111110100111010;
	602 :	1111101111001011;
	601 :	0000010101101010;
	600 :	0000010011010100;
	599 :	0000101110100110;
	598 :	0000011000110111;
	597 :	0000101001101001;
	596 :	0000101000111111;
	595 :	0000011010000111;
	594 :	0000010000100000;
	593 :	0000001000101011;
	592 :	0000000011101011;
	591 :	0000000001100010;
	590 :	1111111111010001;
	589 :	1111111111011010;
	588 :	1111111111101001;
	587 :	1111111111101001;
	586 :	0000000000100100;
	585 :	1111111010001110;
	584 :	1111111101010111;
	583 :	0000000000110011;
	582 :	1111110011110111;
	581 :	1111111001001101;
	580 :	1111110100100111;
	579 :	1111111000010111;
	578 :	0000010010111010;
	577 :	1111111110101111;
	576 :	1111111001011011;
	575 :	1111110010100011;
	574 :	1111100101001111;
	573 :	0000000110011100;
	572 :	0000000111010001;
	571 :	0000010010011101;
	570 :	0000011000011001;
	569 :	0000010110111000;
	568 :	0000011011111010;
	567 :	0000100000011111;
	566 :	0000011011101010;
	565 :	0000001100001100;
	564 :	0000010010110110;
	563 :	0000000110001110;
	562 :	1111111111111110;
	561 :	1111111111010010;
	560 :	0000000000011010;
	559 :	1111111111110100;
	558 :	0000000001000010;
	557 :	0000000001001101;
	556 :	0000000010000000;
	555 :	0000000110010000;
	554 :	1111111100011011;
	553 :	1111110111010011;
	552 :	1111111110100001;
	551 :	1111111000000100;
	550 :	0000001110110100;
	549 :	0000000011111101;
	548 :	0000001001101101;
	547 :	0000000000010000;
	546 :	1111110111000111;
	545 :	0000000110111100;
	544 :	1111101000011000;
	543 :	1111111101100010;
	542 :	0000000100000111;
	541 :	0000000101010110;
	540 :	1111111010100001;
	539 :	0000001101100011;
	538 :	0000011000100111;
	537 :	0000011010001001;
	536 :	0000010110000110;
	535 :	0000001010001011;
	534 :	1111111111000001;
	533 :	1111111111101010;
	532 :	0000000000011010;
	531 :	0000000000110000;
	530 :	0000000000001011;
	529 :	0000000100000011;
	528 :	0000001100000000;
	527 :	0000001010000100;
	526 :	0000000011110000;
	525 :	1111111110000111;
	524 :	1111110000000000;
	523 :	1111111100101001;
	522 :	0000000110101110;
	521 :	0000000101011011;
	520 :	0000010110001010;
	519 :	0000000001011100;
	518 :	0000000001010101;
	517 :	0000000000010001;
	516 :	0000001010100001;
	515 :	1111110110111100;
	514 :	1111101111111101;
	513 :	0000000101010001;
	512 :	1111111100110111;
	511 :	0000000101000101;
	510 :	0000011110101000;
	509 :	0000100000100000;
	508 :	0000001111000110;
	507 :	0000000011110001;
	506 :	0000000000000100;
	505 :	1111111110110001;
	504 :	1111111111110111;
	503 :	1111111111101111;
	502 :	0000000010011100;
	501 :	0000001010111011;
	500 :	0000000110111001;
	499 :	0000001011001010;
	498 :	0000001010011111;
	497 :	1111111010001111;
	496 :	1111110100000000;
	495 :	1111111111000011;
	494 :	0000000101100100;
	493 :	0000001000110000;
	492 :	0000000101110100;
	491 :	1111111111110001;
	490 :	0000001111010011;
	489 :	0000001001100110;
	488 :	1111111010001100;
	487 :	1111111100110010;
	486 :	1111111010010100;
	485 :	0000000000100010;
	484 :	1111110001101010;
	483 :	1111111000100001;
	482 :	0000011000110010;
	481 :	0000011011100001;
	480 :	0000001010100011;
	479 :	1111111111101011;
	478 :	1111111111100010;
	477 :	1111111111101100;
	476 :	0000000000000010;
	475 :	1111111111101010;
	474 :	0000000011101011;
	473 :	0000001101100100;
	472 :	0000001011011011;
	471 :	0000001010000000;
	470 :	1111111111110010;
	469 :	0000001100111011;
	468 :	0000001010110111;
	467 :	0000010111010011;
	466 :	0000001011110111;
	465 :	0000001001010101;
	464 :	0000010101101111;
	463 :	0000011110101111;
	462 :	0000001111000101;
	461 :	0000001000110101;
	460 :	1111111001110101;
	459 :	1111101110011100;
	458 :	1111110100011000;
	457 :	1111111101000110;
	456 :	0000000000000110;
	455 :	0000000000101000;
	454 :	0000010010010110;
	453 :	0000011001001101;
	452 :	0000000101010000;
	451 :	0000000101001010;
	450 :	1111111111111000;
	449 :	1111111111101011;
	448 :	0000000001001110;
	447 :	0000000001111100;
	446 :	0000000001100001;
	445 :	0000001000101100;
	444 :	0000001001110001;
	443 :	0000001011001000;
	442 :	0000010100101100;
	441 :	1111111111011110;
	440 :	1111110101000100;
	439 :	0000001101000111;
	438 :	1111111010101101;
	437 :	1111111001010111;
	436 :	1111111110011111;
	435 :	0000000010001111;
	434 :	0000001000001110;
	433 :	0000000111110000;
	432 :	1111111111000011;
	431 :	1111110100110101;
	430 :	0000001101100010;
	429 :	0000000111001110;
	428 :	1111100010011000;
	427 :	0000000010101011;
	426 :	0000001000101010;
	425 :	0000010010010110;
	424 :	0000001001110001;
	423 :	0000001000011000;
	422 :	0000000010011010;
	421 :	0000000000001010;
	420 :	1111111111100011;
	419 :	1111111111101000;
	418 :	0000000001011011;
	417 :	0000000100110000;
	416 :	0000010000111000;
	415 :	0000010101001110;
	414 :	0000010111100010;
	413 :	0000000010001000;
	412 :	1111101101110010;
	411 :	1111111100110001;
	410 :	1111110111101011;
	409 :	0000010011100111;
	408 :	1111111100110100;
	407 :	1111101001100010;
	406 :	0000000111100010;
	405 :	0000000110101000;
	404 :	0000010101111111;
	403 :	0000010100011001;
	402 :	0000000010111110;
	401 :	0000001110010001;
	400 :	1111111000111000;
	399 :	0000010011001001;
	398 :	0000001000011011;
	397 :	0000100011001011;
	396 :	0000000110000000;
	395 :	0000000010100101;
	394 :	1111111111111111;
	393 :	0000000000000010;
	392 :	0000000000000010;
	391 :	0000000000000010;
	390 :	0000000010011100;
	389 :	0000000100010111;
	388 :	0000001110001101;
	387 :	0000001011000110;
	386 :	0000001101111111;
	385 :	1111111110110001;
	384 :	0000000110100110;
	383 :	0000001100111000;
	382 :	1111111110100100;
	381 :	0000000101011000;
	380 :	1111111111100101;
	379 :	1111101110110100;
	378 :	1111101110111101;
	377 :	1111110110101101;
	376 :	0000001101000100;
	375 :	0000000000001111;
	374 :	0000000101010001;
	373 :	1111111101100010;
	372 :	0000001000010001;
	371 :	0000000111010000;
	370 :	0000000101100001;
	369 :	0000001110001010;
	368 :	1111111110001111;
	367 :	0000000000110001;
	366 :	1111111111010011;
	365 :	1111111111111111;
	364 :	1111111111110001;
	363 :	0000000000011111;
	362 :	1111111101001010;
	361 :	0000000100000010;
	360 :	0000001000101100;
	359 :	1111111011010101;
	358 :	0000001100110111;
	357 :	0000000111010001;
	356 :	0000000100011011;
	355 :	0000001010010011;
	354 :	1111110001111000;
	353 :	1111101101010100;
	352 :	0000010101100010;
	351 :	1111110111111100;
	350 :	0000001010010111;
	349 :	0000100010100111;
	348 :	0000011110100001;
	347 :	0000000001000001;
	346 :	0000001011111010;
	345 :	0000000011110010;
	344 :	0000010000110111;
	343 :	0000001100111111;
	342 :	1111111011101011;
	341 :	1111111101101101;
	340 :	1111101111101000;
	339 :	1111111110100100;
	338 :	1111111110011011;
	337 :	0000000000001010;
	336 :	1111111111101110;
	335 :	1111111111011110;
	334 :	1111111101110011;
	333 :	0000000010100001;
	332 :	1111111001111110;
	331 :	0000000000100111;
	330 :	1111111011001110;
	329 :	1111110011111110;
	328 :	1111100101110001;
	327 :	1111110001101011;
	326 :	1111100111110110;
	325 :	1111101011111111;
	324 :	1111110011100010;
	323 :	0000001011011101;
	322 :	0000000001010100;
	321 :	0000001010111000;
	320 :	1111111111100101;
	319 :	1111110000010111;
	318 :	0000011100111001;
	317 :	0000000111101101;
	316 :	1111111011101101;
	315 :	1111111010001000;
	314 :	1111110000101100;
	313 :	1111110001011000;
	312 :	1111111000001000;
	311 :	1111111000010010;
	310 :	1111111110100010;
	309 :	0000000000011101;
	308 :	0000000000011101;
	307 :	1111111111011010;
	306 :	1111111111111111;
	305 :	0000000100001011;
	304 :	0000001011101000;
	303 :	0000010000000111;
	302 :	0000001000111111;
	301 :	1111111101001100;
	300 :	1111111101001000;
	299 :	0000000000000000;
	298 :	0000001001110101;
	297 :	0000010011100101;
	296 :	0000000111100001;
	295 :	0000100001000011;
	294 :	0000001100100110;
	293 :	1111111111111110;
	292 :	0000000011100011;
	291 :	0000000001010010;
	290 :	0000000100111000;
	289 :	1111011011000001;
	288 :	1111110000000100;
	287 :	1111110010001011;
	286 :	1111101001111110;
	285 :	1111111011000011;
	284 :	0000000001011001;
	283 :	1111111001000011;
	282 :	0000000000100011;
	281 :	1111111111011111;
	280 :	1111111111100110;
	279 :	1111111111011011;
	278 :	0000000010100111;
	277 :	0000000110100000;
	276 :	0000010100110110;
	275 :	0000100101000100;
	274 :	0000001100011111;
	273 :	0000001100001100;
	272 :	0000001100000110;
	271 :	0000011100010110;
	270 :	0000010111001101;
	269 :	0000000111110000;
	268 :	1111110010001110;
	267 :	1111101010001110;
	266 :	1111101100111001;
	265 :	1111100011101010;
	264 :	1111100111010010;
	263 :	1111110000111100;
	262 :	1111110011110000;
	261 :	1111101001000011;
	260 :	1111110001100001;
	259 :	1111110101111010;
	258 :	1111110001111010;
	257 :	0000000011010011;
	256 :	1111111011010010;
	255 :	1111111000100100;
	254 :	0000000000100011;
	253 :	1111111111111110;
	252 :	0000000000011001;
	251 :	0000000000000100;
	250 :	0000000000100110;
	249 :	0000001011011111;
	248 :	0000011000010000;
	247 :	0000100010001100;
	246 :	0000010111001111;
	245 :	0000000100010101;
	244 :	0000001000011001;
	243 :	0000000111001000;
	242 :	1111110001100110;
	241 :	1111100110010101;
	240 :	1111011000011110;
	239 :	1111011011000111;
	238 :	1111010101101010;
	237 :	1111100000000101;
	236 :	1111100000000111;
	235 :	1111110001000100;
	234 :	1111111111110010;
	233 :	1111110001110100;
	232 :	1111110011100010;
	231 :	0000001010101001;
	230 :	0000001010010011;
	229 :	0000000001100110;
	228 :	0000000011010111;
	227 :	1111111100010110;
	226 :	1111111110110100;
	225 :	1111111111111001;
	224 :	1111111111010111;
	223 :	1111111111110111;
	222 :	0000000010111100;
	221 :	0000001000010101;
	220 :	0000010011101011;
	219 :	0000100101000101;
	218 :	0000011100111011;
	217 :	0000001011010010;
	216 :	1111111001001010;
	215 :	1111110010111001;
	214 :	1111100101011111;
	213 :	1111100100010000;
	212 :	1111101010000111;
	211 :	1111010010001001;
	210 :	1111011010010101;
	209 :	1111101001000110;
	208 :	1111110110011010;
	207 :	0000000100011111;
	206 :	1111110101111001;
	205 :	1111111010000011;
	204 :	0000000010010001;
	203 :	0000010101100111;
	202 :	0000001000010000;
	201 :	0000001001110000;
	200 :	0000000010111100;
	199 :	1111111100000010;
	198 :	1111111101001111;
	197 :	0000000000111101;
	196 :	0000000000010100;
	195 :	1111111111101100;
	194 :	1111111111100100;
	193 :	0000000010011001;
	192 :	0000001010101000;
	191 :	0000011110101101;
	190 :	0000010100001010;
	189 :	1111111011011010;
	188 :	1111101010011111;
	187 :	0000001010110111;
	186 :	1111101011000011;
	185 :	1111110001101101;
	184 :	0000000001001100;
	183 :	0000000001001011;
	182 :	0000000111101111;
	181 :	1111111110110100;
	180 :	0000010111011011;
	179 :	0000001011011000;
	178 :	0000001010101101;
	177 :	0000000110011001;
	176 :	0000000110011100;
	175 :	0000001000000000;
	174 :	0000000110100010;
	173 :	0000000111010001;
	172 :	0000000000101001;
	171 :	1111111101111100;
	170 :	1111111111001011;
	169 :	1111111110111010;
	168 :	0000000000010011;
	167 :	0000000000010110;
	166 :	1111111111010011;
	165 :	1111111110100100;
	164 :	1111111111101111;
	163 :	0000000000101100;
	162 :	1111111110110010;
	161 :	0000000010100011;
	160 :	1111111100101101;
	159 :	0000001000101000;
	158 :	0000011000010010;
	157 :	0000100011000010;
	156 :	0000101111111011;
	155 :	0000100110100011;
	154 :	0000101100100000;
	153 :	0000010010111111;
	152 :	0000001110010001;
	151 :	0000001100111011;
	150 :	0000000110010011;
	149 :	0000001011011011;
	148 :	0000000111100010;
	147 :	0000000011100010;
	146 :	1111111100110110;
	145 :	1111111100100110;
	144 :	1111111110111011;
	143 :	1111111111110001;
	142 :	0000000000000001;
	141 :	0000000000010101;
	140 :	0000000000001111;
	139 :	1111111111110101;
	138 :	0000000000010000;
	137 :	0000000000010110;
	136 :	1111111110100111;
	135 :	1111111101010111;
	134 :	1111111110101001;
	133 :	0000000100001110;
	132 :	0000001000110000;
	131 :	0000001010011000;
	130 :	0000000111001100;
	129 :	0000001001001000;
	128 :	0000001100111010;
	127 :	0000001111101000;
	126 :	0000010100100111;
	125 :	0000010011001011;
	124 :	0000010001111001;
	123 :	0000000111000111;
	122 :	0000000011011000;
	121 :	1111111110111101;
	120 :	1111111111111000;
	119 :	1111111111100111;
	118 :	1111111110100100;
	117 :	0000000000010111;
	116 :	1111111111101111;
	115 :	0000000000101100;
	114 :	0000000000010100;
	113 :	1111111111110110;
	112 :	1111111111100101;
	111 :	0000000001001100;
	110 :	1111111111110000;
	109 :	1111111110011010;
	108 :	1111111111101011;
	107 :	0000000000100101;
	106 :	0000000001011011;
	105 :	0000000011010001;
	104 :	0000000011111111;
	103 :	0000000011100011;
	102 :	0000000100100101;
	101 :	0000000001100110;
	100 :	0000000100011001;
	99 :	0000000110100011;
	98 :	0000000111001011;
	97 :	0000000010110100;
	96 :	0000000011110010;
	95 :	0000000010111001;
	94 :	1111111110000100;
	93 :	1111111111101011;
	92 :	1111111110000011;
	91 :	1111111101110101;
	90 :	0000000001111100;
	89 :	0000000000011011;
	88 :	0000000000011111;
	87 :	1111111111111000;
	86 :	0000000000010111;
	85 :	1111111111010010;
	84 :	1111111111101101;
	83 :	0000000000110001;
	82 :	1111111111110001;
	81 :	1111111111011110;
	80 :	0000000000011011;
	79 :	1111111111111011;
	78 :	0000000001100011;
	77 :	0000000001011011;
	76 :	0000000000011110;
	75 :	0000000001001111;
	74 :	0000000010110101;
	73 :	0000000001101110;
	72 :	0000000000001011;
	71 :	0000000000101111;
	70 :	0000000001100011;
	69 :	1111111111111001;
	68 :	0000000010011100;
	67 :	0000000010110111;
	66 :	0000000000011101;
	65 :	0000000000101011;
	64 :	0000000001001001;
	63 :	0000000001101010;
	62 :	0000000000100100;
	61 :	0000000000011110;
	60 :	1111111111011110;
	59 :	1111111111010001;
	58 :	1111111111110101;
	57 :	0000000000000001;
	56 :	0000000000001101;
	55 :	0000000000011001;
	54 :	1111111111101010;
	53 :	0000000000111001;
	52 :	1111111111100110;
	51 :	0000000000011111;
	50 :	1111111111100101;
	49 :	1111111111101100;
	48 :	0000000000000101;
	47 :	0000000000000110;
	46 :	1111111111101001;
	45 :	1111111110000111;
	44 :	1111111101100000;
	43 :	1111111111111110;
	42 :	1111111111111011;
	41 :	0000000000010011;
	40 :	0000000000001101;
	39 :	1111111111111101;
	38 :	0000000000101011;
	37 :	1111111111111110;
	36 :	1111111111101101;
	35 :	0000000000111111;
	34 :	0000000000001001;
	33 :	1111111111111011;
	32 :	0000000000100001;
	31 :	0000000000011101;
	30 :	1111111111100011;
	29 :	1111111111001100;
	28 :	1111111111111001;
	27 :	1111111111011110;
	26 :	1111111111110100;
	25 :	0000000000000001;
	24 :	1111111111010000;
	23 :	0000000000001111;
	22 :	0000000000100110;
	21 :	0000000000101010;
	20 :	0000000000010011;
	19 :	1111111111010001;
	18 :	0000000000010100;
	17 :	1111111111010101;
	16 :	0000000000001011;
	15 :	1111111110100101;
	14 :	0000000000111010;
	13 :	1111111111101111;
	12 :	1111111111100101;
	11 :	0000000000100010;
	10 :	0000000000010001;
	9 :	0000000000101000;
	8 :	1111111111010101;
	7 :	0000000000000110;
	6 :	1111111111111000;
	5 :	1111111111110001;
	4 :	0000000000000000;
	3 :	1111111111111110;
	2 :	0000000000111110;
	1 :	1111111111110110;
	0 :	1111111111111001;
END;
