-- begin_signature
-- weight_memory(num_weight
-- 784
-- data_width
-- 16
-- address_width
-- 10
-- weight_file
-- "C:/SystemVerilog_NPU/w_1_10.mif")
-- end_signature
WIDTH=16;
DEPTH=784;

ADDRESS_RADIX=UNS;
DATA_RADIX=BIN;

CONTENT BEGIN
	783 :	1111111111010001;
	782 :	0000000000110101;
	781 :	0000000000110101;
	780 :	1111111111110010;
	779 :	1111111111001100;
	778 :	0000000000100010;
	777 :	1111111111110111;
	776 :	0000000000101001;
	775 :	0000000000000010;
	774 :	1111111111010100;
	773 :	1111111111110111;
	772 :	0000000001000000;
	771 :	1111111111011111;
	770 :	0000000000011000;
	769 :	1111111110101100;
	768 :	1111111110011100;
	767 :	1111111111111100;
	766 :	1111111111101011;
	765 :	0000000000010010;
	764 :	1111111100111111;
	763 :	1111111100110110;
	762 :	1111111111000110;
	761 :	1111111111110100;
	760 :	0000000000010101;
	759 :	0000000000111001;
	758 :	1111111111100110;
	757 :	0000000000100101;
	756 :	0000000000110010;
	755 :	1111111111101000;
	754 :	1111111111111110;
	753 :	0000000000000111;
	752 :	1111111111111110;
	751 :	1111111111110111;
	750 :	0000000001011100;
	749 :	0000000000001000;
	748 :	0000000000001111;
	747 :	1111111111100001;
	746 :	1111111110000111;
	745 :	0000000011010100;
	744 :	0000000100101110;
	743 :	1111111111010010;
	742 :	1111111011111101;
	741 :	1111111110010101;
	740 :	1111111010111000;
	739 :	0000000100110101;
	738 :	0000000111100011;
	737 :	0000000101110001;
	736 :	0000000101110111;
	735 :	1111111010011010;
	734 :	1111111100110101;
	733 :	1111111111011001;
	732 :	1111111111001110;
	731 :	0000000000010001;
	730 :	1111111111101111;
	729 :	1111111111011111;
	728 :	0000000000000111;
	727 :	0000000000100001;
	726 :	1111111111110011;
	725 :	1111111111100111;
	724 :	1111111111011010;
	723 :	0000000000011010;
	722 :	1111111101110011;
	721 :	1111110110011000;
	720 :	1111111010010000;
	719 :	0000000010011110;
	718 :	0000000100110010;
	717 :	1111111110110111;
	716 :	1111110101000011;
	715 :	1111111100000011;
	714 :	0000001011101110;
	713 :	0000010011011101;
	712 :	0000010011100001;
	711 :	1111111111011010;
	710 :	0000000100110011;
	709 :	0000001101000100;
	708 :	0000000100001011;
	707 :	1111110111000001;
	706 :	1111111100001011;
	705 :	0000000000010101;
	704 :	0000000010111111;
	703 :	0000000000000000;
	702 :	1111111111011001;
	701 :	0000000000010000;
	700 :	0000000000011111;
	699 :	0000000000001011;
	698 :	0000000000011001;
	697 :	0000000000010010;
	696 :	0000000011010101;
	695 :	0000000101000001;
	694 :	0000000001000100;
	693 :	0000000100011011;
	692 :	1111111000000111;
	691 :	1111110010100101;
	690 :	1111110000010011;
	689 :	1111111011110111;
	688 :	1111110011110100;
	687 :	0000000100001011;
	686 :	0000011100110000;
	685 :	0000001011110111;
	684 :	1111110011001001;
	683 :	1111111010111111;
	682 :	1111111101111001;
	681 :	0000010110010000;
	680 :	0000000100011111;
	679 :	1111111011000110;
	678 :	1111111011000001;
	677 :	1111111111111111;
	676 :	0000000000111110;
	675 :	0000000001101010;
	674 :	0000000000010111;
	673 :	1111111111110101;
	672 :	0000000000010011;
	671 :	0000000000100010;
	670 :	0000000000111101;
	669 :	0000000000000101;
	668 :	1111111111001011;
	667 :	0000000111001101;
	666 :	0000000101100110;
	665 :	1111111111100111;
	664 :	1111111011110000;
	663 :	1111110010011110;
	662 :	1111101101001011;
	661 :	1111111001111001;
	660 :	1111110101000111;
	659 :	1111110100100110;
	658 :	1111111110100101;
	657 :	1111110101011011;
	656 :	1111111001010111;
	655 :	0000000000110010;
	654 :	0000000010001011;
	653 :	0000001001011011;
	652 :	1111110011100100;
	651 :	1111110000101101;
	650 :	1111101001010001;
	649 :	0000000000010000;
	648 :	0000000001001001;
	647 :	0000000010101011;
	646 :	0000000001000101;
	645 :	1111111111111000;
	644 :	1111111111111001;
	643 :	0000000000011001;
	642 :	1111111111101110;
	641 :	1111111111111101;
	640 :	0000000000000001;
	639 :	0000000001010010;
	638 :	1111111001100010;
	637 :	1111110011011111;
	636 :	0000000110110100;
	635 :	0000000100010101;
	634 :	1111101111011110;
	633 :	1111111001110010;
	632 :	1111111000011010;
	631 :	0000001010100000;
	630 :	0000001011101010;
	629 :	1111110010011011;
	628 :	1111110111100100;
	627 :	1111110010001011;
	626 :	1111111001111101;
	625 :	1111100100110100;
	624 :	1111110011111000;
	623 :	0000000110100110;
	622 :	1111111111011000;
	621 :	1111111111110000;
	620 :	1111111111011100;
	619 :	0000000001010101;
	618 :	0000000001000110;
	617 :	0000000000000100;
	616 :	1111111111110110;
	615 :	0000000000100000;
	614 :	1111111111000000;
	613 :	0000000001011100;
	612 :	0000000111110101;
	611 :	0000000110111111;
	610 :	1111111011011000;
	609 :	1111111000000000;
	608 :	0000000010001101;
	607 :	0000000011111010;
	606 :	0000001101110110;
	605 :	0000000100100111;
	604 :	0000001011011000;
	603 :	1111100100110100;
	602 :	1111111010011100;
	601 :	1111111001111000;
	600 :	1111101010011110;
	599 :	1111110010010101;
	598 :	0000001101010101;
	597 :	1111101111011110;
	596 :	1111110000101011;
	595 :	0000000010001011;
	594 :	0000000100110110;
	593 :	1111111111001000;
	592 :	0000000000111011;
	591 :	0000000011100000;
	590 :	0000000010111001;
	589 :	0000000000001100;
	588 :	1111111111100101;
	587 :	0000000000000111;
	586 :	0000000001000000;
	585 :	0000000100100010;
	584 :	0000000101011110;
	583 :	1111111011101100;
	582 :	1111111110100111;
	581 :	1111111011100001;
	580 :	0000000010000100;
	579 :	0000000000000000;
	578 :	0000001101110111;
	577 :	1111110001111001;
	576 :	0000001100111000;
	575 :	1111110010000111;
	574 :	0000001010110100;
	573 :	0000010001100000;
	572 :	0000001100001011;
	571 :	1111111100011011;
	570 :	1111111011110000;
	569 :	0000000011110101;
	568 :	1111111110010101;
	567 :	1111101100110001;
	566 :	1111111110101010;
	565 :	1111111011100111;
	564 :	0000010000001100;
	563 :	0000000011100100;
	562 :	1111111000011111;
	561 :	1111111110011110;
	560 :	0000000000111100;
	559 :	0000000001000111;
	558 :	0000000001001011;
	557 :	0000000111010111;
	556 :	0000000001100000;
	555 :	1111111010100100;
	554 :	0000000011011111;
	553 :	0000000110100110;
	552 :	0000001000100100;
	551 :	0000001110001000;
	550 :	1111111100110010;
	549 :	0000010101101000;
	548 :	0000011001101101;
	547 :	1111111110000000;
	546 :	0000001001000110;
	545 :	0000010000011010;
	544 :	1111111111100000;
	543 :	1111111110000001;
	542 :	1111110100001100;
	541 :	1111111001011100;
	540 :	1111101001010000;
	539 :	1111110110111011;
	538 :	0000000000111111;
	537 :	1111111110000000;
	536 :	0000000111111000;
	535 :	0000001011100111;
	534 :	1111111000101111;
	533 :	1111111111010101;
	532 :	1111111111001111;
	531 :	0000000001011001;
	530 :	0000000001110111;
	529 :	0000001100101111;
	528 :	0000001000011111;
	527 :	1111111111000001;
	526 :	0000010001011111;
	525 :	0000010000001111;
	524 :	0000010110111111;
	523 :	0000001001100010;
	522 :	1111111110000000;
	521 :	0000001001111111;
	520 :	0000000000010000;
	519 :	1111111010100111;
	518 :	1111110011010110;
	517 :	0000001001110110;
	516 :	1111110111010000;
	515 :	0000000011001100;
	514 :	1111110111111111;
	513 :	0000001011011000;
	512 :	0000000100011110;
	511 :	1111111101000001;
	510 :	1111110101011101;
	509 :	1111111100110110;
	508 :	1111110010100100;
	507 :	0000001110111110;
	506 :	0000000010111111;
	505 :	0000000000000110;
	504 :	1111111111111010;
	503 :	1111111110111001;
	502 :	0000000010110011;
	501 :	0000001101111001;
	500 :	0000000001001100;
	499 :	1111111100000011;
	498 :	0000001100110101;
	497 :	1111110011001100;
	496 :	1111110001000111;
	495 :	0000000001001010;
	494 :	1111101110011011;
	493 :	1111110011001111;
	492 :	1111110110001001;
	491 :	1111111010011100;
	490 :	1111111001111101;
	489 :	0000000010000111;
	488 :	1111101111100111;
	487 :	1111111001100101;
	486 :	1111101000001010;
	485 :	1111110000110011;
	484 :	1111101110101010;
	483 :	1111111000001011;
	482 :	1111111000110110;
	481 :	1111111110000110;
	480 :	0000000000001010;
	479 :	0000001010010011;
	478 :	0000000010110110;
	477 :	1111111111110001;
	476 :	1111111111011111;
	475 :	0000000000101011;
	474 :	0000000011101101;
	473 :	0000000010010111;
	472 :	1111110111000001;
	471 :	1111110111110101;
	470 :	1111110100100110;
	469 :	1111101110000001;
	468 :	1111101100000111;
	467 :	0000000010001000;
	466 :	0000000101101001;
	465 :	1111110001110101;
	464 :	1111110001011110;
	463 :	1111110010111000;
	462 :	0000000101010101;
	461 :	1111110110101111;
	460 :	1111111010011010;
	459 :	0000000100111001;
	458 :	1111111101101100;
	457 :	1111110101011000;
	456 :	1111111011101101;
	455 :	0000011011010011;
	454 :	0000000011101000;
	453 :	0000000111110111;
	452 :	0000001111000000;
	451 :	0000010010001110;
	450 :	0000000010010000;
	449 :	0000000000000100;
	448 :	0000000000001010;
	447 :	1111111111011101;
	446 :	0000000010110111;
	445 :	0000000010000010;
	444 :	1111110101100000;
	443 :	1111110110101110;
	442 :	1111110011111100;
	441 :	1111101101101010;
	440 :	1111011111001011;
	439 :	1111110101100001;
	438 :	1111110011110100;
	437 :	1111100101101110;
	436 :	1111111101111101;
	435 :	1111111011101001;
	434 :	1111110110111010;
	433 :	0000001010001111;
	432 :	1111111101100111;
	431 :	1111110010011011;
	430 :	1111101010111010;
	429 :	0000000001101100;
	428 :	1111101101101110;
	427 :	0000001111110011;
	426 :	0000100001110011;
	425 :	0000100001001000;
	424 :	0000011010001010;
	423 :	0000001011011001;
	422 :	0000000000000110;
	421 :	1111111111111100;
	420 :	0000000000110010;
	419 :	1111111111100111;
	418 :	0000000011001101;
	417 :	0000000001100100;
	416 :	1111111010100100;
	415 :	1111111010111101;
	414 :	1111111011110001;
	413 :	0000001010011010;
	412 :	1111111001001101;
	411 :	1111110111010101;
	410 :	0000000100110000;
	409 :	1111111000001100;
	408 :	0000000011100111;
	407 :	1111111111101001;
	406 :	0000010000100011;
	405 :	1111101101111110;
	404 :	1111101111001001;
	403 :	1111111100010001;
	402 :	0000010100001011;
	401 :	0000010000101011;
	400 :	0000101000000011;
	399 :	0000110011110001;
	398 :	0000110101111101;
	397 :	0000010101110111;
	396 :	0000001101100101;
	395 :	0000000110011000;
	394 :	0000000001011101;
	393 :	1111111111010110;
	392 :	0000000000010011;
	391 :	0000000000010101;
	390 :	0000000000101000;
	389 :	0000000010011000;
	388 :	1111111110010101;
	387 :	1111110110000100;
	386 :	1111101110010111;
	385 :	0000000001001111;
	384 :	0000010110111101;
	383 :	0000001010101010;
	382 :	1111111111001111;
	381 :	1111101101010010;
	380 :	1111111001000111;
	379 :	1111111001101110;
	378 :	0000001101111001;
	377 :	1111111111110100;
	376 :	0000001110011100;
	375 :	0000010110000100;
	374 :	0000011010001101;
	373 :	0000011011010010;
	372 :	0000100001111111;
	371 :	0000001110101111;
	370 :	0000001011001110;
	369 :	0000000111000010;
	368 :	0000000000101000;
	367 :	0000000101011110;
	366 :	0000000011010100;
	365 :	0000000000010100;
	364 :	0000000000010000;
	363 :	0000000000010111;
	362 :	0000000001110110;
	361 :	0000000010101110;
	360 :	1111111011100100;
	359 :	1111110010100000;
	358 :	1111111010111001;
	357 :	1111110110100100;
	356 :	1111111101100101;
	355 :	0000000010010010;
	354 :	1111111100100010;
	353 :	1111110011100011;
	352 :	1111111011101011;
	351 :	0000000011100101;
	350 :	0000010011011000;
	349 :	0000000100001110;
	348 :	0000011001100110;
	347 :	0000011110101110;
	346 :	0000011111100000;
	345 :	0000001010101001;
	344 :	0000001010100000;
	343 :	1111111001011000;
	342 :	1111100100111001;
	341 :	1111101000011011;
	340 :	1111110000111011;
	339 :	0000000000111000;
	338 :	0000000011101000;
	337 :	0000000000011101;
	336 :	0000000000011110;
	335 :	1111111111010111;
	334 :	0000000000000010;
	333 :	1111111011100010;
	332 :	1111111000010010;
	331 :	1111110010110101;
	330 :	1111110101010101;
	329 :	1111111111000011;
	328 :	0000010001101110;
	327 :	0000000100100010;
	326 :	1111110111111000;
	325 :	0000010101010100;
	324 :	0000000010000110;
	323 :	0000010011111000;
	322 :	0000010010010100;
	321 :	0000000001011101;
	320 :	0000000011111110;
	319 :	1111110110001110;
	318 :	1111100110011011;
	317 :	1111011101110110;
	316 :	1111001001000100;
	315 :	1111001110011011;
	314 :	1111001101000110;
	313 :	1111010000100110;
	312 :	1111101001011011;
	311 :	0000000001010011;
	310 :	0000000111011110;
	309 :	0000000001101111;
	308 :	0000000000010110;
	307 :	1111111111011000;
	306 :	0000000000101110;
	305 :	1111111110010110;
	304 :	1111110111000000;
	303 :	1111101010011101;
	302 :	1111111000000100;
	301 :	0000000101010000;
	300 :	0000010011100001;
	299 :	1111111001011010;
	298 :	1111111101000010;
	297 :	0000011101111110;
	296 :	0000001101101010;
	295 :	1111101000111101;
	294 :	1111110011100000;
	293 :	1111111000110100;
	292 :	1111000110111010;
	291 :	1110101010111100;
	290 :	1110101110101110;
	289 :	1110100000101101;
	288 :	1110010101010010;
	287 :	1110110001100111;
	286 :	1111000111001010;
	285 :	1111001110100001;
	284 :	1111100111010000;
	283 :	0000000001011111;
	282 :	0000000111001101;
	281 :	0000000010110010;
	280 :	1111111111111000;
	279 :	0000000000111110;
	278 :	0000000000001101;
	277 :	0000000101001010;
	276 :	1111110000000101;
	275 :	1111110011101111;
	274 :	0000001001000001;
	273 :	1111111011111111;
	272 :	1111110100001001;
	271 :	1111111001011110;
	270 :	0000010011011101;
	269 :	0000000111110010;
	268 :	0000010010000010;
	267 :	1111111011001100;
	266 :	1111011111100000;
	265 :	1111000110010001;
	264 :	1110111001111000;
	263 :	1111001010001010;
	262 :	1111001000011011;
	261 :	1111010101011000;
	260 :	1111011110101110;
	259 :	1111100010101101;
	258 :	1111011111000001;
	257 :	1111011110101011;
	256 :	1111110101010000;
	255 :	0000000010001000;
	254 :	0000000101100101;
	253 :	0000000001101101;
	252 :	1111111111111101;
	251 :	0000000001000110;
	250 :	0000000001101011;
	249 :	1111111100101111;
	248 :	1111101000101001;
	247 :	1111111000010010;
	246 :	1111110111100010;
	245 :	0000000101001111;
	244 :	1111110000111110;
	243 :	0000001101000011;
	242 :	0000000001100000;
	241 :	0000010100101110;
	240 :	0000100000010101;
	239 :	0000000100100001;
	238 :	1111110111101100;
	237 :	1111110111000101;
	236 :	0000000010101000;
	235 :	0000000001001111;
	234 :	0000001101110010;
	233 :	1111111010100100;
	232 :	1111111100001011;
	231 :	1111110111000101;
	230 :	1111110011000110;
	229 :	1111110110111111;
	228 :	0000000100001110;
	227 :	0000001000110111;
	226 :	0000000000100001;
	225 :	0000000010101110;
	224 :	0000000000111001;
	223 :	0000000000110011;
	222 :	0000000010000010;
	221 :	1111110110100011;
	220 :	1111110001111100;
	219 :	1111111011110011;
	218 :	1111111001011101;
	217 :	1111111100010110;
	216 :	1111111111011010;
	215 :	0000001000011000;
	214 :	1111111010011110;
	213 :	0000000010010011;
	212 :	0000001000101001;
	211 :	0000001110010001;
	210 :	0000011011111111;
	209 :	0000000011011111;
	208 :	0000001110011111;
	207 :	0000011101001011;
	206 :	1111101011010100;
	205 :	1111101000101010;
	204 :	1111110110111101;
	203 :	1111111101110010;
	202 :	1111111111101011;
	201 :	0000000100111011;
	200 :	0000001000110110;
	199 :	0000000100111001;
	198 :	0000000000100100;
	197 :	0000000001001110;
	196 :	0000000000110011;
	195 :	0000000000111011;
	194 :	0000000001100010;
	193 :	0000000000001100;
	192 :	1111111011001001;
	191 :	1111111001011010;
	190 :	0000000110110110;
	189 :	1111111111100100;
	188 :	0000001011001110;
	187 :	0000010010000010;
	186 :	0000011011111000;
	185 :	0000000000011010;
	184 :	1111111001011000;
	183 :	0000001001000000;
	182 :	0000011100100001;
	181 :	0000011111000011;
	180 :	1111111110001100;
	179 :	0000011001000011;
	178 :	0000011011110110;
	177 :	1111111100001110;
	176 :	1111110110011011;
	175 :	0000010000000100;
	174 :	0000000100010111;
	173 :	0000000101101110;
	172 :	0000000101110110;
	171 :	0000000010010111;
	170 :	1111111111111011;
	169 :	0000000000001100;
	168 :	0000000000000000;
	167 :	1111111111111000;
	166 :	1111111111101111;
	165 :	1111111001110010;
	164 :	1111110010100100;
	163 :	1111110100000001;
	162 :	1111111000000010;
	161 :	0000000011001101;
	160 :	0000010100101000;
	159 :	1111111101111110;
	158 :	0000010011101110;
	157 :	0000010111100111;
	156 :	0000001101001101;
	155 :	1111111000010011;
	154 :	1111111110010010;
	153 :	0000001001111001;
	152 :	0000010011001110;
	151 :	0000001101001000;
	150 :	0000010111011110;
	149 :	0000010110111000;
	148 :	0000010100001011;
	147 :	0000001101111101;
	146 :	0000000100011000;
	145 :	0000000010000001;
	144 :	0000000001100111;
	143 :	0000000000111110;
	142 :	0000000000001100;
	141 :	0000000000010001;
	140 :	0000000000001111;
	139 :	0000000000010000;
	138 :	1111111111111111;
	137 :	1111111011100011;
	136 :	1111110000111101;
	135 :	1111100101101001;
	134 :	1111110010101111;
	133 :	1111110111100011;
	132 :	0000001001101101;
	131 :	0000000111111000;
	130 :	0000010100101000;
	129 :	0000000100111011;
	128 :	0000001111011010;
	127 :	0000001110001110;
	126 :	0000001110001001;
	125 :	0000010101100110;
	124 :	0000001111011100;
	123 :	0000010000101110;
	122 :	0000011010100011;
	121 :	0000011101111011;
	120 :	0000011010011011;
	119 :	0000001000001101;
	118 :	0000000010011100;
	117 :	0000000001011101;
	116 :	0000000000111010;
	115 :	0000000000100011;
	114 :	0000000000010101;
	113 :	0000000001000100;
	112 :	1111111111011010;
	111 :	0000000000000010;
	110 :	0000000000100111;
	109 :	0000000000010100;
	108 :	1111110111100101;
	107 :	1111110100010110;
	106 :	1111110010000101;
	105 :	1111110001111010;
	104 :	1111111111010010;
	103 :	1111111011111010;
	102 :	0000000100100001;
	101 :	0000011100101110;
	100 :	0000010010111010;
	99 :	1111111101100001;
	98 :	0000000001100011;
	97 :	0000010001001100;
	96 :	0000010100110000;
	95 :	0000000110110101;
	94 :	0000000100011000;
	93 :	1111111111100010;
	92 :	0000000000111110;
	91 :	1111111111010101;
	90 :	1111111111011101;
	89 :	1111111111001000;
	88 :	0000000000011001;
	87 :	1111111111001111;
	86 :	0000000001000110;
	85 :	0000000001000000;
	84 :	0000000000001110;
	83 :	0000000000000010;
	82 :	0000000000000110;
	81 :	1111111111110010;
	80 :	1111111111110100;
	79 :	1111111110100100;
	78 :	1111111110101100;
	77 :	1111111011010001;
	76 :	1111111110100100;
	75 :	1111111011011110;
	74 :	1111110101110000;
	73 :	1111110111010000;
	72 :	0000000110101011;
	71 :	0000000111100001;
	70 :	0000001000010011;
	69 :	0000000110011011;
	68 :	0000000001010100;
	67 :	1111111101001010;
	66 :	1111111110111001;
	65 :	0000000001011100;
	64 :	0000000000111110;
	63 :	1111111110100010;
	62 :	0000000000011101;
	61 :	0000000000010001;
	60 :	0000000000110011;
	59 :	0000000000101100;
	58 :	0000000000001101;
	57 :	0000000000011110;
	56 :	1111111111111010;
	55 :	1111111111110111;
	54 :	1111111110111001;
	53 :	0000000000000010;
	52 :	1111111111101011;
	51 :	0000000000101110;
	50 :	0000000000111000;
	49 :	1111111110111011;
	48 :	1111111110100011;
	47 :	1111111111110000;
	46 :	0000000000010101;
	45 :	0000000000101111;
	44 :	0000000011100011;
	43 :	0000000001011101;
	42 :	0000000001000011;
	41 :	1111111101111101;
	40 :	1111111101010101;
	39 :	1111111111101011;
	38 :	1111111111101111;
	37 :	0000000000001010;
	36 :	1111111111111001;
	35 :	1111111111010111;
	34 :	0000000000001110;
	33 :	1111111111011101;
	32 :	0000000000100110;
	31 :	0000000000001111;
	30 :	1111111111111010;
	29 :	1111111111100110;
	28 :	0000000000000100;
	27 :	0000000000010110;
	26 :	1111111111111000;
	25 :	0000000000110001;
	24 :	1111111110111110;
	23 :	1111111111011011;
	22 :	0000000000000101;
	21 :	1111111111101100;
	20 :	0000000000110111;
	19 :	1111111111010101;
	18 :	0000000000001111;
	17 :	1111111111101001;
	16 :	1111111111110011;
	15 :	1111111111011001;
	14 :	0000000000010011;
	13 :	1111111111101101;
	12 :	1111111111000110;
	11 :	0000000000100110;
	10 :	1111111111100010;
	9 :	1111111111100110;
	8 :	1111111111010011;
	7 :	0000000000001011;
	6 :	0000000000000000;
	5 :	0000000000011100;
	4 :	1111111111011110;
	3 :	1111111111100011;
	2 :	0000000000001100;
	1 :	0000000000001000;
	0 :	1111111111001001;
END;
