-- begin_signature
-- weight_memory(num_weight
-- 784
-- data_width
-- 16
-- address_width
-- 10
-- weight_file
-- "w_1_0.mif")
-- end_signature
WIDTH=16;
DEPTH=784;

ADDRESS_RADIX=UNS;
DATA_RADIX=BIN;

CONTENT BEGIN
	783 :	1111111111000010;
	782 :	1111111111110101;
	781 :	0000000000100111;
	780 :	0000000000010100;
	779 :	0000000000000010;
	778 :	0000000000101110;
	777 :	1111111111011000;
	776 :	0000000000000011;
	775 :	1111111111100011;
	774 :	1111111110100101;
	773 :	1111111111000101;
	772 :	1111111111110101;
	771 :	1111111111110011;
	770 :	1111111111000101;
	769 :	1111111111000011;
	768 :	1111111111100101;
	767 :	1111111111001111;
	766 :	0000000000000010;
	765 :	1111111111111101;
	764 :	1111111111011110;
	763 :	0000000000001001;
	762 :	0000000000001010;
	761 :	0000000000000000;
	760 :	1111111111100110;
	759 :	0000000000000001;
	758 :	0000000000000000;
	757 :	0000000000110011;
	756 :	1111111111010001;
	755 :	1111111111010011;
	754 :	0000000000011100;
	753 :	0000000000100100;
	752 :	0000000000101000;
	751 :	1111111111010000;
	750 :	0000000000000000;
	749 :	0000000000001000;
	748 :	0000000000000000;
	747 :	1111111111000011;
	746 :	1111111101111001;
	745 :	1111111101100110;
	744 :	1111111110001001;
	743 :	0000000010000111;
	742 :	1111111011011100;
	741 :	1111111000101001;
	740 :	1111111000110011;
	739 :	0000000100000001;
	738 :	1111111101110001;
	737 :	1111111000111000;
	736 :	1111111101011011;
	735 :	1111110100110110;
	734 :	1111110110101000;
	733 :	1111111001000001;
	732 :	1111111101010010;
	731 :	1111111111010011;
	730 :	0000000000001001;
	729 :	0000000000001101;
	728 :	1111111111110001;
	727 :	1111111111011011;
	726 :	0000000000000101;
	725 :	0000000000000000;
	724 :	1111111110110110;
	723 :	1111111100010101;
	722 :	1111111101100001;
	721 :	0000000010000101;
	720 :	0000000101110100;
	719 :	0000001111000100;
	718 :	0000010010111000;
	717 :	0000010001000100;
	716 :	0000001100100100;
	715 :	0000010000111101;
	714 :	1111111111101011;
	713 :	1111111101111000;
	712 :	0000000101101100;
	711 :	0000000010110000;
	710 :	0000000100011011;
	709 :	1111111000000010;
	708 :	1111101111011101;
	707 :	1111110101110000;
	706 :	1111110011011000;
	705 :	1111101111100000;
	704 :	1111110101110111;
	703 :	1111111111011111;
	702 :	1111111111101110;
	701 :	1111111111000100;
	700 :	1111111111011100;
	699 :	0000000000000001;
	698 :	0000000000100011;
	697 :	0000000000000001;
	696 :	1111111111100100;
	695 :	1111111010011001;
	694 :	1111111100110000;
	693 :	0000000111001001;
	692 :	0000010000100010;
	691 :	0000010100000110;
	690 :	0000010110010111;
	689 :	0000011111010100;
	688 :	0000011001100101;
	687 :	0000010110000010;
	686 :	0000000010110101;
	685 :	0000000000100111;
	684 :	0000001111001111;
	683 :	0000000111010011;
	682 :	0000000000111010;
	681 :	1111111011000000;
	680 :	1111110011101110;
	679 :	1111110000100101;
	678 :	1111111000111010;
	677 :	1111111010111001;
	676 :	1111111111110001;
	675 :	0000000000110010;
	674 :	0000000001011011;
	673 :	1111111111110111;
	672 :	0000000000000000;
	671 :	1111111111101000;
	670 :	1111111110111110;
	669 :	0000000010000110;
	668 :	0000000000110101;
	667 :	1111111011111010;
	666 :	0000000001011001;
	665 :	0000000111001111;
	664 :	0000001010111111;
	663 :	0000010000011011;
	662 :	0000010111101000;
	661 :	0000011010100110;
	660 :	0000100001001101;
	659 :	0000011111001101;
	658 :	0000100001100100;
	657 :	0000001010110111;
	656 :	0000000100011100;
	655 :	0000001100100101;
	654 :	0000010000101011;
	653 :	0000001110111100;
	652 :	1111111110011101;
	651 :	1111111011111010;
	650 :	1111111101100000;
	649 :	1111111110001010;
	648 :	1111111110101001;
	647 :	1111111110100100;
	646 :	0000000010001100;
	645 :	0000000000011110;
	644 :	0000000000001110;
	643 :	1111111111111001;
	642 :	0000000000000000;
	641 :	0000000010001010;
	640 :	0000000001111101;
	639 :	1111111101100000;
	638 :	0000000001000101;
	637 :	0000000101101000;
	636 :	0000001100100110;
	635 :	0000010100100101;
	634 :	0000100001110001;
	633 :	0000011100010010;
	632 :	0000011101011101;
	631 :	0000010111010100;
	630 :	0000010101101100;
	629 :	1111111111010010;
	628 :	1111111110000011;
	627 :	0000000000010000;
	626 :	1111110110100010;
	625 :	1111110111101000;
	624 :	1111101110010101;
	623 :	1111111101000011;
	622 :	1111110100111001;
	621 :	0000000001011001;
	620 :	1111111101101010;
	619 :	1111111011110010;
	618 :	0000000001010000;
	617 :	0000000000110010;
	616 :	1111111111100001;
	615 :	1111111111100000;
	614 :	0000000001010101;
	613 :	0000000001111110;
	612 :	0000000010011110;
	611 :	0000000010110010;
	610 :	0000000100000000;
	609 :	0000000011101001;
	608 :	0000001101001001;
	607 :	0000011011010010;
	606 :	0000011100000110;
	605 :	0000010111101001;
	604 :	0000010000010100;
	603 :	0000001111000010;
	602 :	0000010000001011;
	601 :	0000001001110111;
	600 :	1111110010110010;
	599 :	1111110111001001;
	598 :	1111011100111011;
	597 :	1111110101110101;
	596 :	1111110000100100;
	595 :	1111101100100000;
	594 :	1111110011011011;
	593 :	1111111110010011;
	592 :	1111111011001001;
	591 :	0000000010101010;
	590 :	0000000010001111;
	589 :	0000000000000000;
	588 :	1111111111101010;
	587 :	1111111111001101;
	586 :	1111111111101110;
	585 :	0000000001000010;
	584 :	1111111101011001;
	583 :	0000000001101100;
	582 :	1111111011101111;
	581 :	0000000000110010;
	580 :	0000001000110111;
	579 :	0000000111101100;
	578 :	0000001110010110;
	577 :	0000000100100000;
	576 :	1111111010101101;
	575 :	0000010101111101;
	574 :	0000010011001011;
	573 :	0000000000010010;
	572 :	1111111011110000;
	571 :	1111110100111000;
	570 :	1111110000101111;
	569 :	1111110100000111;
	568 :	1111111001111101;
	567 :	0000000001110001;
	566 :	1111101110001001;
	565 :	1111111010101000;
	564 :	0000000100001010;
	563 :	0000000010110110;
	562 :	1111111111010010;
	561 :	1111111111011110;
	560 :	1111111111111011;
	559 :	1111111111110010;
	558 :	0000000000001100;
	557 :	1111111011011101;
	556 :	1111111100100001;
	555 :	0000000101111000;
	554 :	0000000110011011;
	553 :	0000001111100111;
	552 :	0000001110010111;
	551 :	0000001001001100;
	550 :	0000000011000000;
	549 :	0000001000110010;
	548 :	0000000111011100;
	547 :	0000010111100011;
	546 :	0000000101101111;
	545 :	1111110111001000;
	544 :	1111110011101001;
	543 :	1111111011110000;
	542 :	0000000000111101;
	541 :	0000001001010000;
	540 :	1111111110110111;
	539 :	1111111001111110;
	538 :	0000000000100100;
	537 :	0000000000101100;
	536 :	1111111101000101;
	535 :	0000000000011110;
	534 :	1111111110111110;
	533 :	0000000000001011;
	532 :	0000000000010101;
	531 :	1111111111010001;
	530 :	1111111110000001;
	529 :	1111111110001101;
	528 :	0000000011100100;
	527 :	0000001001100011;
	526 :	0000001100001110;
	525 :	0000001010110000;
	524 :	0000000110011011;
	523 :	0000001001111110;
	522 :	0000000011100110;
	521 :	0000010100001011;
	520 :	0000011001111101;
	519 :	0000000111011111;
	518 :	1111111110110111;
	517 :	1111110110111000;
	516 :	0000000000000100;
	515 :	0000000001111111;
	514 :	0000010011001001;
	513 :	0000100010011110;
	512 :	0000011101010110;
	511 :	0000011101110101;
	510 :	0000001111110010;
	509 :	1111111011101101;
	508 :	1111111001100111;
	507 :	0000000100000001;
	506 :	1111111111101111;
	505 :	0000000000100100;
	504 :	1111111111100110;
	503 :	0000000000001101;
	502 :	1111111101111010;
	501 :	0000000011111000;
	500 :	1111111111001100;
	499 :	1111110111100101;
	498 :	1111111011011001;
	497 :	0000000011110010;
	496 :	0000000100111011;
	495 :	0000001101011100;
	494 :	0000010001100111;
	493 :	0000101000110001;
	492 :	0000100000010001;
	491 :	1111111010111010;
	490 :	1111110001000000;
	489 :	0000000101011110;
	488 :	0000010100100000;
	487 :	0000000101111010;
	486 :	0000010001110110;
	485 :	0000011101110111;
	484 :	0000100110000101;
	483 :	0000100111001000;
	482 :	0000010001111011;
	481 :	1111111000100100;
	480 :	1111111011101100;
	479 :	0000000000111111;
	478 :	0000000000000101;
	477 :	1111111111000110;
	476 :	1111111110110000;
	475 :	1111111111100011;
	474 :	0000000011010110;
	473 :	0000001000000111;
	472 :	0000001011001010;
	471 :	0000000100000100;
	470 :	0000000101111110;
	469 :	0000000100011110;
	468 :	0000000100100000;
	467 :	0000011000000010;
	466 :	0000100000110100;
	465 :	0000100110011111;
	464 :	1111111111110011;
	463 :	1111101111111010;
	462 :	1111110010011110;
	461 :	0000000011111000;
	460 :	0000001111100011;
	459 :	1111111111101000;
	458 :	0000000111010110;
	457 :	0000001110010000;
	456 :	0000010111001011;
	455 :	0000011010110110;
	454 :	0000000111100101;
	453 :	1111111001000100;
	452 :	1111111110101000;
	451 :	0000000101111110;
	450 :	0000000000011110;
	449 :	0000000000010111;
	448 :	1111111111111111;
	447 :	1111111111111100;
	446 :	0000000011000110;
	445 :	0000000110100111;
	444 :	0000000110100101;
	443 :	1111111101001001;
	442 :	0000000011111100;
	441 :	1111111101010000;
	440 :	0000000111011011;
	439 :	0000010010001001;
	438 :	0000000010010100;
	437 :	1111111101110111;
	436 :	1111111011001001;
	435 :	1111101101011010;
	434 :	1111111101011010;
	433 :	0000000110001011;
	432 :	1111110001110111;
	431 :	1111111011111100;
	430 :	1111111011100110;
	429 :	1111110101101000;
	428 :	0000001100001000;
	427 :	0000000100001101;
	426 :	0000000010111110;
	425 :	0000000010110000;
	424 :	0000000100000001;
	423 :	0000000101001110;
	422 :	0000000000000100;
	421 :	1111111111101101;
	420 :	0000000000101001;
	419 :	1111111111110001;
	418 :	0000000011001111;
	417 :	1111111111100111;
	416 :	0000000001011111;
	415 :	0000000010011100;
	414 :	0000000100110001;
	413 :	0000000000110011;
	412 :	0000000101101001;
	411 :	0000000011010101;
	410 :	0000010000000000;
	409 :	0000010011010100;
	408 :	1111111001110000;
	407 :	1111110101010010;
	406 :	1111110111111001;
	405 :	0000000011110011;
	404 :	0000000001010001;
	403 :	1111111101010101;
	402 :	1111110000001100;
	401 :	1111110110100100;
	400 :	1111111110011001;
	399 :	1111111111110010;
	398 :	0000001000111100;
	397 :	0000001101010100;
	396 :	0000000011111100;
	395 :	0000000011011101;
	394 :	1111111111010000;
	393 :	1111111111110101;
	392 :	1111111111101100;
	391 :	0000000001001010;
	390 :	0000000001001011;
	389 :	1111111111100110;
	388 :	0000000101111000;
	387 :	0000000110110000;
	386 :	0000001011110001;
	385 :	0000001000101100;
	384 :	0000001010100101;
	383 :	0000001011100100;
	382 :	0000011100001111;
	381 :	0000000011000111;
	380 :	1111111001001001;
	379 :	1111110100101011;
	378 :	1111111001010011;
	377 :	0000000011000001;
	376 :	0000010011110000;
	375 :	0000001001111101;
	374 :	1111110001110000;
	373 :	1111111001010001;
	372 :	1111110111100000;
	371 :	1111111100111110;
	370 :	0000001000110011;
	369 :	0000001101101001;
	368 :	0000000001000110;
	367 :	0000000011110001;
	366 :	1111111111000000;
	365 :	0000000000110001;
	364 :	1111111111100001;
	363 :	1111111111011100;
	362 :	1111111011110011;
	361 :	1111111101101111;
	360 :	0000000010000001;
	359 :	0000000001000100;
	358 :	1111111100111101;
	357 :	0000000010001011;
	356 :	0000000101111011;
	355 :	0000001001100000;
	354 :	1111110111011001;
	353 :	1111111101110011;
	352 :	1111101101101001;
	351 :	1111101101111101;
	350 :	1111101101110001;
	349 :	0000000010110100;
	348 :	0000100111000011;
	347 :	0000001101111110;
	346 :	0000000000100111;
	345 :	0000010001100010;
	344 :	0000001110111011;
	343 :	0000001000011000;
	342 :	0000001100011111;
	341 :	0000000111000000;
	340 :	0000000010000010;
	339 :	0000000000110111;
	338 :	1111111110110011;
	337 :	0000000000001100;
	336 :	1111111111011000;
	335 :	1111111111100110;
	334 :	1111111111100101;
	333 :	1111111011000000;
	332 :	1111110010100110;
	331 :	1111110011100101;
	330 :	1111111011000100;
	329 :	1111110000110111;
	328 :	1111110100110000;
	327 :	1111110110010100;
	326 :	1111110010011010;
	325 :	1111110110010011;
	324 :	1111100101001101;
	323 :	1111111111111110;
	322 :	1111111110001010;
	321 :	0000001100101000;
	320 :	0000100000111111;
	319 :	0000001100001101;
	318 :	1111110110100100;
	317 :	0000000000001110;
	316 :	0000000101000101;
	315 :	0000001111111101;
	314 :	0000010001000011;
	313 :	0000000011100110;
	312 :	0000000000000111;
	311 :	0000000000100111;
	310 :	1111111110111100;
	309 :	1111111111111110;
	308 :	0000000000111001;
	307 :	1111111111100111;
	306 :	1111111101100111;
	305 :	1111101110010011;
	304 :	1111110011101110;
	303 :	0000000000111011;
	302 :	1111111110100001;
	301 :	0000000011110100;
	300 :	0000000111001100;
	299 :	1111110000000001;
	298 :	1111111110010111;
	297 :	0000010001110000;
	296 :	1111101011110110;
	295 :	1111101010010011;
	294 :	1111110101101010;
	293 :	0000000111010101;
	292 :	0000001000011100;
	291 :	0000001001011110;
	290 :	0000001010000101;
	289 :	1111111010110111;
	288 :	1111111111110000;
	287 :	0000001101100010;
	286 :	0000001110010110;
	285 :	0000000011011110;
	284 :	0000000100001110;
	283 :	1111111111101101;
	282 :	0000000000100101;
	281 :	1111111111100101;
	280 :	0000000000000011;
	279 :	1111111011011010;
	278 :	1111111101110111;
	277 :	1111111110100011;
	276 :	0000000001110110;
	275 :	0000011101100011;
	274 :	0000000010010100;
	273 :	0000000010001010;
	272 :	0000001010101100;
	271 :	1111111010000001;
	270 :	0000000001000000;
	269 :	0000000011110101;
	268 :	1111111011111100;
	267 :	1111101101000110;
	266 :	1111110011101010;
	265 :	0000010010111000;
	264 :	0000000111000100;
	263 :	0000010000001001;
	262 :	1111111100100000;
	261 :	0000000000010111;
	260 :	0000000010111001;
	259 :	0000000101010010;
	258 :	0000000111011011;
	257 :	0000001000111101;
	256 :	0000000111101111;
	255 :	1111111111110011;
	254 :	0000000000110111;
	253 :	0000000000101101;
	252 :	0000000000110101;
	251 :	1111111111110101;
	250 :	0000000001000111;
	249 :	1111111101010010;
	248 :	0000001101011110;
	247 :	0000001110010011;
	246 :	1111111011011101;
	245 :	0000001000001100;
	244 :	0000001110010000;
	243 :	0000000110110010;
	242 :	1111111010100101;
	241 :	0000000100001111;
	240 :	0000001111111111;
	239 :	1111111100011101;
	238 :	1111110011011011;
	237 :	0000000011101000;
	236 :	0000001110000000;
	235 :	0000001100010011;
	234 :	0000001111110111;
	233 :	1111110111101011;
	232 :	0000000001101010;
	231 :	0000001110111100;
	230 :	0000010010111010;
	229 :	0000010011011010;
	228 :	0000001000010011;
	227 :	1111111111011011;
	226 :	0000000010001101;
	225 :	0000000000100100;
	224 :	0000000000000001;
	223 :	0000000010010010;
	222 :	1111111111100101;
	221 :	0000001010010001;
	220 :	0000001101100110;
	219 :	0000000000100001;
	218 :	0000001111011110;
	217 :	0000001001001001;
	216 :	1111111111011100;
	215 :	1111111111100010;
	214 :	0000001001001111;
	213 :	0000001010010101;
	212 :	1111111011011101;
	211 :	0000000100100011;
	210 :	1111100001011010;
	209 :	1111101111010101;
	208 :	1111110001101000;
	207 :	1111111110001100;
	206 :	1111111100011011;
	205 :	1111110011110111;
	204 :	0000000111100111;
	203 :	0000011011011100;
	202 :	0000011011001011;
	201 :	0000010100100101;
	200 :	0000000010100100;
	199 :	0000000000100101;
	198 :	0000000001011001;
	197 :	0000000001110011;
	196 :	0000000000011110;
	195 :	0000000001110100;
	194 :	0000000100010001;
	193 :	0000001001000101;
	192 :	1111111100101000;
	191 :	1111111100000010;
	190 :	1111111111111010;
	189 :	1111111100011110;
	188 :	0000000011001110;
	187 :	1111111110001001;
	186 :	1111110101100000;
	185 :	1111111011011011;
	184 :	0000000111001010;
	183 :	0000000010100011;
	182 :	1111111000111101;
	181 :	0000000010101101;
	180 :	1111111101000100;
	179 :	0000000010110011;
	178 :	0000000101110111;
	177 :	1111111011110010;
	176 :	0000000101011101;
	175 :	0000010001010100;
	174 :	0000001100111101;
	173 :	0000000100101001;
	172 :	1111111111101010;
	171 :	0000000000011000;
	170 :	0000000000000111;
	169 :	1111111111110001;
	168 :	1111111111110010;
	167 :	0000000010011000;
	166 :	0000000110001111;
	165 :	0000001011100110;
	164 :	1111111101111100;
	163 :	1111110100001000;
	162 :	1111111010001010;
	161 :	1111111011001010;
	160 :	0000001010110101;
	159 :	0000010010000100;
	158 :	1111111111110000;
	157 :	1111111100111111;
	156 :	0000000100001101;
	155 :	1111101010111010;
	154 :	1111110011110010;
	153 :	0000001010011010;
	152 :	0000011110110101;
	151 :	0000010110001010;
	150 :	0000001010000011;
	149 :	0000000101110100;
	148 :	0000000110111011;
	147 :	0000000011101101;
	146 :	1111111111011110;
	145 :	1111111101000011;
	144 :	1111111111101110;
	143 :	1111111111110111;
	142 :	1111111111110101;
	141 :	0000000000000111;
	140 :	0000000000100011;
	139 :	0000000001010101;
	138 :	0000000011100100;
	137 :	0000000101010111;
	136 :	0000000001100011;
	135 :	1111111001000110;
	134 :	1111111010000000;
	133 :	1111110100111011;
	132 :	1111110000000100;
	131 :	1111110011111010;
	130 :	0000000111100010;
	129 :	0000000110010111;
	128 :	1111101110000110;
	127 :	1111100110101110;
	126 :	1111110011010000;
	125 :	1111111101011010;
	124 :	0000010100101100;
	123 :	0000010001101100;
	122 :	0000010111011001;
	121 :	0000010000100011;
	120 :	0000000110100001;
	119 :	0000000001111110;
	118 :	0000000001001101;
	117 :	1111111110100111;
	116 :	0000000000000100;
	115 :	0000000000011010;
	114 :	0000000000010010;
	113 :	1111111111101111;
	112 :	1111111111110001;
	111 :	0000000000001111;
	110 :	0000000010010010;
	109 :	1111111111011111;
	108 :	1111111111001100;
	107 :	1111111110010100;
	106 :	1111111111110101;
	105 :	1111111110100010;
	104 :	1111111011101000;
	103 :	1111110001011010;
	102 :	1111110110101100;
	101 :	1111110111011111;
	100 :	1111101110011010;
	99 :	1111101101000001;
	98 :	1111111110101111;
	97 :	0000000001010111;
	96 :	0000001001000000;
	95 :	0000001101100011;
	94 :	0000000111101111;
	93 :	0000000010100100;
	92 :	0000000010000100;
	91 :	0000000000101110;
	90 :	0000000000001001;
	89 :	1111111111110001;
	88 :	0000000000000101;
	87 :	1111111111001000;
	86 :	1111111111111100;
	85 :	0000000000000000;
	84 :	0000000000110010;
	83 :	1111111111111111;
	82 :	0000000000011110;
	81 :	0000000000000010;
	80 :	0000000000000000;
	79 :	0000000000100110;
	78 :	1111111111100001;
	77 :	1111111111110111;
	76 :	1111111111101010;
	75 :	1111111101010011;
	74 :	1111111010010111;
	73 :	1111111001111000;
	72 :	1111110101000101;
	71 :	1111101100000001;
	70 :	1111111010110100;
	69 :	0000000100110001;
	68 :	0000000100110101;
	67 :	0000000010001100;
	66 :	0000000001001111;
	65 :	0000000000010111;
	64 :	0000000000110111;
	63 :	0000000000000111;
	62 :	0000000000011101;
	61 :	0000000000011100;
	60 :	1111111111011110;
	59 :	1111111111111000;
	58 :	0000000000101111;
	57 :	1111111111110111;
	56 :	0000000000010110;
	55 :	0000000000001011;
	54 :	1111111111010011;
	53 :	1111111111101011;
	52 :	1111111111111111;
	51 :	0000000000100101;
	50 :	0000000000000101;
	49 :	0000000000011101;
	48 :	0000000000010101;
	47 :	0000000000011001;
	46 :	1111111111011101;
	45 :	0000000000101001;
	44 :	0000000001110011;
	43 :	1111111110000011;
	42 :	1111111110111000;
	41 :	1111111111111101;
	40 :	1111111111010000;
	39 :	0000000000000000;
	38 :	1111111111010110;
	37 :	0000000000110001;
	36 :	0000000000101011;
	35 :	0000000000011010;
	34 :	0000000000001101;
	33 :	0000000000010001;
	32 :	0000000000001100;
	31 :	0000000000010001;
	30 :	0000000000010011;
	29 :	1111111111100001;
	28 :	0000000000110101;
	27 :	1111111110101100;
	26 :	0000000000101001;
	25 :	0000000000010111;
	24 :	1111111111011110;
	23 :	1111111111101111;
	22 :	0000000000010010;
	21 :	1111111111111010;
	20 :	0000000000101111;
	19 :	0000000000101101;
	18 :	0000000000010101;
	17 :	1111111111101111;
	16 :	1111111111010101;
	15 :	1111111111111010;
	14 :	1111111111111111;
	13 :	0000000000011011;
	12 :	1111111111110100;
	11 :	0000000000000101;
	10 :	1111111111110000;
	9 :	1111111111110000;
	8 :	0000000000001010;
	7 :	1111111111111000;
	6 :	0000000000001110;
	5 :	0000000000010000;
	4 :	0000000000111101;
	3 :	0000000000001000;
	2 :	1111111111110101;
	1 :	1111111111110000;
	0 :	1111111111011111;
END;
