-- begin_signature
-- weight_memory(num_weight
-- 784
-- data_width
-- 16
-- address_width
-- 10
-- weight_file
-- "C:/SystemVerilog_NPU/w_1_18.mif")
-- end_signature
WIDTH=16;
DEPTH=784;

ADDRESS_RADIX=UNS;
DATA_RADIX=BIN;

CONTENT BEGIN
	783 :	0000000000101011;
	782 :	1111111111110011;
	781 :	0000000000001000;
	780 :	1111111111110000;
	779 :	1111111111011010;
	778 :	0000000000100111;
	777 :	1111111111001110;
	776 :	0000000000010111;
	775 :	0000000000010100;
	774 :	0000000000010011;
	773 :	1111111111111110;
	772 :	0000000000100110;
	771 :	0000000000000101;
	770 :	1111111111100000;
	769 :	1111111111100011;
	768 :	0000000000010111;
	767 :	1111111111010001;
	766 :	1111111110101100;
	765 :	1111111111100011;
	764 :	0000000000110011;
	763 :	0000000000000010;
	762 :	1111111111101101;
	761 :	1111111111011010;
	760 :	1111111111101100;
	759 :	0000000000011010;
	758 :	1111111111010011;
	757 :	0000000000100010;
	756 :	0000000000010110;
	755 :	1111111111110011;
	754 :	0000000000001110;
	753 :	0000000000101000;
	752 :	0000000000110010;
	751 :	1111111111101011;
	750 :	0000000000011011;
	749 :	1111111111111110;
	748 :	0000000011111001;
	747 :	0000001011010111;
	746 :	0000001010111100;
	745 :	0000001101100110;
	744 :	0000001101011111;
	743 :	0000001010100111;
	742 :	0000000010110101;
	741 :	0000000001101000;
	740 :	1111111101100001;
	739 :	1111111101100110;
	738 :	0000000001111000;
	737 :	1111111101001010;
	736 :	1111111011111111;
	735 :	1111111100110100;
	734 :	1111111111101011;
	733 :	1111111111011000;
	732 :	1111111111110101;
	731 :	1111111111100011;
	730 :	1111111111110101;
	729 :	0000000000101101;
	728 :	0000000000110110;
	727 :	0000000001010110;
	726 :	1111111111111010;
	725 :	0000000000000001;
	724 :	0000000000100000;
	723 :	0000000000001001;
	722 :	1111111100001010;
	721 :	1111111111010101;
	720 :	0000001000010010;
	719 :	0000010011010001;
	718 :	0000000111110000;
	717 :	0000000001110010;
	716 :	0000001011001100;
	715 :	0000001010001111;
	714 :	1111111101100101;
	713 :	0000000101100010;
	712 :	0000001010101111;
	711 :	1111111001001101;
	710 :	1111111110100010;
	709 :	0000001000001010;
	708 :	0000010001010111;
	707 :	0000001011010100;
	706 :	0000001011010001;
	705 :	0000000101100111;
	704 :	1111111111111110;
	703 :	1111111111010001;
	702 :	0000000000000001;
	701 :	1111111111100011;
	700 :	1111111111111001;
	699 :	0000000000010010;
	698 :	0000000001001001;
	697 :	1111111111111000;
	696 :	0000000010010010;
	695 :	0000000100001001;
	694 :	1111111011011100;
	693 :	1111111100010110;
	692 :	1111111100101010;
	691 :	1111111100001101;
	690 :	1111111110010100;
	689 :	0000000001111110;
	688 :	0000000000011000;
	687 :	0000011010000110;
	686 :	0000001111010011;
	685 :	0000000110110010;
	684 :	0000000111110010;
	683 :	0000001000001010;
	682 :	0000000110011001;
	681 :	0000000110111100;
	680 :	0000010001110011;
	679 :	0000010111101100;
	678 :	0000010011111101;
	677 :	0000000110001011;
	676 :	0000000011010100;
	675 :	0000000000001001;
	674 :	0000000001000000;
	673 :	1111111111101101;
	672 :	0000000000110110;
	671 :	1111111111000010;
	670 :	0000000000111000;
	669 :	0000000000011101;
	668 :	0000000110010011;
	667 :	0000001000110110;
	666 :	0000001001010111;
	665 :	0000000000001010;
	664 :	0000001101010010;
	663 :	0000000010000011;
	662 :	0000001000000100;
	661 :	0000001010101001;
	660 :	0000010001101101;
	659 :	0000000111111000;
	658 :	1111111000011111;
	657 :	0000000111100100;
	656 :	1111111000101101;
	655 :	1111101101100000;
	654 :	0000000011010100;
	653 :	0000001001010110;
	652 :	0000001010100111;
	651 :	0000001101111001;
	650 :	0000001110101011;
	649 :	0000001111100101;
	648 :	0000001010000101;
	647 :	0000000000111110;
	646 :	1111111111110110;
	645 :	0000000000000111;
	644 :	0000000000010001;
	643 :	1111111111111001;
	642 :	0000000000001001;
	641 :	0000000011001001;
	640 :	0000001000000100;
	639 :	0000001100000100;
	638 :	1111111111011000;
	637 :	1111111101011010;
	636 :	0000010011111101;
	635 :	1111111101000011;
	634 :	0000000001111101;
	633 :	0000001100000101;
	632 :	0000010111001100;
	631 :	0000000000111100;
	630 :	0000010111111110;
	629 :	0000001101101110;
	628 :	1111101110010111;
	627 :	1111101110110110;
	626 :	0000000111011110;
	625 :	0000010111101100;
	624 :	0000001011111010;
	623 :	0000010000000001;
	622 :	0000001011001010;
	621 :	0000001111101101;
	620 :	0000001111100011;
	619 :	0000000011101111;
	618 :	0000000000000100;
	617 :	0000000000001001;
	616 :	1111111111101101;
	615 :	1111111111101011;
	614 :	1111111110101011;
	613 :	0000000001010111;
	612 :	0000001001100011;
	611 :	0000001010101011;
	610 :	0000000010111011;
	609 :	0000001110001111;
	608 :	0000010000111010;
	607 :	0000000101110011;
	606 :	0000001111100101;
	605 :	0000000111011111;
	604 :	0000011011111110;
	603 :	0000001111000100;
	602 :	0000011000100010;
	601 :	0000001100111000;
	600 :	0000000101000000;
	599 :	0000000100100011;
	598 :	0000001101000010;
	597 :	0000011011110001;
	596 :	0000011000110001;
	595 :	0000001100100000;
	594 :	0000001001001110;
	593 :	0000001000101100;
	592 :	0000000110100001;
	591 :	0000001000100010;
	590 :	0000000001100110;
	589 :	0000000000000101;
	588 :	0000000000010101;
	587 :	0000000000001000;
	586 :	0000000000111000;
	585 :	0000000000100110;
	584 :	0000000110000011;
	583 :	0000001001100101;
	582 :	0000010011001111;
	581 :	0000001101100101;
	580 :	0000001101110100;
	579 :	0000010000000001;
	578 :	0000001010111110;
	577 :	1111110001100100;
	576 :	0000001010111111;
	575 :	1111111111010000;
	574 :	0000001100011111;
	573 :	0000000111101101;
	572 :	1111111011111010;
	571 :	0000000101110001;
	570 :	0000001010100101;
	569 :	0000011001010101;
	568 :	0000100100000010;
	567 :	0000010000110100;
	566 :	0000000000011000;
	565 :	1111111111010110;
	564 :	0000001000100001;
	563 :	0000000111101010;
	562 :	0000000001010000;
	561 :	0000000000001111;
	560 :	1111111111011111;
	559 :	0000000000001001;
	558 :	0000000000100001;
	557 :	0000000001011010;
	556 :	0000000101100110;
	555 :	0000000110100111;
	554 :	0000001011011010;
	553 :	1111111011010110;
	552 :	0000000100101110;
	551 :	0000000010010101;
	550 :	0000000110000101;
	549 :	0000001000000000;
	548 :	0000011000110011;
	547 :	1111111100000101;
	546 :	0000010000010011;
	545 :	0000010110100000;
	544 :	0000000101100011;
	543 :	0000001001110000;
	542 :	1111111111100011;
	541 :	0000001111011111;
	540 :	0000001010111101;
	539 :	0000010010010011;
	538 :	0000000101010100;
	537 :	1111111001100110;
	536 :	0000001000001111;
	535 :	0000001000100110;
	534 :	0000000000011000;
	533 :	0000000000100111;
	532 :	0000000001000100;
	531 :	0000000000001101;
	530 :	1111111110010001;
	529 :	1111111111110011;
	528 :	1111111101001110;
	527 :	0000000001000000;
	526 :	1111111110100110;
	525 :	1111111011110010;
	524 :	0000000101110001;
	523 :	1111111000111101;
	522 :	0000001110011100;
	521 :	0000001110110100;
	520 :	0000010010010010;
	519 :	1111111010101001;
	518 :	1111111101111101;
	517 :	1111111010010101;
	516 :	1111111010010011;
	515 :	1111111000001000;
	514 :	1111101011101100;
	513 :	1111110100100010;
	512 :	0000000000000100;
	511 :	0000001111110100;
	510 :	1111111111010110;
	509 :	1111111010010101;
	508 :	0000001010001001;
	507 :	0000001101000001;
	506 :	0000000001010100;
	505 :	1111111111111101;
	504 :	0000000000000000;
	503 :	1111111111110100;
	502 :	1111111101101110;
	501 :	1111111101000100;
	500 :	1111110101111010;
	499 :	1111110100100111;
	498 :	1111110001101110;
	497 :	1111111111111111;
	496 :	1111110100010001;
	495 :	1111110010011101;
	494 :	0000000100111001;
	493 :	0000000001101000;
	492 :	1111101110100000;
	491 :	0000001011100101;
	490 :	0000000110010101;
	489 :	1111111001101010;
	488 :	0000000000011010;
	487 :	1111111001101011;
	486 :	1111110100110011;
	485 :	1111100100110111;
	484 :	1111110100100111;
	483 :	1111111111011101;
	482 :	0000000010101101;
	481 :	1111111110010100;
	480 :	0000001100001101;
	479 :	0000001011011101;
	478 :	0000000000110100;
	477 :	1111111110111111;
	476 :	0000000000000101;
	475 :	1111111111110011;
	474 :	1111111100101111;
	473 :	0000000001011110;
	472 :	1111111111011101;
	471 :	1111111001101001;
	470 :	1111111100111010;
	469 :	0000000000010000;
	468 :	1111111001000111;
	467 :	1111110100100111;
	466 :	1111111001010010;
	465 :	1111100011100110;
	464 :	1111110011111110;
	463 :	1111111100111110;
	462 :	0000001011110100;
	461 :	1111111110110101;
	460 :	1111101110011000;
	459 :	1111111011001010;
	458 :	0000000000100000;
	457 :	1111111101000010;
	456 :	1111110100000010;
	455 :	1111111000001110;
	454 :	0000000001110010;
	453 :	1111111101011010;
	452 :	0000001010100001;
	451 :	0000000110000000;
	450 :	0000000000000000;
	449 :	0000000000000001;
	448 :	1111111111101111;
	447 :	0000000000101011;
	446 :	1111111100101010;
	445 :	0000000010100101;
	444 :	0000000000100111;
	443 :	1111111100001111;
	442 :	0000000001110110;
	441 :	1111111110001101;
	440 :	1111110101100110;
	439 :	1111111110000011;
	438 :	0000000000110011;
	437 :	1111110111100101;
	436 :	0000001011011100;
	435 :	1111111110100000;
	434 :	0000010011100110;
	433 :	1111111110010100;
	432 :	1111011101011111;
	431 :	0000000000001000;
	430 :	1111101100000001;
	429 :	1111110011100110;
	428 :	0000000100101111;
	427 :	1111111100100100;
	426 :	0000001010000111;
	425 :	1111111110111110;
	424 :	0000000011101100;
	423 :	1111111111011000;
	422 :	1111111101101111;
	421 :	1111111111101010;
	420 :	0000000001010011;
	419 :	0000000000001010;
	418 :	0000000000000101;
	417 :	1111111111010110;
	416 :	1111111111110011;
	415 :	1111111010100000;
	414 :	1111110001010100;
	413 :	1111111010100001;
	412 :	1111111010111010;
	411 :	1111111100100000;
	410 :	0000000111101101;
	409 :	1111101001011011;
	408 :	0000001000110110;
	407 :	0000001100100000;
	406 :	0000011001100110;
	405 :	0000001100010110;
	404 :	1111010111010110;
	403 :	1111010010110001;
	402 :	1111100111101111;
	401 :	1111101011000110;
	400 :	1111101110101000;
	399 :	0000001000100001;
	398 :	0000001011001101;
	397 :	1111101110011000;
	396 :	1111111100010110;
	395 :	1111111111110001;
	394 :	1111111110000100;
	393 :	1111111110111010;
	392 :	1111111110111010;
	391 :	1111111111111111;
	390 :	1111111101000010;
	389 :	1111110111111010;
	388 :	1111111010001000;
	387 :	0000000000011000;
	386 :	1111110110010000;
	385 :	1111110100110110;
	384 :	1111111001001101;
	383 :	1111110010111100;
	382 :	0000001111011101;
	381 :	0000001011011000;
	380 :	0000010000111100;
	379 :	0000000000111000;
	378 :	0000001110001001;
	377 :	0000000000001000;
	376 :	1111100101010111;
	375 :	1111011011110010;
	374 :	1111011111110001;
	373 :	0000000001000011;
	372 :	1111111010101010;
	371 :	1111111010101010;
	370 :	0000000001100000;
	369 :	1111111000000011;
	368 :	1111111001001001;
	367 :	1111111101110011;
	366 :	1111111110000001;
	365 :	1111111111110110;
	364 :	0000000000011011;
	363 :	0000000000100101;
	362 :	1111111111010000;
	361 :	0000000000010101;
	360 :	1111111110001000;
	359 :	0000000100110010;
	358 :	1111110100101011;
	357 :	1111110001010000;
	356 :	1111110010101011;
	355 :	1111110011100011;
	354 :	0000001000010010;
	353 :	0000011000101001;
	352 :	0000001110110111;
	351 :	1111111111101110;
	350 :	0000011001010011;
	349 :	1111110111000000;
	348 :	1111100000000010;
	347 :	1111100110000011;
	346 :	1111110001100010;
	345 :	1111101001011111;
	344 :	1111101010000110;
	343 :	1111110111101001;
	342 :	0000000111000001;
	341 :	0000000111010111;
	340 :	0000001001011011;
	339 :	1111111110110001;
	338 :	1111111110101101;
	337 :	0000000000000000;
	336 :	0000000000011010;
	335 :	0000000000101001;
	334 :	0000000101000101;
	333 :	0000000011001110;
	332 :	1111111110011001;
	331 :	1111111111101011;
	330 :	0000000100111100;
	329 :	0000000001010110;
	328 :	1111110111100111;
	327 :	1111110100000110;
	326 :	0000000101101100;
	325 :	0000001010101100;
	324 :	0000011110011111;
	323 :	0000001111000010;
	322 :	0000010100000011;
	321 :	0000000101101100;
	320 :	1111100111100111;
	319 :	1111110101111011;
	318 :	1111100110100011;
	317 :	1111100000010111;
	316 :	1111100100110110;
	315 :	1111101011001101;
	314 :	0000001010001100;
	313 :	0000001000101110;
	312 :	0000000111011110;
	311 :	0000000000111110;
	310 :	0000000000100011;
	309 :	1111111111110001;
	308 :	0000000000100001;
	307 :	1111111111010001;
	306 :	0000000000000000;
	305 :	1111111100100110;
	304 :	1111110010000110;
	303 :	1111110010000010;
	302 :	0000000011011010;
	301 :	0000000000011011;
	300 :	0000000001001100;
	299 :	0000000101010100;
	298 :	1111111011001000;
	297 :	1111111100010001;
	296 :	0000000100111111;
	295 :	1111100100010100;
	294 :	1111110000101111;
	293 :	1111110001000001;
	292 :	1111011111100100;
	291 :	1111101010010000;
	290 :	1111100001100001;
	289 :	1111100110010010;
	288 :	1111101100010000;
	287 :	1111101110101011;
	286 :	1111111100101011;
	285 :	0000000000100011;
	284 :	1111111111110101;
	283 :	1111111111001011;
	282 :	1111111111111001;
	281 :	1111111111100000;
	280 :	1111111111110010;
	279 :	1111111111000100;
	278 :	0000000000000000;
	277 :	0000000100001011;
	276 :	1111101110000111;
	275 :	1111101010100110;
	274 :	1111111110100001;
	273 :	1111110111111000;
	272 :	1111101101001111;
	271 :	1111111001001111;
	270 :	1111101101111111;
	269 :	1111101101001110;
	268 :	1111010011101001;
	267 :	1111100000100010;
	266 :	1111100011000011;
	265 :	1111011110011101;
	264 :	1111110101000100;
	263 :	1111111100000101;
	262 :	1111101101101100;
	261 :	0000000111000100;
	260 :	1111111111100011;
	259 :	0000000110111001;
	258 :	0000000011000000;
	257 :	0000000000010111;
	256 :	0000000100001111;
	255 :	1111111110001011;
	254 :	1111111110111011;
	253 :	1111111111010011;
	252 :	0000000000000100;
	251 :	0000000001000010;
	250 :	0000000001101100;
	249 :	1111111100000110;
	248 :	1111101010100000;
	247 :	1111101000010100;
	246 :	1111110101010000;
	245 :	1111110100111001;
	244 :	1111101000011111;
	243 :	0000000011001011;
	242 :	1111101010011000;
	241 :	1111100001000101;
	240 :	1111011010100111;
	239 :	1111101101111001;
	238 :	0000000000011011;
	237 :	0000000111011101;
	236 :	0000010100110101;
	235 :	0000010000000010;
	234 :	0000100101010101;
	233 :	0000011101100111;
	232 :	0000000100111110;
	231 :	1111110110000000;
	230 :	0000000000010000;
	229 :	0000000110011111;
	228 :	0000000000001000;
	227 :	1111111101110100;
	226 :	1111111100101011;
	225 :	1111111111101101;
	224 :	0000000000000111;
	223 :	0000000000010100;
	222 :	1111111011100000;
	221 :	1111111011110101;
	220 :	1111111010100001;
	219 :	1111101101111100;
	218 :	1111100111001100;
	217 :	1111100010010010;
	216 :	1111100100001000;
	215 :	1111101101001011;
	214 :	1111110001110110;
	213 :	1111101001001101;
	212 :	0000000001110001;
	211 :	0000011000100110;
	210 :	0000101011101110;
	209 :	0000100101000010;
	208 :	0000101110101000;
	207 :	0000010010111011;
	206 :	0000010110101011;
	205 :	0000001001111110;
	204 :	0000001000011111;
	203 :	0000001011010010;
	202 :	0000001100110010;
	201 :	0000000010100011;
	200 :	0000000111011111;
	199 :	1111111101110110;
	198 :	1111111101011011;
	197 :	0000000000110000;
	196 :	1111111111011011;
	195 :	0000000001000011;
	194 :	0000000000010111;
	193 :	0000000010100000;
	192 :	1111111101101111;
	191 :	1111111011000000;
	190 :	1111110100010011;
	189 :	1111110011101100;
	188 :	0000001001101000;
	187 :	0000001011101111;
	186 :	0000100011001101;
	185 :	0000101111101101;
	184 :	0000110010110111;
	183 :	0000110111001100;
	182 :	0000011011100001;
	181 :	0000011000011100;
	180 :	0000010100111100;
	179 :	0000011001011011;
	178 :	0000010010100010;
	177 :	0000010110100000;
	176 :	0000010000000010;
	175 :	0000011111110000;
	174 :	0000010010101000;
	173 :	0000000011111110;
	172 :	0000000101001010;
	171 :	0000000001011110;
	170 :	1111111110011110;
	169 :	1111111111111000;
	168 :	0000000000011111;
	167 :	1111111111010001;
	166 :	0000000000100110;
	165 :	0000000001111110;
	164 :	1111111110101001;
	163 :	0000000100001111;
	162 :	0000001101111011;
	161 :	0000001100111011;
	160 :	0000011111101101;
	159 :	0000101000011001;
	158 :	0000011110110010;
	157 :	0000100100111101;
	156 :	0000010001100110;
	155 :	0000001011101110;
	154 :	1111111011010001;
	153 :	0000001011101010;
	152 :	0000000101011000;
	151 :	0000010010101011;
	150 :	0000001001000110;
	149 :	0000000110110101;
	148 :	0000001101010101;
	147 :	0000011010100011;
	146 :	0000010001011000;
	145 :	0000001011011001;
	144 :	0000000100100100;
	143 :	0000000000101011;
	142 :	0000000000100001;
	141 :	1111111111011000;
	140 :	1111111111111011;
	139 :	0000000000001011;
	138 :	0000000000111111;
	137 :	1111111110001111;
	136 :	1111111011111100;
	135 :	1111111100111101;
	134 :	0000000111101011;
	133 :	0000010001010001;
	132 :	0000001111111101;
	131 :	0000010101110111;
	130 :	0000001100000100;
	129 :	1111111101010001;
	128 :	0000001011000110;
	127 :	0000001110010100;
	126 :	0000001100100010;
	125 :	0000010000001011;
	124 :	0000000101110000;
	123 :	0000001001111001;
	122 :	0000010000001001;
	121 :	0000001010100000;
	120 :	0000010010110101;
	119 :	0000001011111101;
	118 :	0000001000001111;
	117 :	0000000110101100;
	116 :	0000000001011000;
	115 :	0000000000010101;
	114 :	1111111111110110;
	113 :	1111111110110001;
	112 :	1111111111100001;
	111 :	1111111111111111;
	110 :	1111111111101000;
	109 :	0000000001001010;
	108 :	0000000001110101;
	107 :	0000000001010110;
	106 :	1111111111010011;
	105 :	1111111111000010;
	104 :	0000000001010001;
	103 :	0000001010110000;
	102 :	0000001111110101;
	101 :	0000001100110110;
	100 :	0000010001001111;
	99 :	0000001101000010;
	98 :	0000000100111101;
	97 :	0000010010010011;
	96 :	0000001010001100;
	95 :	1111111000010101;
	94 :	0000000000100011;
	93 :	0000000111011011;
	92 :	0000001011011111;
	91 :	0000000100011000;
	90 :	0000000010011011;
	89 :	0000000010011011;
	88 :	0000000000100010;
	87 :	1111111111101111;
	86 :	1111111111100101;
	85 :	0000000000001011;
	84 :	1111111111110000;
	83 :	0000000001001100;
	82 :	1111111111111001;
	81 :	1111111111111111;
	80 :	0000000000100100;
	79 :	0000000000011001;
	78 :	1111111111110000;
	77 :	0000000000100010;
	76 :	0000000001100111;
	75 :	0000000011010101;
	74 :	0000000100101110;
	73 :	0000000100001100;
	72 :	0000000101101001;
	71 :	0000000100101101;
	70 :	0000000011001011;
	69 :	0000000101000110;
	68 :	0000000011111010;
	67 :	0000000011000110;
	66 :	0000000011010101;
	65 :	0000000001011001;
	64 :	0000000001111110;
	63 :	0000000001110011;
	62 :	0000000000010011;
	61 :	1111111111111101;
	60 :	0000000000001101;
	59 :	0000000000001101;
	58 :	0000000000010100;
	57 :	1111111111111001;
	56 :	0000000000000000;
	55 :	1111111111110001;
	54 :	1111111111111111;
	53 :	1111111111110011;
	52 :	1111111111011101;
	51 :	0000000000010101;
	50 :	0000000000011110;
	49 :	0000000000110100;
	48 :	0000000001000100;
	47 :	0000000000011101;
	46 :	1111111111111010;
	45 :	0000000001011100;
	44 :	0000000000110001;
	43 :	0000000001000001;
	42 :	0000000000011010;
	41 :	0000000000001001;
	40 :	0000000001100111;
	39 :	0000000000000101;
	38 :	0000000000001110;
	37 :	1111111111111101;
	36 :	0000000000010110;
	35 :	1111111111101001;
	34 :	1111111111110101;
	33 :	1111111111111100;
	32 :	0000000000110111;
	31 :	0000000000011101;
	30 :	1111111111111101;
	29 :	0000000000101000;
	28 :	1111111111001010;
	27 :	0000000000001101;
	26 :	0000000000010010;
	25 :	0000000000000111;
	24 :	0000000000000010;
	23 :	0000000000100000;
	22 :	0000000000110011;
	21 :	0000000000000001;
	20 :	0000000000011011;
	19 :	1111111111111110;
	18 :	1111111111111001;
	17 :	0000000001100011;
	16 :	1111111111111010;
	15 :	1111111111110000;
	14 :	0000000001001011;
	13 :	1111111111100010;
	12 :	1111111111011110;
	11 :	0000000000001000;
	10 :	1111111111100101;
	9 :	0000000000000000;
	8 :	0000000000011111;
	7 :	0000000000011001;
	6 :	1111111111110101;
	5 :	0000000000001011;
	4 :	1111111111111101;
	3 :	1111111111110011;
	2 :	0000000000001101;
	1 :	1111111110101001;
	0 :	1111111111011111;
END;
