-- begin_signature
-- weight_memory(num_weight
-- 784
-- data_width
-- 16
-- address_width
-- 10
-- weight_file
-- "C:/SystemVerilog_NPU/w_1_20.mif")
-- end_signature
WIDTH=16;
DEPTH=784;

ADDRESS_RADIX=UNS;
DATA_RADIX=BIN;

CONTENT BEGIN
	783 :	1111111111011001;
	782 :	1111111111110101;
	781 :	0000000000100011;
	780 :	1111111111111110;
	779 :	1111111111011010;
	778 :	1111111111101101;
	777 :	1111111111110100;
	776 :	1111111111000011;
	775 :	1111111111010001;
	774 :	0000000010110000;
	773 :	0000000000111001;
	772 :	0000000001000001;
	771 :	0000000000000110;
	770 :	1111111111111111;
	769 :	1111111111111011;
	768 :	1111111111111101;
	767 :	0000000000101001;
	766 :	0000000000101011;
	765 :	1111111111010101;
	764 :	1111111111011000;
	763 :	0000000000110011;
	762 :	0000000000110010;
	761 :	1111111111011010;
	760 :	0000000000101111;
	759 :	0000000000000100;
	758 :	0000000000010101;
	757 :	0000000000001011;
	756 :	0000000000110100;
	755 :	1111111111110000;
	754 :	1111111111100001;
	753 :	0000000000101101;
	752 :	1111111111110011;
	751 :	0000000000000001;
	750 :	0000000000010100;
	749 :	0000000000100110;
	748 :	1111111101011011;
	747 :	1111110011100000;
	746 :	1111110110011010;
	745 :	1111110011110010;
	744 :	1111111101110110;
	743 :	0000000001011111;
	742 :	0000000010000010;
	741 :	0000000010010001;
	740 :	0000000010001111;
	739 :	0000000001011101;
	738 :	0000000011100000;
	737 :	0000001010001111;
	736 :	0000000011000011;
	735 :	0000000010101011;
	734 :	0000000011010011;
	733 :	0000000010011101;
	732 :	0000000000100101;
	731 :	0000000000010001;
	730 :	0000000000001010;
	729 :	1111111111000111;
	728 :	0000000000010100;
	727 :	0000000000011001;
	726 :	1111111110010010;
	725 :	1111111111010011;
	724 :	0000000001111010;
	723 :	0000000011100001;
	722 :	0000000010010010;
	721 :	0000000100111011;
	720 :	0000000011101110;
	719 :	1111111000100011;
	718 :	1111111001111001;
	717 :	0000000000100010;
	716 :	0000000100110001;
	715 :	0000001101011001;
	714 :	0000001110010100;
	713 :	0000010000000010;
	712 :	0000001011110111;
	711 :	0000001010011001;
	710 :	0000001100100110;
	709 :	0000010111100010;
	708 :	0000010000001010;
	707 :	0000001010000000;
	706 :	0000000111010110;
	705 :	0000000101011011;
	704 :	0000000101000000;
	703 :	0000000001011000;
	702 :	0000000000000011;
	701 :	0000000000000110;
	700 :	0000000000100111;
	699 :	1111111111010010;
	698 :	1111111111000001;
	697 :	1111111100111010;
	696 :	0000000001010001;
	695 :	0000001011110010;
	694 :	0000001001111111;
	693 :	0000000110000101;
	692 :	0000000111110001;
	691 :	0000000101111111;
	690 :	0000010011010011;
	689 :	0000010000000101;
	688 :	0000010010000000;
	687 :	0000100011000010;
	686 :	0000101010101110;
	685 :	0000110110110011;
	684 :	0000100110011011;
	683 :	0000100011010001;
	682 :	0000100000111000;
	681 :	0000101010101000;
	680 :	0000100100011101;
	679 :	0000100001100100;
	678 :	0000011001000111;
	677 :	0000010001011000;
	676 :	0000001000100101;
	675 :	1111111111111100;
	674 :	0000000000010010;
	673 :	0000000000100110;
	672 :	1111111111011010;
	671 :	0000000000000001;
	670 :	1111111111011110;
	669 :	1111111111110110;
	668 :	0000001011010011;
	667 :	0000001101111011;
	666 :	0000001100001000;
	665 :	0000001011100100;
	664 :	0000001110111111;
	663 :	0000011100001100;
	662 :	0000101110101011;
	661 :	0000111001101001;
	660 :	0000110111011010;
	659 :	0000111001111010;
	658 :	0000111001010001;
	657 :	0000101110110101;
	656 :	0000100101110011;
	655 :	0000110000011010;
	654 :	0000100000100000;
	653 :	0000101000011100;
	652 :	0000101100000001;
	651 :	0000100111011000;
	650 :	0000011111010100;
	649 :	0000011000110001;
	648 :	0000010110010001;
	647 :	0000000010011000;
	646 :	1111111110101011;
	645 :	1111111111110000;
	644 :	1111111111111000;
	643 :	0000000000110100;
	642 :	1111111110101010;
	641 :	0000000000100011;
	640 :	0000001110101010;
	639 :	0000011110001000;
	638 :	0000011101100000;
	637 :	0000100001000000;
	636 :	0000010111001011;
	635 :	0000100100011010;
	634 :	0000011111011110;
	633 :	0000100000111011;
	632 :	0000101010010011;
	631 :	0000010100101101;
	630 :	0000011111011100;
	629 :	0000010010001010;
	628 :	0000010101010011;
	627 :	0000100110101111;
	626 :	0000000000010010;
	625 :	0000010101000000;
	624 :	0000100101000110;
	623 :	0000010111111010;
	622 :	0000010100101001;
	621 :	0000000101001100;
	620 :	0000010000110010;
	619 :	0000000011000010;
	618 :	1111111111010111;
	617 :	0000000000101001;
	616 :	1111111111100100;
	615 :	1111111111111010;
	614 :	1111111110001101;
	613 :	0000000010000111;
	612 :	0000011010010011;
	611 :	0000010101010100;
	610 :	0000010111110110;
	609 :	0000010101010011;
	608 :	0000100100101101;
	607 :	0000100110001110;
	606 :	0000010100001110;
	605 :	0000001110100000;
	604 :	0000010010001111;
	603 :	0000001001100110;
	602 :	0000000111000011;
	601 :	1111110011100111;
	600 :	1111111011001110;
	599 :	1111111111011110;
	598 :	1111110010100100;
	597 :	0000000011011011;
	596 :	0000001010110001;
	595 :	0000001000001010;
	594 :	1111110111111110;
	593 :	1111110100101000;
	592 :	0000000000111111;
	591 :	1111111000110010;
	590 :	1111111001100011;
	589 :	1111111111111110;
	588 :	0000000001001000;
	587 :	0000000000001001;
	586 :	1111111111100111;
	585 :	0000000010011010;
	584 :	0000010010001010;
	583 :	0000001110000101;
	582 :	1111111101011000;
	581 :	0000000001111010;
	580 :	0000001111010111;
	579 :	0000001111101111;
	578 :	1111101011111000;
	577 :	0000001000110000;
	576 :	0000011001001100;
	575 :	1111111001001011;
	574 :	1111110110100111;
	573 :	1111110101100110;
	572 :	1111111011001101;
	571 :	1111011111010000;
	570 :	1111101011111001;
	569 :	0000000101001100;
	568 :	0000000010101101;
	567 :	0000000001011001;
	566 :	1111111100001000;
	565 :	1111101011100111;
	564 :	1111101111101001;
	563 :	1111110101111010;
	562 :	1111111110011000;
	561 :	0000000000011100;
	560 :	1111111111110111;
	559 :	0000000000011111;
	558 :	1111111100101000;
	557 :	1111110011001110;
	556 :	1111111001011000;
	555 :	1111110110101011;
	554 :	1111110001111110;
	553 :	1111111101000011;
	552 :	0000000101010101;
	551 :	1111111110100000;
	550 :	1111111101101001;
	549 :	1111101100100000;
	548 :	1111110111100000;
	547 :	1111101001100011;
	546 :	1111100101110000;
	545 :	0000010000000110;
	544 :	1111101110000010;
	543 :	1111100010111010;
	542 :	1111110010100101;
	541 :	0000000010010001;
	540 :	0000000100011101;
	539 :	0000000111101110;
	538 :	1111111111000111;
	537 :	1111110101110111;
	536 :	1111101101010001;
	535 :	1111111001111001;
	534 :	0000000010000110;
	533 :	0000000000011110;
	532 :	0000000001010011;
	531 :	1111111111000011;
	530 :	0000000010000010;
	529 :	1111101100101011;
	528 :	1111110011001100;
	527 :	0000000000010001;
	526 :	0000000010101111;
	525 :	1111110011110001;
	524 :	0000010101000001;
	523 :	1111110100101101;
	522 :	1111110100111110;
	521 :	1111101110001011;
	520 :	1111101001010011;
	519 :	1111110011000100;
	518 :	1111100101011011;
	517 :	0000010000010110;
	516 :	1111110101110100;
	515 :	1111111011101100;
	514 :	1111110101110100;
	513 :	1111111000110110;
	512 :	0000001001011000;
	511 :	1111111100010001;
	510 :	0000000010110111;
	509 :	1111111011001010;
	508 :	1111111001101000;
	507 :	1111110011000101;
	506 :	0000000001100110;
	505 :	1111111111010100;
	504 :	0000000000000101;
	503 :	1111111111001110;
	502 :	0000000011010001;
	501 :	1111101111110111;
	500 :	0000010001010000;
	499 :	0000011011001010;
	498 :	0000010111111001;
	497 :	1111110100111000;
	496 :	1111111011000000;
	495 :	1111111011101110;
	494 :	1111111000101010;
	493 :	1111111011011110;
	492 :	1111110110010101;
	491 :	1111101101110001;
	490 :	1111111100000000;
	489 :	1111111100111010;
	488 :	0000000010000010;
	487 :	1111111101110101;
	486 :	1111101111010101;
	485 :	1111111101001111;
	484 :	0000000110001110;
	483 :	0000000110110111;
	482 :	0000000000111111;
	481 :	0000001000010111;
	480 :	1111110100011101;
	479 :	1111110101001000;
	478 :	1111111111011001;
	477 :	0000000000011011;
	476 :	1111111111010011;
	475 :	0000000000000100;
	474 :	1111111110110010;
	473 :	1111100111110000;
	472 :	1111110001110111;
	471 :	0000000011100111;
	470 :	0000000011101100;
	469 :	1111110110101010;
	468 :	0000001010110011;
	467 :	1111110011100111;
	466 :	0000000001110111;
	465 :	1111100010111001;
	464 :	1111100101111100;
	463 :	1111111001011000;
	462 :	1111101001101001;
	461 :	0000000011010010;
	460 :	0000010010001000;
	459 :	1111111010000111;
	458 :	1111110000010011;
	457 :	1111111110001110;
	456 :	0000011001111101;
	455 :	0000000100000010;
	454 :	1111110111111101;
	453 :	1111111100011000;
	452 :	1111111000111101;
	451 :	1111110110001001;
	450 :	1111111110111010;
	449 :	1111111111110011;
	448 :	1111111111111001;
	447 :	1111111101100010;
	446 :	0000000010111101;
	445 :	1111110010001100;
	444 :	1111111101010010;
	443 :	1111111110010000;
	442 :	1111111110001110;
	441 :	0000000001110011;
	440 :	1111101000011111;
	439 :	1111110010000001;
	438 :	1111110001011100;
	437 :	0000001001011110;
	436 :	1111110100011111;
	435 :	0000010010000111;
	434 :	0000000000101010;
	433 :	1111011011000111;
	432 :	1111111010111000;
	431 :	0000010010110111;
	430 :	1111111000111001;
	429 :	0000000010111001;
	428 :	0000001010000010;
	427 :	0000010110100010;
	426 :	0000001010111010;
	425 :	1111111101101100;
	424 :	1111110011010010;
	423 :	1111111111111010;
	422 :	1111111111101101;
	421 :	1111111111101011;
	420 :	1111111111011010;
	419 :	1111111111101111;
	418 :	1111111010010010;
	417 :	0000000100100110;
	416 :	1111110011100000;
	415 :	1111101010010010;
	414 :	1111100110001001;
	413 :	1111110101001011;
	412 :	1111110010101101;
	411 :	0000000110110111;
	410 :	1111011100110001;
	409 :	0000011010001111;
	408 :	1111100000011001;
	407 :	1111110101100000;
	406 :	1111111000101101;
	405 :	1111101000100110;
	404 :	0000000110001101;
	403 :	0000000000101101;
	402 :	1111110100000000;
	401 :	1111110101001110;
	400 :	1111111111111010;
	399 :	0000000000010110;
	398 :	1111110000110111;
	397 :	1111111100111001;
	396 :	0000001000001110;
	395 :	0000000100010001;
	394 :	0000000000010110;
	393 :	1111111111110001;
	392 :	1111111111010100;
	391 :	1111111100001001;
	390 :	1111111101001000;
	389 :	0000010000101110;
	388 :	1111110111110110;
	387 :	1111101100001101;
	386 :	1111110000110110;
	385 :	1111101110001000;
	384 :	1111111000010000;
	383 :	1111101100111011;
	382 :	1111110111011100;
	381 :	0000010001000101;
	380 :	1111100111011110;
	379 :	1111110010011100;
	378 :	1111111100101110;
	377 :	1111101010101100;
	376 :	0000000110001000;
	375 :	0000000010011011;
	374 :	1111110011110110;
	373 :	0000011100111111;
	372 :	0000010001001110;
	371 :	0000001111010011;
	370 :	0000001010000110;
	369 :	0000000110111011;
	368 :	0000010011001000;
	367 :	0000000010110111;
	366 :	0000000001010010;
	365 :	1111111111100010;
	364 :	0000000000010010;
	363 :	0000000011001010;
	362 :	0000000111011100;
	361 :	1111111010001100;
	360 :	1111101110000100;
	359 :	1111101110000101;
	358 :	1111110001001111;
	357 :	1111110011101101;
	356 :	1111110001010111;
	355 :	1111111000110100;
	354 :	1111111111011010;
	353 :	1111101100011100;
	352 :	1111110100101000;
	351 :	0000001010001010;
	350 :	1111111110110110;
	349 :	0000001011011110;
	348 :	0000001011111011;
	347 :	1111111100010011;
	346 :	0000001001110101;
	345 :	0000010100010000;
	344 :	0000001010100100;
	343 :	1111111101010100;
	342 :	0000000100100110;
	341 :	0000000010101000;
	340 :	0000001100000110;
	339 :	0000000010110001;
	338 :	0000000010100101;
	337 :	0000000000001000;
	336 :	1111111111111000;
	335 :	0000000001110011;
	334 :	1111111111001111;
	333 :	1111110111110111;
	332 :	1111110100001110;
	331 :	1111110001111001;
	330 :	1111111111101011;
	329 :	0000000010100011;
	328 :	1111110001010000;
	327 :	0000001000110111;
	326 :	0000000111100110;
	325 :	1111111000101111;
	324 :	0000000001001110;
	323 :	0000010110111101;
	322 :	0000010010001101;
	321 :	0000001100100101;
	320 :	0000001011110011;
	319 :	1111111010111010;
	318 :	0000000111110001;
	317 :	1111111110100010;
	316 :	1111101110110110;
	315 :	1111101111010110;
	314 :	0000000010110110;
	313 :	0000000110000000;
	312 :	0000000010010100;
	311 :	1111111111101101;
	310 :	0000000001000100;
	309 :	1111111111110101;
	308 :	0000000000101001;
	307 :	0000000010110110;
	306 :	0000000101000001;
	305 :	0000100001111011;
	304 :	0000001010101000;
	303 :	0000000100001000;
	302 :	0000000011000010;
	301 :	1111110001101111;
	300 :	0000000100100011;
	299 :	0000100000100111;
	298 :	0000001110010110;
	297 :	1111111100110110;
	296 :	0000010011011111;
	295 :	0000000011011110;
	294 :	1111101101010101;
	293 :	0000000101010010;
	292 :	0000001001101110;
	291 :	1111111001011001;
	290 :	1111110101100011;
	289 :	1111111110101001;
	288 :	1111111011010101;
	287 :	1111111001100111;
	286 :	0000001101001000;
	285 :	1111111000101001;
	284 :	1111110111010100;
	283 :	1111111110000000;
	282 :	1111111111001010;
	281 :	0000000000010010;
	280 :	1111111111011101;
	279 :	0000001011110011;
	278 :	0000001100111000;
	277 :	0000010001110001;
	276 :	0000000101111110;
	275 :	0000010001011111;
	274 :	1111111100010101;
	273 :	0000001000110001;
	272 :	1111101111001000;
	271 :	1111111011111111;
	270 :	0000001101000010;
	269 :	0000000011011011;
	268 :	0000001011000000;
	267 :	1111111000110010;
	266 :	1111100111001011;
	265 :	0000001101010000;
	264 :	1111111100111110;
	263 :	0000011000000010;
	262 :	0000001001001100;
	261 :	0000001110000010;
	260 :	0000001110111100;
	259 :	0000001010101101;
	258 :	0000010101110000;
	257 :	0000000000110011;
	256 :	0000000001000010;
	255 :	0000000010010001;
	254 :	0000000000011111;
	253 :	0000000000000110;
	252 :	1111111111111000;
	251 :	1111111111101000;
	250 :	0000000100000010;
	249 :	0000001001101010;
	248 :	0000010001100100;
	247 :	0000010010111000;
	246 :	0000010000100100;
	245 :	0000000111111110;
	244 :	1111110110101001;
	243 :	1111111010110000;
	242 :	0000100001000000;
	241 :	0000001010101001;
	240 :	0000000010010101;
	239 :	1111110110000111;
	238 :	0000000001101000;
	237 :	0000000100010011;
	236 :	0000010000111100;
	235 :	0000000110101010;
	234 :	1111110000100011;
	233 :	0000000111000000;
	232 :	1111111111010000;
	231 :	0000000010101010;
	230 :	0000001010110110;
	229 :	0000001111000110;
	228 :	0000001001000001;
	227 :	0000000100001010;
	226 :	0000000000101001;
	225 :	1111111111101011;
	224 :	1111111111100110;
	223 :	1111111111000001;
	222 :	0000000101001010;
	221 :	0000000110101011;
	220 :	0000001101011111;
	219 :	0000101001011110;
	218 :	0000010100100100;
	217 :	0000001100000100;
	216 :	0000010001011000;
	215 :	0000010000100100;
	214 :	0000010001011010;
	213 :	0000001100100111;
	212 :	0000000110101010;
	211 :	0000001010111001;
	210 :	0000001001100101;
	209 :	0000001011000111;
	208 :	0000000101010001;
	207 :	0000000000111100;
	206 :	0000000111110111;
	205 :	0000000000010100;
	204 :	1111111111010011;
	203 :	1111111110001101;
	202 :	0000001010000100;
	201 :	0000010100001001;
	200 :	1111111101001001;
	199 :	1111111111101001;
	198 :	1111111111100100;
	197 :	1111111111011010;
	196 :	1111111111101110;
	195 :	1111111111111110;
	194 :	0000000000111010;
	193 :	0000000101010011;
	192 :	0000010011111000;
	191 :	0000100101011100;
	190 :	0000100000001111;
	189 :	0000010100010101;
	188 :	0000010010111100;
	187 :	0000001010111010;
	186 :	0000010101000010;
	185 :	0000010110011000;
	184 :	1111110110010000;
	183 :	0000010100001101;
	182 :	0000001110111000;
	181 :	1111111001101100;
	180 :	0000011000001101;
	179 :	1111110100001111;
	178 :	0000010110000101;
	177 :	0000001111100111;
	176 :	0000010011101000;
	175 :	1111111010111100;
	174 :	0000000001010100;
	173 :	0000000110100011;
	172 :	1111111111001111;
	171 :	1111111101001001;
	170 :	1111111110001111;
	169 :	0000000000001011;
	168 :	0000000000011000;
	167 :	1111111111100010;
	166 :	1111111111100100;
	165 :	0000000001101110;
	164 :	0000001010010011;
	163 :	0000010011100100;
	162 :	0000100001111110;
	161 :	0000010100101101;
	160 :	0000001001000110;
	159 :	1111111101101011;
	158 :	0000010000010011;
	157 :	0000000110110100;
	156 :	1111111101111110;
	155 :	0000000110111011;
	154 :	0000001011111001;
	153 :	1111110111011001;
	152 :	0000010000100111;
	151 :	0000000111111011;
	150 :	0000000000000111;
	149 :	0000001001000110;
	148 :	0000000011011100;
	147 :	1111110100100000;
	146 :	1111111110101000;
	145 :	0000001110011101;
	144 :	0000000011010100;
	143 :	1111111111100110;
	142 :	0000000000011001;
	141 :	0000000000110101;
	140 :	0000000000001101;
	139 :	1111111111101001;
	138 :	1111111110101010;
	137 :	0000000000100100;
	136 :	0000000110010010;
	135 :	0000010100100100;
	134 :	0000001111100010;
	133 :	0000001101011000;
	132 :	0000000010011101;
	131 :	1111110111101011;
	130 :	0000000010001011;
	129 :	1111110001110111;
	128 :	1111111101011010;
	127 :	0000001010100011;
	126 :	0000000000100100;
	125 :	0000001010110000;
	124 :	0000010010001001;
	123 :	0000000000100001;
	122 :	1111101011100110;
	121 :	1111110011001000;
	120 :	1111101110001101;
	119 :	1111101101011110;
	118 :	1111110011100111;
	117 :	1111111110010010;
	116 :	1111111110010111;
	115 :	1111111111001001;
	114 :	1111111111111111;
	113 :	1111111111111010;
	112 :	1111111111000110;
	111 :	1111111111111000;
	110 :	1111111110100101;
	109 :	1111111111100010;
	108 :	0000000001001101;
	107 :	0000000100011101;
	106 :	0000000001000101;
	105 :	1111110100101100;
	104 :	1111110100100100;
	103 :	0000000010000000;
	102 :	0000010011011001;
	101 :	0000001001100101;
	100 :	1111111001000101;
	99 :	1111111010100011;
	98 :	1111101010101100;
	97 :	1111100000111011;
	96 :	1111100110111001;
	95 :	1111110011101111;
	94 :	1111110110110011;
	93 :	1111101110111110;
	92 :	1111101101000010;
	91 :	1111110010101010;
	90 :	1111110010110110;
	89 :	1111111111010100;
	88 :	1111111111010101;
	87 :	1111111111001100;
	86 :	0000000000110000;
	85 :	0000000000001111;
	84 :	1111111111110010;
	83 :	1111111111110111;
	82 :	0000000000010011;
	81 :	0000000000111111;
	80 :	1111111101010110;
	79 :	1111111101101111;
	78 :	0000000000000000;
	77 :	1111111101011101;
	76 :	1111111011011101;
	75 :	1111111011111110;
	74 :	1111110110001111;
	73 :	1111110101011111;
	72 :	1111111010000101;
	71 :	1111111110001110;
	70 :	1111111001001111;
	69 :	0000000001100011;
	68 :	1111111000110011;
	67 :	1111110110001111;
	66 :	1111111000110000;
	65 :	1111111000101101;
	64 :	1111111000110011;
	63 :	1111111011011010;
	62 :	1111111111110100;
	61 :	0000000000010001;
	60 :	0000000000000001;
	59 :	1111111111100111;
	58 :	1111111111101001;
	57 :	1111111111110011;
	56 :	1111111111110100;
	55 :	1111111111101000;
	54 :	1111111111011010;
	53 :	1111111111000111;
	52 :	1111111111111011;
	51 :	1111111110101110;
	50 :	1111111111010100;
	49 :	0000000000000011;
	48 :	1111111101100001;
	47 :	1111111101001111;
	46 :	1111111111011011;
	45 :	1111111011110101;
	44 :	1111111001010010;
	43 :	1111111101101100;
	42 :	1111111111110011;
	41 :	1111111110011010;
	40 :	1111111101100110;
	39 :	1111111110001110;
	38 :	1111111111110100;
	37 :	1111111110111011;
	36 :	1111111101111101;
	35 :	1111111110100000;
	34 :	1111111110111111;
	33 :	1111111111011110;
	32 :	0000000000000000;
	31 :	0000000000110101;
	30 :	1111111111001001;
	29 :	0000000000011011;
	28 :	1111111111101011;
	27 :	1111111111010111;
	26 :	1111111111111100;
	25 :	0000000000111011;
	24 :	1111111111111010;
	23 :	0000000000000101;
	22 :	1111111111101001;
	21 :	0000000000000110;
	20 :	0000000000000111;
	19 :	1111111111110000;
	18 :	1111111111110101;
	17 :	1111111111010011;
	16 :	0000000000100001;
	15 :	0000000000000101;
	14 :	1111111111100010;
	13 :	0000000000001011;
	12 :	1111111111101100;
	11 :	0000000000010010;
	10 :	0000000000010011;
	9 :	0000000000111111;
	8 :	1111111111111010;
	7 :	0000000001000001;
	6 :	0000000000000001;
	5 :	0000000000011100;
	4 :	1111111111101111;
	3 :	1111111111000010;
	2 :	0000000000000000;
	1 :	1111111111111100;
	0 :	1111111111010010;
END;
