-- begin_signature
-- weight_memory(num_weight
-- 784
-- data_width
-- 16
-- address_width
-- 10
-- weight_file
-- "C:/SystemVerilog_NPU/w_1_7.mif")
-- end_signature
WIDTH=16;
DEPTH=784;

ADDRESS_RADIX=UNS;
DATA_RADIX=BIN;

CONTENT BEGIN
	783 :	1111111111111101;
	782 :	1111111111101111;
	781 :	0000000000101111;
	780 :	0000000001001100;
	779 :	1111111111111111;
	778 :	1111111101100001;
	777 :	1111111110110011;
	776 :	0000000000000100;
	775 :	0000000000100010;
	774 :	0000000001011001;
	773 :	1111111111111110;
	772 :	0000000010001001;
	771 :	0000000100100001;
	770 :	1111111111001100;
	769 :	1111111111001001;
	768 :	0000000000111101;
	767 :	0000000000000011;
	766 :	0000000000010010;
	765 :	0000000000001011;
	764 :	1111111111110010;
	763 :	1111111111101110;
	762 :	1111111111100010;
	761 :	0000000000011001;
	760 :	1111111111011111;
	759 :	1111111111101001;
	758 :	0000000000000001;
	757 :	0000000000011100;
	756 :	0000000000010011;
	755 :	0000000000100100;
	754 :	1111111110111011;
	753 :	1111111111010011;
	752 :	0000000000000111;
	751 :	1111111111001001;
	750 :	1111111011111111;
	749 :	1111111010010010;
	748 :	1111111011110001;
	747 :	1111111010000110;
	746 :	1111111101100011;
	745 :	0000000010010110;
	744 :	1111110011000100;
	743 :	1111111101011111;
	742 :	1111111101111111;
	741 :	1111110111011101;
	740 :	1111111001010110;
	739 :	1111101111110011;
	738 :	1111110011111001;
	737 :	1111111010100001;
	736 :	1111111111110110;
	735 :	0000000001111100;
	734 :	0000000001111111;
	733 :	0000000001011010;
	732 :	0000000000011010;
	731 :	0000000000011010;
	730 :	0000000000001101;
	729 :	0000000000001101;
	728 :	0000000000010010;
	727 :	0000000000001000;
	726 :	0000000001001100;
	725 :	1111111111011100;
	724 :	1111111111111010;
	723 :	1111111101101111;
	722 :	1111111000100001;
	721 :	1111111010010011;
	720 :	1111111110000110;
	719 :	1111111101110011;
	718 :	0000000000000000;
	717 :	0000000011110111;
	716 :	1111111110011110;
	715 :	1111111010000111;
	714 :	1111110101111001;
	713 :	1111100000010111;
	712 :	1111100100101010;
	711 :	1111101001000111;
	710 :	1111110101010101;
	709 :	1111101001011001;
	708 :	1111110010110001;
	707 :	1111111010010101;
	706 :	0000000010001010;
	705 :	1111111111110001;
	704 :	1111111111001111;
	703 :	1111111110110001;
	702 :	0000000000000100;
	701 :	1111111111110100;
	700 :	1111111111000111;
	699 :	0000000000001000;
	698 :	1111111111011101;
	697 :	0000000010100001;
	696 :	0000000010100011;
	695 :	0000000011001001;
	694 :	1111111111100100;
	693 :	0000000101101100;
	692 :	0000010000100001;
	691 :	0000011011111001;
	690 :	0000000011110001;
	689 :	1111101100000010;
	688 :	1111111001000011;
	687 :	1111100000101110;
	686 :	1111110001101010;
	685 :	0000000100001101;
	684 :	1111111111101111;
	683 :	1111100101110101;
	682 :	1111100111110111;
	681 :	1111100010101100;
	680 :	1111100011111011;
	679 :	1111011111100011;
	678 :	1111111000101001;
	677 :	1111111100101011;
	676 :	1111111100011101;
	675 :	1111111101101111;
	674 :	0000000000000010;
	673 :	0000000000010011;
	672 :	0000000000010110;
	671 :	0000000000001110;
	670 :	0000000000010100;
	669 :	0000000001011110;
	668 :	0000000100010100;
	667 :	0000000101111000;
	666 :	0000001001100101;
	665 :	0000001100100110;
	664 :	0000001011100010;
	663 :	0000010010010001;
	662 :	0000010001111000;
	661 :	0000001011101010;
	660 :	0000001000100001;
	659 :	1111101110011111;
	658 :	1111110100001010;
	657 :	0000000011100100;
	656 :	1111111101110110;
	655 :	1111011010011100;
	654 :	1111011100010111;
	653 :	1111110010110001;
	652 :	1111111110001001;
	651 :	0000000010010101;
	650 :	1111110010001111;
	649 :	1111110010011101;
	648 :	1111110100000110;
	647 :	1111111101000100;
	646 :	1111111111110110;
	645 :	0000000000000001;
	644 :	0000000000010111;
	643 :	1111111111111011;
	642 :	0000000000001100;
	641 :	0000000001101001;
	640 :	0000000011011101;
	639 :	0000000011000110;
	638 :	1111111101100001;
	637 :	1111111111010011;
	636 :	1111111100101010;
	635 :	1111111100001001;
	634 :	1111111001111111;
	633 :	1111101011011111;
	632 :	1111110000010011;
	631 :	1111101100111111;
	630 :	1111111111100000;
	629 :	1111110100010111;
	628 :	1111011110100111;
	627 :	1111111001101100;
	626 :	1111111001001101;
	625 :	1111111101101111;
	624 :	1111111001000101;
	623 :	1111111110111001;
	622 :	1111110011000110;
	621 :	1111110100000101;
	620 :	1111110111111000;
	619 :	1111111010111111;
	618 :	1111111111110111;
	617 :	1111111111101011;
	616 :	1111111111110010;
	615 :	1111111111111001;
	614 :	0000000000011010;
	613 :	0000000001100010;
	612 :	0000000010000011;
	611 :	0000000010111111;
	610 :	1111110001110100;
	609 :	1111110100001101;
	608 :	1111100111010110;
	607 :	1111111011110011;
	606 :	1111110001110101;
	605 :	0000000010010001;
	604 :	0000000010011000;
	603 :	1111101000111110;
	602 :	1111101110110000;
	601 :	1111101100101000;
	600 :	1111100011111011;
	599 :	1111100000001011;
	598 :	1111101110101101;
	597 :	1111110101000101;
	596 :	1111101110010000;
	595 :	1111111001111110;
	594 :	0000000000001110;
	593 :	1111111010110011;
	592 :	1111110011101001;
	591 :	1111111001111010;
	590 :	0000000000001011;
	589 :	0000000000111110;
	588 :	1111111111001110;
	587 :	0000000000000110;
	586 :	1111111111111111;
	585 :	1111111111100011;
	584 :	1111111110110011;
	583 :	1111111111010101;
	582 :	1111101011111010;
	581 :	0000000000001001;
	580 :	0000001110101101;
	579 :	0000001010110111;
	578 :	1111111010110101;
	577 :	1111100001101101;
	576 :	1111011111011110;
	575 :	1111100110011010;
	574 :	1111011110010011;
	573 :	1111011110111101;
	572 :	1111110010100100;
	571 :	1111101110110010;
	570 :	1111101101101011;
	569 :	1111110111110111;
	568 :	1111111110110110;
	567 :	0000000010101010;
	566 :	0000010000011111;
	565 :	0000000000110001;
	564 :	1111111111101010;
	563 :	1111111001111010;
	562 :	0000000000000101;
	561 :	1111111111001100;
	560 :	1111111111101111;
	559 :	0000000000011010;
	558 :	0000000000011001;
	557 :	1111111101011110;
	556 :	0000000010000011;
	555 :	1111111111010110;
	554 :	1111111100001111;
	553 :	0000000000100000;
	552 :	1111111000010101;
	551 :	1111110011111110;
	550 :	1111100110110000;
	549 :	1111101101011001;
	548 :	1111100001100011;
	547 :	1111100011000011;
	546 :	1111100101100001;
	545 :	0000010100011111;
	544 :	0000001010101010;
	543 :	0000010001101010;
	542 :	0000011010000110;
	541 :	0000011110011111;
	540 :	0000001010101010;
	539 :	0000000111111111;
	538 :	0000010011000111;
	537 :	0000000110011000;
	536 :	1111111100100001;
	535 :	1111111101000110;
	534 :	1111111111000001;
	533 :	1111111111110111;
	532 :	1111111111111111;
	531 :	1111111110111010;
	530 :	0000000000101101;
	529 :	0000000000000111;
	528 :	0000001100011000;
	527 :	1111111100110111;
	526 :	1111110001111000;
	525 :	1111100111111001;
	524 :	1111101010100011;
	523 :	1111011100111001;
	522 :	1111011010000011;
	521 :	1111100111000101;
	520 :	1111100011100011;
	519 :	1111111101011011;
	518 :	1111111101101001;
	517 :	0000111010101100;
	516 :	0001001010010110;
	515 :	0000111001101100;
	514 :	0000101000100011;
	513 :	0000100101011110;
	512 :	0000001000101001;
	511 :	0000001000010011;
	510 :	0000010011001010;
	509 :	0000000100100000;
	508 :	1111110101100011;
	507 :	1111111011110111;
	506 :	1111111101101100;
	505 :	0000000000000010;
	504 :	1111111111100011;
	503 :	1111111111101101;
	502 :	0000000000111111;
	501 :	0000000001101110;
	500 :	0000001101000111;
	499 :	1111111000100111;
	498 :	1111110100101101;
	497 :	1111100101110110;
	496 :	1111100111100100;
	495 :	1111011100010000;
	494 :	1111011100111100;
	493 :	1111110011111111;
	492 :	0000010001010011;
	491 :	0000010100011000;
	490 :	0000001110011001;
	489 :	0000101011000010;
	488 :	0000011001011111;
	487 :	0000011011001000;
	486 :	0000100010110001;
	485 :	0000100010000011;
	484 :	0000010010100101;
	483 :	0000000011010001;
	482 :	0000010010100001;
	481 :	1111111110000001;
	480 :	1111111000000101;
	479 :	1111111010101001;
	478 :	1111111110010101;
	477 :	0000000000001111;
	476 :	1111111111110000;
	475 :	0000000000001110;
	474 :	0000000000111001;
	473 :	0000000111100001;
	472 :	1111111011001111;
	471 :	1111111010111110;
	470 :	1111101001111110;
	469 :	1111011010001001;
	468 :	1111100100011001;
	467 :	1111101111100000;
	466 :	1111110000100001;
	465 :	0000000011011000;
	464 :	0000010110100111;
	463 :	0000010111101101;
	462 :	0000011010111111;
	461 :	0000000001011001;
	460 :	1111111010100010;
	459 :	0000000010000010;
	458 :	1111110101000111;
	457 :	0000011011011001;
	456 :	0000100001001111;
	455 :	0000011101111011;
	454 :	0000001001010110;
	453 :	1111111110101011;
	452 :	1111111101000110;
	451 :	1111111111101000;
	450 :	1111111110000010;
	449 :	1111111111011101;
	448 :	0000000000000111;
	447 :	1111111111111101;
	446 :	1111111111011101;
	445 :	0000000111000111;
	444 :	1111110110000010;
	443 :	1111101110011111;
	442 :	1111111001110010;
	441 :	1111101011011000;
	440 :	1111101101010011;
	439 :	1111110111001000;
	438 :	0000001101001000;
	437 :	0000100010000000;
	436 :	0000010111101010;
	435 :	0000010001001110;
	434 :	0000001110010110;
	433 :	0000010010101110;
	432 :	0000001000111100;
	431 :	0000001010010001;
	430 :	0000000101101000;
	429 :	1111110110111101;
	428 :	0000010110111001;
	427 :	1111111011101101;
	426 :	1111110100100011;
	425 :	1111111011111000;
	424 :	1111111101111111;
	423 :	1111111111110011;
	422 :	1111111111011101;
	421 :	1111111110011100;
	420 :	1111111111110111;
	419 :	0000000000101001;
	418 :	0000000000100101;
	417 :	0000000101101010;
	416 :	1111110101101011;
	415 :	1111101000110110;
	414 :	1111110010111010;
	413 :	1111110010011110;
	412 :	1111111101101010;
	411 :	0000001000001001;
	410 :	1111111001101101;
	409 :	0000001010111100;
	408 :	0000010010001001;
	407 :	0000000000110101;
	406 :	1111110111110000;
	405 :	0000011100011110;
	404 :	0000010100110000;
	403 :	0000010011000011;
	402 :	0000000010100111;
	401 :	1111101110001010;
	400 :	1111111010100000;
	399 :	1111110110000110;
	398 :	1111110010000010;
	397 :	0000000000001111;
	396 :	0000000010010101;
	395 :	1111111110101110;
	394 :	1111111110111000;
	393 :	1111111111011101;
	392 :	0000000001110000;
	391 :	1111111111111100;
	390 :	1111111111101001;
	389 :	0000000011101001;
	388 :	1111111010100001;
	387 :	0000000001001111;
	386 :	0000000110110100;
	385 :	1111111001011101;
	384 :	1111110111101011;
	383 :	0000000100110111;
	382 :	0000010010001011;
	381 :	0000001011100001;
	380 :	0000000011010101;
	379 :	0000100101101100;
	378 :	0000001110101101;
	377 :	0000011101101010;
	376 :	0000010010101000;
	375 :	0000000010110011;
	374 :	1111101000001111;
	373 :	1111111010110100;
	372 :	0000001110000110;
	371 :	0000001001000110;
	370 :	1111110001001000;
	369 :	1111111010001111;
	368 :	1111111110101001;
	367 :	0000000011100000;
	366 :	1111111110111001;
	365 :	0000000000110011;
	364 :	1111111111111001;
	363 :	1111111111110100;
	362 :	1111111111111111;
	361 :	0000000010010110;
	360 :	0000001010011110;
	359 :	0000001001111110;
	358 :	1111111100001000;
	357 :	0000001100101101;
	356 :	0000000111000111;
	355 :	0000000111110100;
	354 :	1111110101111010;
	353 :	0000011001110011;
	352 :	0000010011010111;
	351 :	0000100100111001;
	350 :	0000011101111101;
	349 :	0000000110011010;
	348 :	1111111100100110;
	347 :	1111110000110110;
	346 :	1111100010101100;
	345 :	1111111110111011;
	344 :	1111111100011001;
	343 :	0000000010001011;
	342 :	1111110100111001;
	341 :	1111111111110001;
	340 :	1111111110001011;
	339 :	0000000011110010;
	338 :	1111111110100011;
	337 :	0000000000000000;
	336 :	1111111111110001;
	335 :	0000000000110010;
	334 :	1111111101000001;
	333 :	1111110100010101;
	332 :	0000000010110100;
	331 :	0000001011001111;
	330 :	0000001110110110;
	329 :	0000010010011101;
	328 :	0000010001001110;
	327 :	0000000001100011;
	326 :	1111100111101001;
	325 :	1111110000100011;
	324 :	0000001011110001;
	323 :	0000010001111010;
	322 :	0000011001010001;
	321 :	1111111001000000;
	320 :	1111111000010011;
	319 :	0000001010001011;
	318 :	0000011011101001;
	317 :	0000011000101111;
	316 :	0000001111000111;
	315 :	0000001001010011;
	314 :	1111110110110101;
	313 :	1111111010101000;
	312 :	1111111111010111;
	311 :	0000000001011111;
	310 :	1111111100111111;
	309 :	1111111111000000;
	308 :	1111111111101000;
	307 :	0000000000001000;
	306 :	1111111101110100;
	305 :	1111110001111001;
	304 :	1111110010110001;
	303 :	0000001011011010;
	302 :	0000000010001110;
	301 :	0000000100101000;
	300 :	0000001011010111;
	299 :	0000011011011100;
	298 :	1111111110110101;
	297 :	0000001111011111;
	296 :	0000011000110010;
	295 :	0000010011000110;
	294 :	0000010000010001;
	293 :	1111101101001111;
	292 :	1111111011001001;
	291 :	1111111111000100;
	290 :	0000010100011010;
	289 :	0000000010001011;
	288 :	1111111110110111;
	287 :	0000000110101000;
	286 :	0000000000110000;
	285 :	0000000010000000;
	284 :	1111111100111110;
	283 :	1111111101110000;
	282 :	0000000000011101;
	281 :	1111111111010010;
	280 :	0000000000001010;
	279 :	1111111111110110;
	278 :	1111111111011101;
	277 :	1111110010111001;
	276 :	1111101100101001;
	275 :	1111111111100111;
	274 :	0000000000100011;
	273 :	0000010010000011;
	272 :	0000001011010101;
	271 :	1111111110000011;
	270 :	1111111101010011;
	269 :	0000000011010110;
	268 :	1111101011010000;
	267 :	1111110010010011;
	266 :	1111111000011111;
	265 :	1111101000100011;
	264 :	1111110000110100;
	263 :	0000010010101000;
	262 :	0000011001000010;
	261 :	0000000001100000;
	260 :	1111111111001010;
	259 :	0000000111110011;
	258 :	1111111100111100;
	257 :	0000000000000001;
	256 :	1111110111100011;
	255 :	0000000000101110;
	254 :	0000000001100101;
	253 :	1111111110101101;
	252 :	1111111111111111;
	251 :	1111111111100111;
	250 :	1111111011100000;
	249 :	1111110010100011;
	248 :	1111100010101101;
	247 :	1111110110101100;
	246 :	0000000110110011;
	245 :	0000000110010111;
	244 :	1111111011010110;
	243 :	0000001110101101;
	242 :	0000000111011010;
	241 :	1111111010111011;
	240 :	0000000001101000;
	239 :	1111111000010001;
	238 :	1111111111010000;
	237 :	1111111011100101;
	236 :	1111111101100101;
	235 :	0000000111001111;
	234 :	0000000100010001;
	233 :	0000000001111111;
	232 :	1111111110110011;
	231 :	0000000111000000;
	230 :	1111111100110010;
	229 :	1111111100000101;
	228 :	0000000010011110;
	227 :	1111111101001110;
	226 :	1111111111111110;
	225 :	1111111111000100;
	224 :	1111111110101100;
	223 :	1111111111010000;
	222 :	1111111010001100;
	221 :	1111101110001010;
	220 :	1111011011110000;
	219 :	0000000010010111;
	218 :	0000001011100110;
	217 :	0000000010100110;
	216 :	1111101011000110;
	215 :	0000001010001101;
	214 :	0000010001111001;
	213 :	0000000001100000;
	212 :	0000000101101111;
	211 :	0000011100101101;
	210 :	1111101111010100;
	209 :	1111111110110001;
	208 :	1111110100101000;
	207 :	1111110011011001;
	206 :	1111111110101111;
	205 :	0000000110111110;
	204 :	1111111111011111;
	203 :	1111110001011111;
	202 :	1111110011100010;
	201 :	1111111101000100;
	200 :	0000000010101011;
	199 :	1111111011110011;
	198 :	1111111111011100;
	197 :	0000000000001000;
	196 :	1111111111100011;
	195 :	1111111111100001;
	194 :	1111111100110010;
	193 :	1111101101101110;
	192 :	1111100111110000;
	191 :	0000000101010010;
	190 :	0000010110010010;
	189 :	0000010001110011;
	188 :	0000001010011000;
	187 :	0000010110101000;
	186 :	0000001110010100;
	185 :	0000010001101011;
	184 :	1111110110011000;
	183 :	1111110011001110;
	182 :	0000000001100011;
	181 :	0000001100000101;
	180 :	0000000001110101;
	179 :	1111111100010011;
	178 :	0000000101001000;
	177 :	1111111011100100;
	176 :	0000000000000000;
	175 :	0000000001000110;
	174 :	1111111101010001;
	173 :	1111110100010011;
	172 :	1111111111110001;
	171 :	1111111110110011;
	170 :	1111111111001011;
	169 :	1111111111010010;
	168 :	1111111111011111;
	167 :	0000000000110101;
	166 :	1111111111111100;
	165 :	1111111100101001;
	164 :	1111111011110110;
	163 :	1111111111010100;
	162 :	0000001000010000;
	161 :	0000001101011000;
	160 :	1111110001111011;
	159 :	1111111111110100;
	158 :	1111111111100110;
	157 :	0000001001111001;
	156 :	1111111000101001;
	155 :	0000000110101010;
	154 :	0000001100010001;
	153 :	1111110101101100;
	152 :	0000010000010001;
	151 :	0000001110101000;
	150 :	1111111001111100;
	149 :	1111111011011101;
	148 :	1111111001001011;
	147 :	1111111010110111;
	146 :	1111111000000110;
	145 :	1111111000000110;
	144 :	0000000000001011;
	143 :	1111111111011000;
	142 :	0000000000010011;
	141 :	1111111111100011;
	140 :	1111111111110101;
	139 :	0000000000111010;
	138 :	1111111110011111;
	137 :	1111111101010000;
	136 :	0000000101101010;
	135 :	0000000000011001;
	134 :	0000001000000111;
	133 :	0000000101001100;
	132 :	0000000101011000;
	131 :	0000000000011101;
	130 :	1111111000100101;
	129 :	0000011011000100;
	128 :	0000001010110010;
	127 :	1111111010101100;
	126 :	0000000110101001;
	125 :	1111110101010110;
	124 :	1111110110011001;
	123 :	1111110101110011;
	122 :	1111111000001110;
	121 :	1111111000011110;
	120 :	1111110100101001;
	119 :	1111110111100101;
	118 :	1111111100101011;
	117 :	1111111110000100;
	116 :	1111111111111001;
	115 :	0000000000111100;
	114 :	0000000000010100;
	113 :	0000000000101011;
	112 :	1111111111000101;
	111 :	1111111111100101;
	110 :	1111111111111000;
	109 :	1111111111001001;
	108 :	1111111111100111;
	107 :	0000000000000100;
	106 :	0000000010101001;
	105 :	0000000011100000;
	104 :	1111111010011110;
	103 :	1111110110100101;
	102 :	1111111001000010;
	101 :	1111111000010011;
	100 :	1111110000101101;
	99 :	1111101100110110;
	98 :	1111101110110011;
	97 :	1111100101001101;
	96 :	1111101000111100;
	95 :	1111111111010110;
	94 :	0000000000110111;
	93 :	0000000001100010;
	92 :	1111111111111111;
	91 :	1111111111011111;
	90 :	1111111111101111;
	89 :	0000000000110000;
	88 :	1111111111101000;
	87 :	1111111111110001;
	86 :	1111111111111110;
	85 :	1111111111010001;
	84 :	1111111111011110;
	83 :	0000000000000010;
	82 :	1111111111110111;
	81 :	0000000000111011;
	80 :	0000000000010000;
	79 :	0000000000011100;
	78 :	1111111111101011;
	77 :	0000000000100001;
	76 :	0000000000001111;
	75 :	1111111111010100;
	74 :	1111111111111100;
	73 :	0000000001101000;
	72 :	1111111100111001;
	71 :	0000000000111010;
	70 :	0000000011000011;
	69 :	0000000000110011;
	68 :	0000000010110011;
	67 :	0000000011000001;
	66 :	0000000001110010;
	65 :	0000000001101001;
	64 :	0000000010001000;
	63 :	0000000001010001;
	62 :	0000000000010010;
	61 :	0000000000110100;
	60 :	1111111111100001;
	59 :	0000000000000010;
	58 :	0000000000000011;
	57 :	0000000001001110;
	56 :	0000000000000000;
	55 :	1111111111111101;
	54 :	0000000000001111;
	53 :	1111111111100011;
	52 :	0000000000000110;
	51 :	1111111111110101;
	50 :	1111111111110010;
	49 :	1111111111011101;
	48 :	0000000000111001;
	47 :	1111111111011101;
	46 :	0000000000101000;
	45 :	0000000001101110;
	44 :	0000000010010111;
	43 :	0000000011010010;
	42 :	0000000001101100;
	41 :	0000000000101110;
	40 :	0000000000110100;
	39 :	1111111111000000;
	38 :	0000000000111100;
	37 :	0000000000010000;
	36 :	0000000000000111;
	35 :	0000000000000001;
	34 :	0000000000000111;
	33 :	0000000000010101;
	32 :	1111111111010011;
	31 :	1111111111101010;
	30 :	0000000000001000;
	29 :	0000000000100101;
	28 :	1111111111101101;
	27 :	0000000000010010;
	26 :	0000000000001111;
	25 :	1111111111101111;
	24 :	1111111111101000;
	23 :	0000000000010111;
	22 :	0000000000101101;
	21 :	0000000000000000;
	20 :	0000000000001010;
	19 :	0000000000000101;
	18 :	0000000001000010;
	17 :	1111111111011110;
	16 :	1111111111100100;
	15 :	0000000000111101;
	14 :	1111111111110011;
	13 :	1111111111111000;
	12 :	1111111111010101;
	11 :	0000000000000101;
	10 :	0000000001000100;
	9 :	1111111111111111;
	8 :	1111111111100111;
	7 :	1111111111111110;
	6 :	0000000000010101;
	5 :	1111111110101110;
	4 :	0000000000010111;
	3 :	0000000000010101;
	2 :	0000000000101111;
	1 :	1111111111111101;
	0 :	1111111111101001;
END;
