-- begin_signature
-- weight_memory(num_weight
-- 784
-- data_width
-- 16
-- address_width
-- 10
-- weight_file
-- "C:/SystemVerilog_NPU/w_1_27.mif")
-- end_signature
WIDTH=16;
DEPTH=784;

ADDRESS_RADIX=UNS;
DATA_RADIX=BIN;

CONTENT BEGIN
	783 :	1111111111100010;
	782 :	0000000000000011;
	781 :	1111111111110111;
	780 :	1111111111100110;
	779 :	0000000000000110;
	778 :	0000000000001101;
	777 :	1111111111111000;
	776 :	1111111111000001;
	775 :	1111111111110101;
	774 :	1111111110001000;
	773 :	1111111110110010;
	772 :	1111111111010001;
	771 :	0000000001100110;
	770 :	0000000001100101;
	769 :	0000000000010100;
	768 :	1111111111100011;
	767 :	1111111111000001;
	766 :	0000000000001000;
	765 :	1111111111101010;
	764 :	0000000001110011;
	763 :	0000000010010111;
	762 :	0000000000011110;
	761 :	0000000000010011;
	760 :	0000000000101010;
	759 :	0000000000000100;
	758 :	0000000000010100;
	757 :	0000000000000110;
	756 :	1111111111110011;
	755 :	0000000000000000;
	754 :	0000000001001010;
	753 :	0000000000001001;
	752 :	1111111111110011;
	751 :	1111111111110010;
	750 :	1111111110110010;
	749 :	1111111111010110;
	748 :	0000000100011100;
	747 :	0000000110100101;
	746 :	0000000101101101;
	745 :	0000000010110100;
	744 :	0000001000010001;
	743 :	0000000010000111;
	742 :	0000000110101000;
	741 :	0000000100101110;
	740 :	1111111101010100;
	739 :	0000000000110000;
	738 :	1111111010010001;
	737 :	1111110111000011;
	736 :	1111111001111011;
	735 :	1111111101011100;
	734 :	0000000000000010;
	733 :	0000000001001101;
	732 :	0000000000110010;
	731 :	1111111111110110;
	730 :	0000000000010100;
	729 :	1111111111110001;
	728 :	0000000001001100;
	727 :	1111111111101111;
	726 :	1111111111100111;
	725 :	0000000000101011;
	724 :	0000000011110000;
	723 :	0000000110011011;
	722 :	0000000101000000;
	721 :	0000000010101011;
	720 :	0000000111011000;
	719 :	0000001101011111;
	718 :	0000000101011000;
	717 :	0000000010101011;
	716 :	0000000111011011;
	715 :	0000000011001011;
	714 :	0000000100100101;
	713 :	0000010011101100;
	712 :	1111111110100100;
	711 :	1111111110101110;
	710 :	0000000010110000;
	709 :	1111111111011100;
	708 :	0000000000010100;
	707 :	0000000011110011;
	706 :	0000000100111000;
	705 :	0000000100101011;
	704 :	0000000000001011;
	703 :	0000000000011111;
	702 :	0000000000001010;
	701 :	0000000000001001;
	700 :	1111111111110111;
	699 :	1111111111111011;
	698 :	0000000000001110;
	697 :	0000000000011100;
	696 :	0000000100001010;
	695 :	0000000101101011;
	694 :	0000000110011111;
	693 :	0000000110101100;
	692 :	0000000110110010;
	691 :	0000000111000101;
	690 :	1111111110101110;
	689 :	1111111001110010;
	688 :	1111101000010101;
	687 :	1111100001111111;
	686 :	1111111010011101;
	685 :	0000000000010100;
	684 :	1111111101011001;
	683 :	0000000011010111;
	682 :	0000001000110000;
	681 :	0000001000100011;
	680 :	0000001101000000;
	679 :	0000001100101110;
	678 :	0000000110100000;
	677 :	1111111111000101;
	676 :	0000000000101100;
	675 :	0000000001011101;
	674 :	1111111111100010;
	673 :	1111111111100100;
	672 :	0000000000000001;
	671 :	1111111111100011;
	670 :	0000000000001000;
	669 :	0000000011111001;
	668 :	0000001001011100;
	667 :	0000001000010110;
	666 :	0000000100100110;
	665 :	1111111101010110;
	664 :	1111111011101110;
	663 :	0000001000011111;
	662 :	0000000011001010;
	661 :	1111110001110011;
	660 :	1111110001100100;
	659 :	1111101001000000;
	658 :	1111110101010010;
	657 :	0000000001100110;
	656 :	1111111110000110;
	655 :	0000000110010011;
	654 :	0000001100100001;
	653 :	0000010011100011;
	652 :	0000001100001011;
	651 :	0000000010010101;
	650 :	1111110100001100;
	649 :	1111110110100101;
	648 :	0000000010100010;
	647 :	0000000001001010;
	646 :	1111111111101000;
	645 :	1111111111101110;
	644 :	0000000000011000;
	643 :	1111111111001110;
	642 :	1111111111100110;
	641 :	0000000101000000;
	640 :	0000001001101000;
	639 :	0000000110110001;
	638 :	0000000000110011;
	637 :	1111111111110000;
	636 :	0000000001011101;
	635 :	1111111111101011;
	634 :	1111111101011110;
	633 :	1111101100011111;
	632 :	1111111101000111;
	631 :	1111101010101000;
	630 :	1111101110110011;
	629 :	1111101010110111;
	628 :	1111100011010110;
	627 :	0000001000010111;
	626 :	0000001000011010;
	625 :	0000000101001111;
	624 :	0000001100001010;
	623 :	0000010001101001;
	622 :	1111111010110101;
	621 :	1111110001011100;
	620 :	1111111100111010;
	619 :	1111111111111110;
	618 :	1111111111111111;
	617 :	0000000000010000;
	616 :	0000000000000101;
	615 :	0000000000011001;
	614 :	0000000000000111;
	613 :	0000000101100100;
	612 :	0000001010101001;
	611 :	0000001001000001;
	610 :	1111111110101101;
	609 :	0000000110110010;
	608 :	1111111011101011;
	607 :	1111111110001010;
	606 :	1111110111001110;
	605 :	0000001100101000;
	604 :	0000001000011001;
	603 :	1111101111100001;
	602 :	1111010111000101;
	601 :	1111100101010001;
	600 :	1111101010010101;
	599 :	0000011011100000;
	598 :	0000001110110101;
	597 :	0000000100101110;
	596 :	0000000001001110;
	595 :	0000000110010010;
	594 :	0000001000011000;
	593 :	1111111011100010;
	592 :	1111111100110000;
	591 :	1111111101110001;
	590 :	0000000000101111;
	589 :	1111111111100101;
	588 :	0000000000000110;
	587 :	1111111111111101;
	586 :	0000000000011110;
	585 :	0000001000010101;
	584 :	0000001001110100;
	583 :	0000010001111000;
	582 :	0000001111110100;
	581 :	1111111111100001;
	580 :	1111111000000000;
	579 :	1111110110101001;
	578 :	1111111111001110;
	577 :	0000000000111001;
	576 :	1111111101010001;
	575 :	1111110101011011;
	574 :	1111101010001001;
	573 :	1111110011011011;
	572 :	1111110100000101;
	571 :	0000000001100110;
	570 :	1111101001010011;
	569 :	1111111111101100;
	568 :	1111111011111100;
	567 :	1111110100101011;
	566 :	0000001011111011;
	565 :	1111111100100010;
	564 :	1111111001000100;
	563 :	0000000010110000;
	562 :	0000000000010010;
	561 :	1111111111011110;
	560 :	1111111111100011;
	559 :	1111111111101110;
	558 :	0000000000101011;
	557 :	0000001000110101;
	556 :	0000001000000100;
	555 :	0000000010111001;
	554 :	1111111101100000;
	553 :	1111101110110110;
	552 :	1111101110111010;
	551 :	1111111110010101;
	550 :	0000000101001111;
	549 :	1111111110110011;
	548 :	0000000010111010;
	547 :	1111111110001010;
	546 :	1111111011001100;
	545 :	0000001011011000;
	544 :	0000000000110100;
	543 :	1111110110110001;
	542 :	1111101111000111;
	541 :	1111111010101001;
	540 :	0000000110111110;
	539 :	0000001100001000;
	538 :	0000000011000110;
	537 :	1111111011001000;
	536 :	1111110111001011;
	535 :	0000000101000100;
	534 :	0000000000011010;
	533 :	0000000000010000;
	532 :	0000000000100110;
	531 :	1111111111010100;
	530 :	0000000000011101;
	529 :	0000000110110100;
	528 :	0000000001000101;
	527 :	1111111000010100;
	526 :	1111110001111100;
	525 :	1111110100001001;
	524 :	1111111100001000;
	523 :	1111110011000010;
	522 :	1111110101110110;
	521 :	1111011111011010;
	520 :	1111101110101100;
	519 :	1111110111101100;
	518 :	0000011011110111;
	517 :	0000000110001110;
	516 :	1111110111111100;
	515 :	0000001010111100;
	514 :	0000000111000111;
	513 :	1111111001111101;
	512 :	0000001000000110;
	511 :	0000001100110101;
	510 :	0000000111111100;
	509 :	0000000000010101;
	508 :	1111111011110101;
	507 :	0000001001101110;
	506 :	0000000000001101;
	505 :	0000000000000110;
	504 :	1111111111111000;
	503 :	1111111110101110;
	502 :	0000000000011101;
	501 :	0000000011000001;
	500 :	1111111010111100;
	499 :	1111110001010111;
	498 :	1111101110110010;
	497 :	0000001100110011;
	496 :	1111110001101011;
	495 :	1111100110101100;
	494 :	1111100001110110;
	493 :	1111101010100111;
	492 :	1111111010111101;
	491 :	0000011001001010;
	490 :	0000100000010100;
	489 :	0000001001000010;
	488 :	1111110010001110;
	487 :	1111110101100001;
	486 :	1111110001111000;
	485 :	1111101110011100;
	484 :	1111101110001111;
	483 :	1111110111001101;
	482 :	0000000101001001;
	481 :	1111111110000011;
	480 :	1111111011110111;
	479 :	0000001001110101;
	478 :	1111111101111000;
	477 :	1111111111101100;
	476 :	1111111111110111;
	475 :	0000000000011100;
	474 :	0000000011100011;
	473 :	0000000000010100;
	472 :	1111110101101000;
	471 :	1111110111000110;
	470 :	1111110101110010;
	469 :	1111111011100010;
	468 :	1111011011001000;
	467 :	1111100001001110;
	466 :	1111110010000110;
	465 :	1111110010000100;
	464 :	0000001010001001;
	463 :	0000101010100001;
	462 :	0000101000001010;
	461 :	1111101111101001;
	460 :	1111100101000111;
	459 :	1111101110000100;
	458 :	1111111010110111;
	457 :	1111101000100111;
	456 :	1111101110000010;
	455 :	1111011111001110;
	454 :	1111101111101100;
	453 :	1111110001100111;
	452 :	0000000011010000;
	451 :	0000000100110000;
	450 :	1111111110100101;
	449 :	1111111111011110;
	448 :	1111111111100111;
	447 :	1111111111011111;
	446 :	0000000111111101;
	445 :	0000000001110001;
	444 :	1111111101000100;
	443 :	1111110110001001;
	442 :	1111011101011110;
	441 :	1111101010010100;
	440 :	1111101001010000;
	439 :	1111111101010110;
	438 :	0000001010000101;
	437 :	1111111000111001;
	436 :	0000001001010101;
	435 :	0000101111010111;
	434 :	0000111010000011;
	433 :	0000000001100000;
	432 :	1111100111001101;
	431 :	0000000011011001;
	430 :	1111110111011011;
	429 :	1111111001001100;
	428 :	1111101101000010;
	427 :	1111011011101111;
	426 :	1111101101000100;
	425 :	1111111100000001;
	424 :	0000000010100010;
	423 :	0000000000111001;
	422 :	1111111110010001;
	421 :	0000000000001011;
	420 :	1111111111111000;
	419 :	0000000000000101;
	418 :	0000000100110100;
	417 :	1111111010101001;
	416 :	1111111101111100;
	415 :	1111111100101111;
	414 :	1111101110001111;
	413 :	1111111011000100;
	412 :	0000000011110101;
	411 :	0000000100111011;
	410 :	0000001101001001;
	409 :	0000001010001010;
	408 :	0000011111011001;
	407 :	0000101101000010;
	406 :	0000011010010110;
	405 :	0000000011101001;
	404 :	1111101101110000;
	403 :	0000001001001001;
	402 :	0000000010111000;
	401 :	1111111011101111;
	400 :	1111110011110110;
	399 :	1111101111000110;
	398 :	1111110001000111;
	397 :	1111101011100001;
	396 :	0000000001011001;
	395 :	0000000001101110;
	394 :	1111111110101100;
	393 :	1111111111110110;
	392 :	0000000000000001;
	391 :	0000000000101101;
	390 :	0000000001000110;
	389 :	1111111001001011;
	388 :	1111110101100010;
	387 :	1111111110011101;
	386 :	1111111100101001;
	385 :	0000000111100111;
	384 :	0000011101011011;
	383 :	0000010011001001;
	382 :	0000000000011100;
	381 :	0000000010110101;
	380 :	0000011011110000;
	379 :	0000110001010010;
	378 :	0000000001001010;
	377 :	0000000100111110;
	376 :	0000001001010000;
	375 :	0000011001010101;
	374 :	1111111111001000;
	373 :	0000000011010000;
	372 :	0000000110100101;
	371 :	1111110110010010;
	370 :	1111110010100101;
	369 :	1111111001001001;
	368 :	1111110110111100;
	367 :	0000000010000100;
	366 :	1111111111011111;
	365 :	1111111111100100;
	364 :	0000000000011010;
	363 :	0000000000000010;
	362 :	0000000011101001;
	361 :	0000000000101010;
	360 :	1111110101101011;
	359 :	1111111010011001;
	358 :	1111111110100100;
	357 :	1111111011010101;
	356 :	0000000110000110;
	355 :	0000011101001111;
	354 :	0000000000000010;
	353 :	0000001110001011;
	352 :	0000000100011101;
	351 :	0000100001011011;
	350 :	0000000111111000;
	349 :	1111111110100110;
	348 :	1111111001111001;
	347 :	0000001110111000;
	346 :	0000001110110010;
	345 :	0000000100000100;
	344 :	0000000110100100;
	343 :	0000000110010100;
	342 :	1111110011110110;
	341 :	1111110111011011;
	340 :	0000000100000010;
	339 :	1111111100100000;
	338 :	1111111110100010;
	337 :	1111111111110000;
	336 :	0000000000000100;
	335 :	1111111111101000;
	334 :	0000000111010011;
	333 :	0000000111010110;
	332 :	0000001010101010;
	331 :	0000001010010101;
	330 :	0000000111110101;
	329 :	1111110100011100;
	328 :	1111111011011000;
	327 :	0000001010011111;
	326 :	0000000001010011;
	325 :	1111111010111111;
	324 :	0000000100011101;
	323 :	0000010110011011;
	322 :	0000001111100010;
	321 :	1111101101111101;
	320 :	0000010101011000;
	319 :	0000011101011011;
	318 :	0000000000010101;
	317 :	0000001000010111;
	316 :	0000001011001011;
	315 :	1111111010101011;
	314 :	0000000001101111;
	313 :	0000001001110100;
	312 :	0000001011100001;
	311 :	1111111010111101;
	310 :	0000000000111010;
	309 :	1111111111110000;
	308 :	1111111111101100;
	307 :	0000000000001010;
	306 :	0000000101100110;
	305 :	0000000101000101;
	304 :	0000010000000110;
	303 :	0000001110011001;
	302 :	0000001000000101;
	301 :	1111110010000000;
	300 :	1111111011001010;
	299 :	1111111110010111;
	298 :	1111111001011101;
	297 :	1111101010111100;
	296 :	1111110100001001;
	295 :	0000010010101000;
	294 :	0000000011100010;
	293 :	1111111010100111;
	292 :	0000000100100100;
	291 :	0000010001101000;
	290 :	0000011100110010;
	289 :	0000011001010111;
	288 :	0000001011100001;
	287 :	0000001010100111;
	286 :	0000001011110000;
	285 :	0000000000100010;
	284 :	0000000010001000;
	283 :	1111111010010110;
	282 :	1111111100110011;
	281 :	0000000000000101;
	280 :	0000000000011000;
	279 :	0000000000111001;
	278 :	0000000110110010;
	277 :	0000010001010100;
	276 :	0000001001000000;
	275 :	1111111000000111;
	274 :	0000000100101111;
	273 :	1111111001000110;
	272 :	0000000001101001;
	271 :	1111111110010111;
	270 :	1111111100110100;
	269 :	1111111110001100;
	268 :	1111111101100001;
	267 :	0000010001110011;
	266 :	1111111010100100;
	265 :	1111100110110111;
	264 :	0000000110100000;
	263 :	0000100010001001;
	262 :	0000010100111111;
	261 :	0000000111101100;
	260 :	0000010000010011;
	259 :	0000000111010101;
	258 :	0000000011011001;
	257 :	1111111100100000;
	256 :	1111111100100011;
	255 :	1111111101111011;
	254 :	1111111101101110;
	253 :	0000000000001101;
	252 :	0000000000001011;
	251 :	0000000001000001;
	250 :	0000001000110110;
	249 :	0000010011000111;
	248 :	0000000111000110;
	247 :	0000000011101000;
	246 :	0000000101100101;
	245 :	0000000010000000;
	244 :	0000010011101100;
	243 :	0000011011010110;
	242 :	1111111100000101;
	241 :	1111110111000101;
	240 :	1111110100111110;
	239 :	1111111010001010;
	238 :	1111101011110100;
	237 :	1111110110011110;
	236 :	0000000111100101;
	235 :	0000010101101011;
	234 :	0000001100110011;
	233 :	0000000001111010;
	232 :	0000001011011000;
	231 :	0000010100010001;
	230 :	0000000010000111;
	229 :	1111111101011111;
	228 :	1111111010000011;
	227 :	1111111100100100;
	226 :	1111111101101001;
	225 :	0000000000011010;
	224 :	1111111111010111;
	223 :	0000000001100100;
	222 :	0000000100011111;
	221 :	0000000111111100;
	220 :	0000000011011010;
	219 :	1111111111111110;
	218 :	1111111110011100;
	217 :	0000000110100110;
	216 :	0000001011100100;
	215 :	0000001001000001;
	214 :	1111110011011011;
	213 :	1111110101011001;
	212 :	0000000011101001;
	211 :	1111110011011011;
	210 :	1111101001111001;
	209 :	1111101100100100;
	208 :	0000001111001101;
	207 :	0000000101110101;
	206 :	0000011010000011;
	205 :	0000001110000000;
	204 :	0000010100101110;
	203 :	0000000011100100;
	202 :	1111110101010000;
	201 :	1111110111101111;
	200 :	1111111001110101;
	199 :	1111111100100111;
	198 :	1111111111011011;
	197 :	0000000000011100;
	196 :	0000000000101101;
	195 :	0000000001101111;
	194 :	0000000011111011;
	193 :	0000000111011100;
	192 :	0000000111000000;
	191 :	0000001110010011;
	190 :	0000001111001000;
	189 :	0000001011101100;
	188 :	0000001110100001;
	187 :	0000000110000101;
	186 :	0000001011000011;
	185 :	0000010101011110;
	184 :	0000000110101001;
	183 :	1111111001011100;
	182 :	1111101110010010;
	181 :	0000001000001100;
	180 :	0000100001000110;
	179 :	0000010011000100;
	178 :	0000001111110101;
	177 :	0000011101101100;
	176 :	0000010001010000;
	175 :	0000000111010001;
	174 :	1111111110100010;
	173 :	1111111010010100;
	172 :	1111111100111101;
	171 :	0000000000110100;
	170 :	0000000000000001;
	169 :	0000000000011100;
	168 :	1111111111101011;
	167 :	0000000000101011;
	166 :	0000000001111001;
	165 :	0000001000101001;
	164 :	0000001000101001;
	163 :	0000001000000001;
	162 :	0000000110101010;
	161 :	1111111100100000;
	160 :	0000000000010000;
	159 :	1111101011001000;
	158 :	1111110011010000;
	157 :	1111111101110110;
	156 :	1111111011000011;
	155 :	1111111010001100;
	154 :	1111110011111010;
	153 :	0000000010101110;
	152 :	0000010001011000;
	151 :	0000010001101001;
	150 :	0000010011000001;
	149 :	0000001010011111;
	148 :	0000001010001100;
	147 :	0000000111001101;
	146 :	1111111110011001;
	145 :	1111111110110110;
	144 :	0000000000001110;
	143 :	0000000001000010;
	142 :	1111111111111011;
	141 :	0000000000100100;
	140 :	0000000000011101;
	139 :	0000000000011111;
	138 :	0000000100011000;
	137 :	0000001011111000;
	136 :	0000001110010001;
	135 :	0000000000110000;
	134 :	1111110110000010;
	133 :	1111110100100100;
	132 :	1111110000000011;
	131 :	1111111010100001;
	130 :	0000001011011011;
	129 :	1111111010101111;
	128 :	1111110110111010;
	127 :	1111101010111111;
	126 :	1111101111110011;
	125 :	0000000001000111;
	124 :	0000010100101100;
	123 :	0000001110101101;
	122 :	0000010000011010;
	121 :	0000010010111000;
	120 :	0000010010010001;
	119 :	0000001000001011;
	118 :	0000000001100101;
	117 :	0000000000111000;
	116 :	0000000001001100;
	115 :	1111111111110110;
	114 :	0000000000000000;
	113 :	1111111110110010;
	112 :	1111111111101011;
	111 :	1111111111011010;
	110 :	0000000000111001;
	109 :	0000000100000011;
	108 :	0000000001000000;
	107 :	1111111011000010;
	106 :	1111111000100101;
	105 :	1111110111000100;
	104 :	1111110010011011;
	103 :	1111110100111001;
	102 :	1111110110011100;
	101 :	1111110111010010;
	100 :	1111110111111000;
	99 :	1111110101111001;
	98 :	1111110001011000;
	97 :	0000000101100001;
	96 :	0000001000100110;
	95 :	0000000000010000;
	94 :	0000000111010100;
	93 :	0000000101111110;
	92 :	0000001000011100;
	91 :	0000000001111110;
	90 :	1111111111111101;
	89 :	0000000000111000;
	88 :	0000000000100111;
	87 :	1111111111011100;
	86 :	1111111111101110;
	85 :	1111111111110101;
	84 :	1111111111110010;
	83 :	0000000000101000;
	82 :	0000000000011001;
	81 :	0000000000111011;
	80 :	0000000001100101;
	79 :	1111111110101110;
	78 :	1111111110000110;
	77 :	1111111100011110;
	76 :	1111111100110011;
	75 :	1111111011011011;
	74 :	1111111011110010;
	73 :	1111111100001000;
	72 :	0000000001100110;
	71 :	1111111111010101;
	70 :	1111111110001111;
	69 :	0000000010110101;
	68 :	0000000010100000;
	67 :	1111111111000110;
	66 :	1111111110100000;
	65 :	1111111111100100;
	64 :	0000000000000000;
	63 :	1111111111101100;
	62 :	1111111111011101;
	61 :	1111111111001001;
	60 :	1111111111010100;
	59 :	1111111110111000;
	58 :	1111111111110110;
	57 :	0000000000001001;
	56 :	0000000000111101;
	55 :	0000000000111011;
	54 :	1111111111101010;
	53 :	1111111111101010;
	52 :	1111111111110001;
	51 :	1111111111111110;
	50 :	1111111111010001;
	49 :	1111111111001101;
	48 :	1111111111100000;
	47 :	1111111111100001;
	46 :	0000000000101011;
	45 :	1111111111110110;
	44 :	1111111110001000;
	43 :	1111111101010001;
	42 :	1111111111101110;
	41 :	1111111111100010;
	40 :	1111111110000100;
	39 :	1111111111110010;
	38 :	0000000000110000;
	37 :	1111111111101001;
	36 :	1111111111000100;
	35 :	0000000000011001;
	34 :	1111111111101110;
	33 :	1111111111010110;
	32 :	1111111111110000;
	31 :	0000000000000110;
	30 :	0000000000000111;
	29 :	1111111111010100;
	28 :	0000000000001100;
	27 :	1111111111101110;
	26 :	1111111111100101;
	25 :	0000000000100110;
	24 :	1111111111110011;
	23 :	1111111111100111;
	22 :	0000000000000010;
	21 :	0000000000110000;
	20 :	0000000000000101;
	19 :	0000000000000100;
	18 :	1111111111110101;
	17 :	1111111111110111;
	16 :	1111111111101110;
	15 :	0000000000001011;
	14 :	1111111111111111;
	13 :	0000000001010010;
	12 :	0000000000110000;
	11 :	1111111111110010;
	10 :	1111111111011010;
	9 :	1111111111101110;
	8 :	1111111111110011;
	7 :	0000000001010111;
	6 :	1111111111000001;
	5 :	0000000000001000;
	4 :	0000000000011110;
	3 :	0000000000010001;
	2 :	1111111111100011;
	1 :	0000000000111010;
	0 :	0000000000100110;
END;
