-- begin_signature
-- weight_memory(num_weight
-- 784
-- data_width
-- 16
-- address_width
-- 10
-- weight_file
-- "C:/SystemVerilog_NPU/w_1_17.mif")
-- end_signature
WIDTH=16;
DEPTH=784;

ADDRESS_RADIX=UNS;
DATA_RADIX=BIN;

CONTENT BEGIN
	783 :	0000000000010000;
	782 :	1111111111100110;
	781 :	1111111111010010;
	780 :	0000000000100001;
	779 :	0000000000011010;
	778 :	0000000000100011;
	777 :	0000000000001100;
	776 :	0000000000100000;
	775 :	0000000000100000;
	774 :	0000000010111000;
	773 :	0000000001000111;
	772 :	0000000010100101;
	771 :	0000000000011100;
	770 :	0000000000010111;
	769 :	0000000000001111;
	768 :	1111111111101110;
	767 :	1111111111110100;
	766 :	0000000000001111;
	765 :	0000000000000110;
	764 :	1111111111011001;
	763 :	1111111111011010;
	762 :	1111111111110100;
	761 :	1111111111111001;
	760 :	0000000000001100;
	759 :	1111111111110010;
	758 :	1111111111110111;
	757 :	0000000000001100;
	756 :	1111111111110000;
	755 :	1111111110111100;
	754 :	0000000000001010;
	753 :	1111111111110010;
	752 :	1111111111110010;
	751 :	0000000000000010;
	750 :	0000000010001010;
	749 :	0000000011011111;
	748 :	0000000001010001;
	747 :	0000000100110010;
	746 :	0000000110110101;
	745 :	1111111111010111;
	744 :	0000000011101010;
	743 :	0000000011001000;
	742 :	0000000110101000;
	741 :	0000000000101001;
	740 :	1111111011011111;
	739 :	0000000001011111;
	738 :	0000000111000000;
	737 :	0000001000100100;
	736 :	0000000100000110;
	735 :	0000000110000111;
	734 :	0000000001110011;
	733 :	0000000001000001;
	732 :	1111111111101001;
	731 :	1111111111111010;
	730 :	0000000000001111;
	729 :	1111111111101111;
	728 :	0000000000100100;
	727 :	0000000000011110;
	726 :	1111111110011111;
	725 :	1111111110100111;
	724 :	1111111110110100;
	723 :	1111111110101001;
	722 :	0000000010001110;
	721 :	0000000011111000;
	720 :	0000001001100101;
	719 :	0000001100110101;
	718 :	0000001000001001;
	717 :	1111111110111001;
	716 :	1111111100100011;
	715 :	0000001000100001;
	714 :	0000001111011100;
	713 :	0000010101101111;
	712 :	0000011111001111;
	711 :	0000010101001101;
	710 :	0000010010011011;
	709 :	0000011011101010;
	708 :	0000010001001111;
	707 :	0000001001000111;
	706 :	0000000101111011;
	705 :	0000000111010111;
	704 :	0000000011101101;
	703 :	0000000000010001;
	702 :	0000000000100000;
	701 :	1111111111111000;
	700 :	1111111111100111;
	699 :	0000000000000000;
	698 :	1111111110110010;
	697 :	1111111011101001;
	696 :	1111111000001011;
	695 :	1111111010011011;
	694 :	1111111001111010;
	693 :	0000000011001100;
	692 :	0000001001101010;
	691 :	0000000111011101;
	690 :	0000001101110111;
	689 :	0000011010101111;
	688 :	0000001010101011;
	687 :	1111111110011110;
	686 :	1111111000111011;
	685 :	1111111111010110;
	684 :	1111111111100101;
	683 :	0000000010010000;
	682 :	0000000101000110;
	681 :	1111111100110101;
	680 :	1111111101111100;
	679 :	0000001010101101;
	678 :	0000001000001100;
	677 :	0000001111111000;
	676 :	0000001010111100;
	675 :	0000000010001011;
	674 :	0000000001011010;
	673 :	0000000000010100;
	672 :	0000000000000101;
	671 :	0000000000000000;
	670 :	0000000000000110;
	669 :	1111111100110101;
	668 :	1111111010101011;
	667 :	1111110001011101;
	666 :	1111110000000011;
	665 :	1111111010011010;
	664 :	1111111110100111;
	663 :	1111110011000100;
	662 :	0000000001110000;
	661 :	0000010100100100;
	660 :	0000001001110011;
	659 :	0000000100010110;
	658 :	1111111100100000;
	657 :	1111111011101111;
	656 :	1111110111001100;
	655 :	0000000100011010;
	654 :	1111111010111010;
	653 :	1111110111010100;
	652 :	1111110111011010;
	651 :	0000000000000010;
	650 :	1111111110100010;
	649 :	0000001011110101;
	648 :	0000000111001100;
	647 :	1111111110100010;
	646 :	0000000000011001;
	645 :	0000000000100110;
	644 :	1111111111100110;
	643 :	1111111111111100;
	642 :	1111111111111011;
	641 :	1111111110110101;
	640 :	1111111001010010;
	639 :	1111101100101001;
	638 :	1111110001011111;
	637 :	1111110000010100;
	636 :	1111111011001101;
	635 :	0000010100000101;
	634 :	0000001001101100;
	633 :	0000001110111011;
	632 :	1111111110010000;
	631 :	1111111101111100;
	630 :	0000000001100101;
	629 :	0000000011110011;
	628 :	1111101100101000;
	627 :	1111100111101101;
	626 :	1111011110100011;
	625 :	1111100111101001;
	624 :	1111110001001010;
	623 :	1111110000101010;
	622 :	1111111110010111;
	621 :	0000000111101101;
	620 :	1111111110110001;
	619 :	1111110110001001;
	618 :	1111111010001100;
	617 :	0000000000001000;
	616 :	1111111111111011;
	615 :	0000000000001101;
	614 :	1111111110101111;
	613 :	1111111101011001;
	612 :	1111111100111101;
	611 :	1111100111000011;
	610 :	1111101010011111;
	609 :	1111101100011000;
	608 :	0000000010010100;
	607 :	0000001110000000;
	606 :	0000000010001010;
	605 :	1111110010001011;
	604 :	1111111100001101;
	603 :	1111110001110001;
	602 :	0000010100011100;
	601 :	0000001001001011;
	600 :	1111111010011010;
	599 :	1111111001011001;
	598 :	1111101110000000;
	597 :	1111011100010111;
	596 :	0000000000010111;
	595 :	1111110001011001;
	594 :	1111110100000001;
	593 :	1111111110001001;
	592 :	1111111011001101;
	591 :	1111110011010011;
	590 :	1111111011000000;
	589 :	0000000000001010;
	588 :	1111111111100110;
	587 :	0000000000000000;
	586 :	1111111111100110;
	585 :	1111111100100111;
	584 :	1111111010000111;
	583 :	1111101011001001;
	582 :	1111110100010011;
	581 :	1111110011001111;
	580 :	0000000111100011;
	579 :	0000001010110001;
	578 :	1111111101010100;
	577 :	1111111001101110;
	576 :	1111111100000100;
	575 :	1111101101010111;
	574 :	0000011001110111;
	573 :	0000001000011000;
	572 :	0000001011101010;
	571 :	0000001001011110;
	570 :	1111010001100000;
	569 :	1111011111111010;
	568 :	0000000100010111;
	567 :	1111111000100000;
	566 :	1111101110000011;
	565 :	1111111100011011;
	564 :	1111111011111100;
	563 :	1111110011100101;
	562 :	1111111101010000;
	561 :	0000000000000000;
	560 :	1111111111101111;
	559 :	1111111111010000;
	558 :	1111111111001011;
	557 :	1111111101110011;
	556 :	1111110110101001;
	555 :	1111101000000110;
	554 :	1111111000010111;
	553 :	0000001000110101;
	552 :	0000000111001001;
	551 :	0000000101000100;
	550 :	0000000010001010;
	549 :	0000010110001000;
	548 :	0000000011011111;
	547 :	1111100100111011;
	546 :	1111011101000110;
	545 :	1111110111101010;
	544 :	0000001101011000;
	543 :	1111111100011011;
	542 :	1111110011111000;
	541 :	1111110000011001;
	540 :	0000000010000010;
	539 :	1111111010111101;
	538 :	1111101011001100;
	537 :	0000000001101001;
	536 :	0000000001001100;
	535 :	1111111011001111;
	534 :	0000000000101010;
	533 :	0000000000010011;
	532 :	1111111111111010;
	531 :	1111111111110011;
	530 :	0000000000010100;
	529 :	1111111010111000;
	528 :	1111100111101101;
	527 :	1111110000101010;
	526 :	1111111001111111;
	525 :	0000000101001111;
	524 :	1111111011110110;
	523 :	0000000000110101;
	522 :	0000001111010101;
	521 :	0000010011100010;
	520 :	0000000000010100;
	519 :	1111101001010001;
	518 :	1111101101011111;
	517 :	0000000000011010;
	516 :	1111101001100100;
	515 :	1111011110010110;
	514 :	1111011101001101;
	513 :	1111101101111100;
	512 :	1111110111011010;
	511 :	1111100110111100;
	510 :	1111011101010101;
	509 :	1111101000001101;
	508 :	0000000000000010;
	507 :	0000000011100010;
	506 :	0000000010111111;
	505 :	1111111111000001;
	504 :	0000000000001101;
	503 :	1111111110111000;
	502 :	0000000000110110;
	501 :	1111110110101000;
	500 :	1111101001101111;
	499 :	0000000000010011;
	498 :	0000000110101111;
	497 :	1111111111111101;
	496 :	1111101010010010;
	495 :	0000000011000100;
	494 :	0000100001111101;
	493 :	0000001010001010;
	492 :	0000001001110110;
	491 :	1111110011001010;
	490 :	0000000010111100;
	489 :	0000000001111010;
	488 :	1111101010110001;
	487 :	1111001100000111;
	486 :	1111001101000110;
	485 :	1111100101011100;
	484 :	1111100101100101;
	483 :	1111101011110101;
	482 :	1111011000101011;
	481 :	1111101001111101;
	480 :	0000000010000001;
	479 :	0000000110010100;
	478 :	0000000011011100;
	477 :	1111111111101001;
	476 :	1111111111010111;
	475 :	0000000000010011;
	474 :	1111111111101101;
	473 :	1111110010111100;
	472 :	1111110001000100;
	471 :	1111110101001000;
	470 :	0000000110111011;
	469 :	1111110111100001;
	468 :	1111110011101000;
	467 :	0000000010011011;
	466 :	0000000010010100;
	465 :	0000000001000010;
	464 :	0000001001110110;
	463 :	0000010011110110;
	462 :	0000000010000011;
	461 :	0000010111000110;
	460 :	0000000010000010;
	459 :	1111011001111110;
	458 :	1111101011010100;
	457 :	1111100000001101;
	456 :	1111011111001111;
	455 :	1111111000111111;
	454 :	1111100011111010;
	453 :	1111101111001110;
	452 :	0000001000101100;
	451 :	0000000000011111;
	450 :	0000000011001100;
	449 :	0000000001001100;
	448 :	0000000000100010;
	447 :	1111111111111011;
	446 :	0000000000101110;
	445 :	1111110111001101;
	444 :	1111110110110010;
	443 :	1111111101010100;
	442 :	0000001111000101;
	441 :	0000000000001001;
	440 :	0000000011101001;
	439 :	1111111000111010;
	438 :	1111111000100100;
	437 :	0000001010111001;
	436 :	0000010001110110;
	435 :	0000001010011110;
	434 :	0000010111110010;
	433 :	0000010110010100;
	432 :	0000001111010111;
	431 :	1111110001000010;
	430 :	1111100110110110;
	429 :	1111101101101000;
	428 :	1111111000011001;
	427 :	1111111110001110;
	426 :	1111110001010001;
	425 :	1111111001111100;
	424 :	1111110111101011;
	423 :	0000000000000001;
	422 :	0000000010011101;
	421 :	0000000011010011;
	420 :	1111111111100101;
	419 :	1111111111101010;
	418 :	0000000000111110;
	417 :	1111111001111110;
	416 :	1111110011000001;
	415 :	1111110111000001;
	414 :	1111110110110101;
	413 :	1111111110010110;
	412 :	0000000000010100;
	411 :	0000001100111111;
	410 :	0000001100010111;
	409 :	0000010000111111;
	408 :	0000001110110111;
	407 :	0000010010110101;
	406 :	0000011110100110;
	405 :	0000011011100110;
	404 :	0000011001011001;
	403 :	1111101100101101;
	402 :	1111110111100001;
	401 :	1111110110010101;
	400 :	0000001001110101;
	399 :	0000000000101000;
	398 :	0000000011010110;
	397 :	0000000011011010;
	396 :	1111111001100110;
	395 :	1111111111011001;
	394 :	0000000001011000;
	393 :	0000000001110000;
	392 :	1111111111101110;
	391 :	1111111101110011;
	390 :	1111111110101010;
	389 :	1111111101101000;
	388 :	1111110100100100;
	387 :	1111110100110110;
	386 :	1111110100100000;
	385 :	0000000101111111;
	384 :	0000000010000100;
	383 :	0000000110101111;
	382 :	0000011101001101;
	381 :	0000001101011011;
	380 :	0000011011010000;
	379 :	0000011011111110;
	378 :	0000001100010010;
	377 :	0000101010010110;
	376 :	0000011001100101;
	375 :	0000000101000000;
	374 :	0000000000010001;
	373 :	1111110101011010;
	372 :	1111110101010101;
	371 :	1111110111000000;
	370 :	0000000101111111;
	369 :	1111111101001110;
	368 :	1111111111100100;
	367 :	1111111101101000;
	366 :	0000000001101000;
	365 :	0000000000110010;
	364 :	1111111111110101;
	363 :	1111111111100101;
	362 :	0000000001111001;
	361 :	1111111011110001;
	360 :	1111101111010110;
	359 :	1111111110000100;
	358 :	0000000110111001;
	357 :	0000000111000010;
	356 :	0000001000000000;
	355 :	0000000000110001;
	354 :	0000000101110100;
	353 :	1111101100001101;
	352 :	0000001011110101;
	351 :	0000100000110011;
	350 :	0000101001111010;
	349 :	0000101100010111;
	348 :	0000011001101111;
	347 :	1111101001110010;
	346 :	1111111011100110;
	345 :	1111111000010010;
	344 :	0000000111100110;
	343 :	0000001000110001;
	342 :	0000001100010010;
	341 :	1111111110001111;
	340 :	1111111001111011;
	339 :	1111111100100100;
	338 :	1111111111110110;
	337 :	1111111111011111;
	336 :	0000000000000011;
	335 :	0000000000011101;
	334 :	0000000001110101;
	333 :	1111110111010010;
	332 :	1111110001001100;
	331 :	1111111110110001;
	330 :	0000001110111000;
	329 :	1111111101001100;
	328 :	0000001001001110;
	327 :	1111101001011010;
	326 :	1111111011110100;
	325 :	0000000001110001;
	324 :	1111111010010110;
	323 :	1111110010101011;
	322 :	1111111000000011;
	321 :	1111111100001010;
	320 :	0000000101010010;
	319 :	1111110111111000;
	318 :	0000000000110010;
	317 :	0000001001101000;
	316 :	0000010110111000;
	315 :	0000000010001110;
	314 :	1111111010100100;
	313 :	1111110000110011;
	312 :	1111111010011001;
	311 :	0000000011110111;
	310 :	1111111111111010;
	309 :	0000000000001011;
	308 :	0000000000000101;
	307 :	0000000000000111;
	306 :	0000000010011100;
	305 :	0000000010101010;
	304 :	1111110101101010;
	303 :	0000000000110100;
	302 :	0000001111011010;
	301 :	1111111001010001;
	300 :	0000000011000011;
	299 :	0000001011100000;
	298 :	0000010100101100;
	297 :	0000000001011000;
	296 :	1111111111011000;
	295 :	1111110101010010;
	294 :	1111101001100110;
	293 :	1111110111001110;
	292 :	0000000000001000;
	291 :	1111111100010010;
	290 :	0000000110111011;
	289 :	0000001010011101;
	288 :	0000000110011101;
	287 :	0000000101000010;
	286 :	1111110010110001;
	285 :	1111101110011001;
	284 :	1111111001010011;
	283 :	0000000101011000;
	282 :	0000000001001110;
	281 :	1111111111011111;
	280 :	1111111111101100;
	279 :	0000000100111100;
	278 :	0000000011110111;
	277 :	0000001000000100;
	276 :	1111110110010011;
	275 :	0000000010000110;
	274 :	0000011000110001;
	273 :	0000001000000001;
	272 :	1111111101110100;
	271 :	0000001100001011;
	270 :	0000001100110000;
	269 :	0000000110010101;
	268 :	0000010001100110;
	267 :	1111111001011111;
	266 :	1111111101100110;
	265 :	1111111000111010;
	264 :	1111110001111001;
	263 :	1111110111101100;
	262 :	1111110111001100;
	261 :	0000000001110110;
	260 :	0000000110001111;
	259 :	0000000000000000;
	258 :	1111111111011111;
	257 :	0000000100110010;
	256 :	0000001100000111;
	255 :	0000000111010001;
	254 :	0000000000111100;
	253 :	0000000000110000;
	252 :	0000000000010011;
	251 :	0000000000001000;
	250 :	0000000011000000;
	249 :	1111111011101000;
	248 :	1111110110100001;
	247 :	1111111000001000;
	246 :	0000001110010000;
	245 :	0000000011000111;
	244 :	0000001100000000;
	243 :	0000000101110101;
	242 :	0000010110111101;
	241 :	0000001101101100;
	240 :	0000001100101101;
	239 :	0000100000110111;
	238 :	0000010000000110;
	237 :	1111110010001111;
	236 :	1111101110010111;
	235 :	1111111000010000;
	234 :	1111111011110010;
	233 :	0000000111001010;
	232 :	0000000111100111;
	231 :	0000000011001000;
	230 :	0000001100001110;
	229 :	0000010011101011;
	228 :	0000010011001111;
	227 :	0000000100110101;
	226 :	0000000000010000;
	225 :	1111111111011011;
	224 :	0000000000010011;
	223 :	1111111110110110;
	222 :	1111111111111000;
	221 :	1111110101110000;
	220 :	1111111000001000;
	219 :	0000000000011011;
	218 :	0000000101100010;
	217 :	1111111000100111;
	216 :	0000011000100111;
	215 :	0000100000011000;
	214 :	0000001110011110;
	213 :	0000001011110100;
	212 :	0000000111000011;
	211 :	0000010111101011;
	210 :	1111111110100111;
	209 :	1111111111110110;
	208 :	1111110111110001;
	207 :	1111111100010010;
	206 :	0000001011111000;
	205 :	0000000011100111;
	204 :	0000000100100111;
	203 :	0000000010000101;
	202 :	0000001111001010;
	201 :	0000010011101111;
	200 :	0000001100000110;
	199 :	0000000010001111;
	198 :	1111111110001001;
	197 :	1111111111111111;
	196 :	0000000000001101;
	195 :	1111111110010101;
	194 :	1111111110110001;
	193 :	1111111100111001;
	192 :	1111111001101001;
	191 :	1111111110010000;
	190 :	0000000110100001;
	189 :	1111111110110011;
	188 :	0000001110001110;
	187 :	0000010111010000;
	186 :	0000000111110001;
	185 :	0000000100010001;
	184 :	0000000110001000;
	183 :	1111110111110111;
	182 :	1111111110111000;
	181 :	0000000011111010;
	180 :	1111111101101001;
	179 :	1111111101110001;
	178 :	0000001011000101;
	177 :	0000001010001100;
	176 :	1111111101011001;
	175 :	1111111010010010;
	174 :	0000010000010101;
	173 :	0000001111101101;
	172 :	0000000101110010;
	171 :	0000000000001010;
	170 :	1111111111011001;
	169 :	0000000000110000;
	168 :	0000000000110110;
	167 :	1111111111100100;
	166 :	1111111110010000;
	165 :	1111111001100000;
	164 :	1111110110111110;
	163 :	1111110000011110;
	162 :	1111110111011010;
	161 :	1111101110011101;
	160 :	1111110110101011;
	159 :	0000001111001010;
	158 :	1111101101101011;
	157 :	1111101011011110;
	156 :	1111110100001101;
	155 :	1111110010001000;
	154 :	1111110100011010;
	153 :	1111110000110011;
	152 :	1111111000111000;
	151 :	1111101110100111;
	150 :	1111111011001100;
	149 :	1111111010010101;
	148 :	1111110110001111;
	147 :	1111111100111101;
	146 :	0000000011110001;
	145 :	0000001100111000;
	144 :	0000000100100110;
	143 :	0000000000100010;
	142 :	0000000000101101;
	141 :	1111111111110101;
	140 :	1111111111111110;
	139 :	1111111111101100;
	138 :	0000000000100101;
	137 :	1111111010110101;
	136 :	1111110110000110;
	135 :	1111110011001001;
	134 :	1111111111010000;
	133 :	0000000011000010;
	132 :	0000000111010000;
	131 :	0000001000100101;
	130 :	0000001011001001;
	129 :	1111110000100110;
	128 :	1111111000010011;
	127 :	0000000000011100;
	126 :	1111110010110011;
	125 :	1111111010011010;
	124 :	1111110100111010;
	123 :	1111111000010100;
	122 :	1111101100110110;
	121 :	1111101000100010;
	120 :	1111110010000011;
	119 :	1111110010100100;
	118 :	1111111011111000;
	117 :	0000000000000001;
	116 :	0000000000001011;
	115 :	0000000000111011;
	114 :	1111111111101110;
	113 :	1111111111110010;
	112 :	1111111111100110;
	111 :	0000000000111110;
	110 :	1111111101010110;
	109 :	1111111101011110;
	108 :	1111111101011101;
	107 :	1111111100010011;
	106 :	1111111010101100;
	105 :	1111111011100111;
	104 :	0000000000001000;
	103 :	1111111010101110;
	102 :	0000000001101110;
	101 :	0000000000011000;
	100 :	0000000100010010;
	99 :	0000000101101010;
	98 :	1111110010110011;
	97 :	1111110011011011;
	96 :	1111110101000011;
	95 :	1111101111010011;
	94 :	1111101111110100;
	93 :	1111101110101111;
	92 :	1111110101111000;
	91 :	1111111100000111;
	90 :	1111111110111001;
	89 :	1111111111101111;
	88 :	1111111111110111;
	87 :	0000000000100100;
	86 :	0000000000101111;
	85 :	1111111111000000;
	84 :	1111111111100100;
	83 :	0000000000001010;
	82 :	0000000000101111;
	81 :	1111111111001110;
	80 :	1111111111011011;
	79 :	1111111110111001;
	78 :	1111111110011111;
	77 :	1111111101100010;
	76 :	1111111100001101;
	75 :	1111111001101110;
	74 :	1111111010110110;
	73 :	1111111011000110;
	72 :	0000000001111100;
	71 :	0000000001100001;
	70 :	1111111001000101;
	69 :	1111110111100101;
	68 :	1111111000111011;
	67 :	1111111011101011;
	66 :	1111111001101111;
	65 :	1111111100001110;
	64 :	1111111110001111;
	63 :	1111111101110110;
	62 :	1111111111010000;
	61 :	0000000001001000;
	60 :	0000000000000100;
	59 :	1111111111101011;
	58 :	0000000000001011;
	57 :	1111111111000110;
	56 :	0000000000010000;
	55 :	1111111111101110;
	54 :	0000000000001110;
	53 :	1111111111111110;
	52 :	0000000000100011;
	51 :	0000000000010011;
	50 :	1111111111011000;
	49 :	1111111111111100;
	48 :	1111111111011101;
	47 :	0000000000001101;
	46 :	1111111111111000;
	45 :	1111111110111100;
	44 :	0000000000111011;
	43 :	0000000000111011;
	42 :	0000000000000110;
	41 :	1111111110110011;
	40 :	1111111110110011;
	39 :	1111111111011001;
	38 :	1111111111100001;
	37 :	1111111111011000;
	36 :	1111111110101100;
	35 :	1111111111011001;
	34 :	0000000000000011;
	33 :	1111111111101101;
	32 :	0000000000001000;
	31 :	1111111111100010;
	30 :	0000000000001000;
	29 :	1111111111001000;
	28 :	0000000000101000;
	27 :	0000000000000010;
	26 :	0000000001000000;
	25 :	0000000000010011;
	24 :	0000000000100011;
	23 :	1111111111010111;
	22 :	0000000000001100;
	21 :	0000000000010100;
	20 :	1111111110110100;
	19 :	1111111111011000;
	18 :	1111111111010010;
	17 :	1111111111110010;
	16 :	1111111111111000;
	15 :	0000000000001110;
	14 :	1111111111100110;
	13 :	0000000000101010;
	12 :	0000000000011101;
	11 :	1111111110110111;
	10 :	1111111110110110;
	9 :	0000000000100011;
	8 :	1111111111011111;
	7 :	0000000000110011;
	6 :	1111111111011001;
	5 :	1111111111101000;
	4 :	1111111111100101;
	3 :	1111111111001100;
	2 :	1111111111010000;
	1 :	0000000000010111;
	0 :	0000000000000100;
END;
