-- begin_signature
-- weight_memory(num_weight
-- 784
-- data_width
-- 16
-- address_width
-- 10
-- weight_file
-- "C:/SystemVerilog_NPU/w_1_8.mif")
-- end_signature
WIDTH=16;
DEPTH=784;

ADDRESS_RADIX=UNS;
DATA_RADIX=BIN;

CONTENT BEGIN
	783 :	1111111111111001;
	782 :	1111111111111101;
	781 :	1111111111111110;
	780 :	0000000000110001;
	779 :	0000000000100000;
	778 :	1111111110001110;
	777 :	1111111110010100;
	776 :	1111111110100010;
	775 :	0000000000011101;
	774 :	1111111101111110;
	773 :	1111111111111110;
	772 :	1111111110111011;
	771 :	1111111101101100;
	770 :	1111111011111110;
	769 :	0000000000011101;
	768 :	1111111111011011;
	767 :	0000000000000110;
	766 :	1111111111100001;
	765 :	0000000000111110;
	764 :	1111111111111101;
	763 :	0000000000000110;
	762 :	0000000000001110;
	761 :	1111111111000010;
	760 :	1111111111100000;
	759 :	1111111111110000;
	758 :	0000000000000000;
	757 :	0000000000010110;
	756 :	0000000000000100;
	755 :	0000000000110111;
	754 :	0000000000010010;
	753 :	0000000000011000;
	752 :	0000000000100000;
	751 :	1111111111010011;
	750 :	1111111101000010;
	749 :	1111110110001110;
	748 :	1111110101011001;
	747 :	1111111000111001;
	746 :	1111110111110011;
	745 :	1111110010101001;
	744 :	1111110001111011;
	743 :	1111101100100110;
	742 :	1111101111001111;
	741 :	0000000001000110;
	740 :	0000000000111001;
	739 :	0000000000111010;
	738 :	1111111100101111;
	737 :	1111111100101001;
	736 :	1111111111111000;
	735 :	1111111111110011;
	734 :	1111111111110100;
	733 :	1111111111010101;
	732 :	1111111110110110;
	731 :	1111111111110110;
	730 :	0000000000000010;
	729 :	0000000000001011;
	728 :	0000000000000101;
	727 :	0000000000010111;
	726 :	1111111111110010;
	725 :	0000000000000110;
	724 :	0000000000001101;
	723 :	0000000001011111;
	722 :	0000000001000011;
	721 :	1111111000011011;
	720 :	1111110100000110;
	719 :	1111110101011111;
	718 :	1111110001001001;
	717 :	1111110010101110;
	716 :	1111111111100111;
	715 :	0000000000001110;
	714 :	1111111000100000;
	713 :	0000001111100101;
	712 :	0000011011110000;
	711 :	0000001100000110;
	710 :	0000010001100001;
	709 :	0000000010110111;
	708 :	0000000101000011;
	707 :	0000000100000000;
	706 :	1111111111010110;
	705 :	1111111111001101;
	704 :	1111111110011011;
	703 :	1111111111110110;
	702 :	0000000000100100;
	701 :	1111111111110101;
	700 :	0000000000001110;
	699 :	0000000000011011;
	698 :	0000000001001000;
	697 :	0000000010010001;
	696 :	0000000011101000;
	695 :	1111111001111001;
	694 :	1111110111111001;
	693 :	1111110001011001;
	692 :	1111101001010011;
	691 :	1111111110000001;
	690 :	1111110011011001;
	689 :	1111100010101000;
	688 :	1111101010000010;
	687 :	1111100100010000;
	686 :	0000000011000011;
	685 :	0000011011000101;
	684 :	0000001000111111;
	683 :	1111111110111010;
	682 :	1111110111100101;
	681 :	1111111010100000;
	680 :	1111110101111101;
	679 :	1111110001110000;
	678 :	1111110111000010;
	677 :	1111111101101000;
	676 :	0000000000011110;
	675 :	1111111111001011;
	674 :	1111111111100000;
	673 :	0000000000110101;
	672 :	0000000000111010;
	671 :	0000000000010101;
	670 :	0000000000100101;
	669 :	0000000001110110;
	668 :	0000000001110010;
	667 :	0000000011110010;
	666 :	1111111010101010;
	665 :	1111111001011001;
	664 :	0000000100010011;
	663 :	0000001101010110;
	662 :	0000000010100101;
	661 :	1111011111100000;
	660 :	1111100111000001;
	659 :	1111100111110110;
	658 :	1111101101001000;
	657 :	0000010110100111;
	656 :	0000010101110010;
	655 :	0000001111111110;
	654 :	0000011011111000;
	653 :	0000010000110010;
	652 :	0000000010100011;
	651 :	1111111001111010;
	650 :	1111110101011010;
	649 :	1111111010101101;
	648 :	0000000011000011;
	647 :	1111111111100011;
	646 :	0000000000101000;
	645 :	0000000000011000;
	644 :	0000000000010100;
	643 :	1111111111111110;
	642 :	1111111111100111;
	641 :	0000000001101011;
	640 :	0000000101101111;
	639 :	1111111111100010;
	638 :	1111111000101110;
	637 :	1111101101111101;
	636 :	0000001010101011;
	635 :	1111110111001010;
	634 :	1111100101100111;
	633 :	1111111100111111;
	632 :	1111110010110001;
	631 :	1111111000110000;
	630 :	1111101001001110;
	629 :	0000010010011100;
	628 :	0000011001001010;
	627 :	0000010010110110;
	626 :	0000010100010010;
	625 :	0000010011001101;
	624 :	0000000100011111;
	623 :	0000001110011111;
	622 :	0000001011111100;
	621 :	1111111001111011;
	620 :	0000001001010111;
	619 :	0000001000010101;
	618 :	0000000110101100;
	617 :	1111111111011110;
	616 :	1111111110110101;
	615 :	0000000000100001;
	614 :	0000000000001101;
	613 :	1111111111111010;
	612 :	1111111010000111;
	611 :	0000000101001010;
	610 :	1111111011101110;
	609 :	1111111001111010;
	608 :	1111111100010110;
	607 :	1111111010011110;
	606 :	1111110000000100;
	605 :	0000000010101000;
	604 :	1111100100110001;
	603 :	1111101011101100;
	602 :	0000010011010101;
	601 :	0000011010101111;
	600 :	0000000110100111;
	599 :	0000001110001100;
	598 :	1111111011001000;
	597 :	1111110101010100;
	596 :	1111101101010100;
	595 :	0000000011010110;
	594 :	1111111111111011;
	593 :	1111110101010111;
	592 :	0000000111111111;
	591 :	0000001010110111;
	590 :	0000000101111100;
	589 :	0000000000011111;
	588 :	0000000000000000;
	587 :	0000000000011100;
	586 :	0000000000110111;
	585 :	1111111011011010;
	584 :	0000000010011010;
	583 :	0000001001100100;
	582 :	1111111110000000;
	581 :	0000010100000110;
	580 :	0000001110001101;
	579 :	1111111101100111;
	578 :	1111111100001001;
	577 :	1111111110001110;
	576 :	1111001111101101;
	575 :	1111111101100110;
	574 :	0000001101010010;
	573 :	0000100011001010;
	572 :	0000010011001000;
	571 :	1111111100100101;
	570 :	0000000001011011;
	569 :	1111111110010101;
	568 :	0000000010100011;
	567 :	0000100011100101;
	566 :	1111111101010111;
	565 :	0000000011111000;
	564 :	0000000111001000;
	563 :	1111111110011100;
	562 :	1111111011110100;
	561 :	0000000000111110;
	560 :	1111111111011011;
	559 :	0000000000011010;
	558 :	0000000001000111;
	557 :	0000000011010110;
	556 :	0000000001111100;
	555 :	0000001010000101;
	554 :	1111110111110010;
	553 :	1111111001000101;
	552 :	1111111001100010;
	551 :	1111110011101011;
	550 :	1111110101110001;
	549 :	1111110110011011;
	548 :	1111101010111000;
	547 :	0000100100100101;
	546 :	0000101100001100;
	545 :	0000010110100100;
	544 :	1111101011001111;
	543 :	1111011011110101;
	542 :	1111110111010001;
	541 :	0000000001010010;
	540 :	1111111100010111;
	539 :	1111111111111110;
	538 :	0000000110000100;
	537 :	0000010001010000;
	536 :	0000001100110000;
	535 :	1111111001100011;
	534 :	1111110111101100;
	533 :	0000000000000100;
	532 :	0000000000000110;
	531 :	0000000001000000;
	530 :	0000000000010010;
	529 :	0000000100111101;
	528 :	1111111110000111;
	527 :	0000001101000010;
	526 :	1111111011111000;
	525 :	0000000011001100;
	524 :	1111110000011110;
	523 :	1111110101011110;
	522 :	1111111101000000;
	521 :	1111100100001111;
	520 :	1111110101100011;
	519 :	0000100110111110;
	518 :	0000101010100011;
	517 :	0000001100101111;
	516 :	1111110101111000;
	515 :	1111110001111000;
	514 :	0000001111111000;
	513 :	1111111110111110;
	512 :	0000010000000110;
	511 :	1111111110100000;
	510 :	1111111101100010;
	509 :	0000010011000001;
	508 :	0000001100000001;
	507 :	0000000010000101;
	506 :	0000000000011110;
	505 :	1111111111100111;
	504 :	1111111111111010;
	503 :	1111111111100000;
	502 :	0000000001100011;
	501 :	0000000101000010;
	500 :	0000000001111011;
	499 :	1111111001110011;
	498 :	0000000000000110;
	497 :	0000010010100110;
	496 :	1111111010101101;
	495 :	0000000011111011;
	494 :	1111110111100010;
	493 :	1111111100000000;
	492 :	0000000110000110;
	491 :	0000101101011001;
	490 :	0000101000101001;
	489 :	0000011010000101;
	488 :	0000001001111010;
	487 :	0000000001100011;
	486 :	0000000011101010;
	485 :	0000000100000001;
	484 :	1111111001100111;
	483 :	1111110101101001;
	482 :	1111111001101010;
	481 :	1111111101101100;
	480 :	0000000110110001;
	479 :	0000000100000101;
	478 :	0000000000100011;
	477 :	0000000000100001;
	476 :	1111111111111011;
	475 :	0000000000011100;
	474 :	0000000100111101;
	473 :	0000001001011111;
	472 :	0000001010111111;
	471 :	0000001001111100;
	470 :	1111111011001110;
	469 :	0000000100111000;
	468 :	1111110100000010;
	467 :	0000001111101100;
	466 :	0000001001101100;
	465 :	0000000001010011;
	464 :	0000010010011110;
	463 :	0000011111001001;
	462 :	0000011111111011;
	461 :	0000010110101111;
	460 :	0000011000110001;
	459 :	0000000110010110;
	458 :	0000000101100101;
	457 :	0000000101011100;
	456 :	1111101100010100;
	455 :	1111110010101101;
	454 :	1111110101110010;
	453 :	1111101010011011;
	452 :	1111111011001000;
	451 :	0000000000011111;
	450 :	0000000001101000;
	449 :	1111111111000000;
	448 :	1111111111111101;
	447 :	0000000000111101;
	446 :	0000001010010000;
	445 :	0000001000100010;
	444 :	0000001111100100;
	443 :	0000000001001011;
	442 :	1111111001011100;
	441 :	1111101101011110;
	440 :	0000000001011111;
	439 :	0000001001101100;
	438 :	0000000011011100;
	437 :	0000001000101100;
	436 :	1111111101101010;
	435 :	0000011100100101;
	434 :	0000101111011000;
	433 :	0000011011001110;
	432 :	0000010111100011;
	431 :	0000000010101010;
	430 :	1111100000011101;
	429 :	1111111101000010;
	428 :	1111111100100101;
	427 :	1111011101011101;
	426 :	1111100011011010;
	425 :	1111101111100100;
	424 :	1111101011100110;
	423 :	1111111000010110;
	422 :	1111111111011000;
	421 :	1111111111101110;
	420 :	1111111111001100;
	419 :	1111111111100101;
	418 :	0000000110000001;
	417 :	1111111111100000;
	416 :	1111110110110110;
	415 :	1111110111000000;
	414 :	1111101010101010;
	413 :	1111111111100101;
	412 :	1111111101001001;
	411 :	0000001000001010;
	410 :	1111110111010100;
	409 :	1111110111111000;
	408 :	1111111000110111;
	407 :	0000000000010111;
	406 :	0000010101101001;
	405 :	0000011100101011;
	404 :	0000100101011110;
	403 :	0000001011001000;
	402 :	1111110100001011;
	401 :	1111110010010011;
	400 :	1111101010110110;
	399 :	1111011010110011;
	398 :	1111011111010100;
	397 :	1111110001000010;
	396 :	1111011110110110;
	395 :	1111110110011101;
	394 :	1111111111000101;
	393 :	1111111101111111;
	392 :	0000000000110011;
	391 :	0000000100011001;
	390 :	0000000101100001;
	389 :	1111111011101111;
	388 :	1111110110100010;
	387 :	1111111000100011;
	386 :	1111101100111000;
	385 :	1111111011010000;
	384 :	0000001011101001;
	383 :	1111111100101011;
	382 :	0000001101010001;
	381 :	1111111000101111;
	380 :	0000000000101100;
	379 :	0000000100110001;
	378 :	0000011101000010;
	377 :	0000101011100010;
	376 :	0000011110000001;
	375 :	0000010001001000;
	374 :	1111101010011100;
	373 :	1111101110001000;
	372 :	1111111010010110;
	371 :	1111011101110111;
	370 :	1111111100100011;
	369 :	1111101101000010;
	368 :	1111100000110110;
	367 :	1111110110010110;
	366 :	0000000000000101;
	365 :	1111111111001001;
	364 :	0000000000000111;
	363 :	0000000000100101;
	362 :	0000000011110111;
	361 :	0000000010110101;
	360 :	1111111010100011;
	359 :	1111100111010011;
	358 :	1111110110101100;
	357 :	1111110011000011;
	356 :	1111111010100111;
	355 :	0000000001001000;
	354 :	1111111100100110;
	353 :	1111110011011001;
	352 :	0000010001111001;
	351 :	1111111101100011;
	350 :	0000001011100100;
	349 :	0000110010110110;
	348 :	0000101001010011;
	347 :	0000000011100000;
	346 :	1111100110111111;
	345 :	1111110011000100;
	344 :	1111101110000011;
	343 :	1111110100110000;
	342 :	1111111101100010;
	341 :	0000000010100110;
	340 :	1111101111101100;
	339 :	1111110011010010;
	338 :	1111111111000001;
	337 :	1111111111010111;
	336 :	0000000000010001;
	335 :	1111111111110111;
	334 :	0000000111011010;
	333 :	0000000010001010;
	332 :	1111110000110100;
	331 :	1111111011110110;
	330 :	1111111011111111;
	329 :	1111110001001001;
	328 :	1111101101010001;
	327 :	0000000000011001;
	326 :	1111101111010100;
	325 :	1111101010011000;
	324 :	1111100111110001;
	323 :	1111100101010010;
	322 :	0000011100000111;
	321 :	0000100101110111;
	320 :	0000010001111110;
	319 :	0000001000000001;
	318 :	1111100110101111;
	317 :	1111100110100100;
	316 :	1111111110001111;
	315 :	1111110111000011;
	314 :	1111101011111101;
	313 :	0000001100010011;
	312 :	0000000011001010;
	311 :	1111111011111000;
	310 :	0000000000000000;
	309 :	1111111111110101;
	308 :	1111111111101110;
	307 :	1111111111110110;
	306 :	0000000010001000;
	305 :	1111111000110100;
	304 :	1111111010101100;
	303 :	0000001000010010;
	302 :	0000001100100101;
	301 :	1111110110111000;
	300 :	1111101110111100;
	299 :	0000001001100101;
	298 :	1111111011100010;
	297 :	1111110000100000;
	296 :	0000000110110101;
	295 :	1111101000101001;
	294 :	0000011001100110;
	293 :	0000010011001110;
	292 :	0000000000010110;
	291 :	1111101110011100;
	290 :	1111101001101011;
	289 :	1111101111010100;
	288 :	1111110010111100;
	287 :	1111110101110110;
	286 :	1111101011100101;
	285 :	1111110110011000;
	284 :	0000001000111100;
	283 :	0000000011000010;
	282 :	0000000000110110;
	281 :	1111111111110110;
	280 :	0000000000011010;
	279 :	0000000000000000;
	278 :	0000000000111110;
	277 :	0000000100101100;
	276 :	0000000100100010;
	275 :	0000000100101100;
	274 :	0000011011111110;
	273 :	0000000001011111;
	272 :	0000000100011101;
	271 :	0000100001110011;
	270 :	0000001111110010;
	269 :	0000001010000001;
	268 :	0000000001100110;
	267 :	1111100101000010;
	266 :	0000001011010101;
	265 :	0000100100001000;
	264 :	1111110110010011;
	263 :	1111010110001100;
	262 :	1111100011000011;
	261 :	1111110011000011;
	260 :	1111101101010100;
	259 :	0000000101001000;
	258 :	1111110101101011;
	257 :	1111111110001010;
	256 :	0000001101010011;
	255 :	0000000101010010;
	254 :	0000000000011111;
	253 :	0000000000010000;
	252 :	1111111111100011;
	251 :	0000000000010011;
	250 :	0000000110011110;
	249 :	1111111111110100;
	248 :	1111110100110100;
	247 :	0000001010101000;
	246 :	0000001000010011;
	245 :	1111110011011001;
	244 :	0000001010100000;
	243 :	0000001000100010;
	242 :	1111111111110001;
	241 :	0000011001110000;
	240 :	0000011000000010;
	239 :	1111100101010000;
	238 :	0000000111011100;
	237 :	0000100001011101;
	236 :	1111111011001110;
	235 :	1111110100100001;
	234 :	0000000100001100;
	233 :	0000001001010110;
	232 :	1111110110011111;
	231 :	0000010000111100;
	230 :	0000000100110010;
	229 :	0000000100011001;
	228 :	0000001010101001;
	227 :	0000000110110000;
	226 :	1111111111101100;
	225 :	0000000000000011;
	224 :	1111111111011110;
	223 :	0000000000011011;
	222 :	1111111110011001;
	221 :	0000000001110110;
	220 :	1111110110011100;
	219 :	1111111110000100;
	218 :	0000010001111000;
	217 :	0000001110011011;
	216 :	0000001110100101;
	215 :	0000000001010001;
	214 :	0000010001110000;
	213 :	0000010110110010;
	212 :	0000001101000100;
	211 :	1111111111110011;
	210 :	1111111010011100;
	209 :	0000001001101001;
	208 :	1111110101000100;
	207 :	1111101010101111;
	206 :	1111101100001100;
	205 :	1111111010011111;
	204 :	0000010011110001;
	203 :	1111110111110101;
	202 :	0000000110000000;
	201 :	0000000110101010;
	200 :	0000010011000011;
	199 :	0000001001100010;
	198 :	1111111111001111;
	197 :	0000000000000101;
	196 :	1111111111101111;
	195 :	0000000000011101;
	194 :	1111111111010111;
	193 :	1111111111000010;
	192 :	1111111011000100;
	191 :	1111111001000000;
	190 :	0000001001100000;
	189 :	0000010100011100;
	188 :	0000001110111011;
	187 :	1111111101000000;
	186 :	0000000011100111;
	185 :	0000001000100110;
	184 :	1111110010000110;
	183 :	1111111111001011;
	182 :	1111110100101111;
	181 :	1111111001000000;
	180 :	1111111111101100;
	179 :	1111101101100111;
	178 :	1111101100010010;
	177 :	1111111010101010;
	176 :	0000000110100101;
	175 :	0000000010111000;
	174 :	0000011000110100;
	173 :	0000000110100001;
	172 :	0000001011010110;
	171 :	0000000100001011;
	170 :	0000000000011110;
	169 :	0000000000000101;
	168 :	1111111111111001;
	167 :	0000000000001011;
	166 :	1111111111011111;
	165 :	0000000000110000;
	164 :	1111111101000001;
	163 :	1111110110101111;
	162 :	1111110100010001;
	161 :	1111110101111100;
	160 :	0000000110000110;
	159 :	0000000011111100;
	158 :	1111110011010110;
	157 :	0000001101010000;
	156 :	0000001000101101;
	155 :	1111110010111010;
	154 :	0000000001010000;
	153 :	1111101101111110;
	152 :	0000000100001101;
	151 :	1111100110010001;
	150 :	1111101111110111;
	149 :	0000000010010000;
	148 :	0000000110111111;
	147 :	0000010101010100;
	146 :	0000001111110110;
	145 :	0000001011101001;
	144 :	0000001001110001;
	143 :	0000000010011111;
	142 :	1111111111100010;
	141 :	0000000000011010;
	140 :	1111111111111001;
	139 :	1111111111100011;
	138 :	0000000000010001;
	137 :	0000000000001110;
	136 :	0000000000010000;
	135 :	1111111100111110;
	134 :	1111110110101000;
	133 :	1111110011101000;
	132 :	1111110011010100;
	131 :	1111111011111011;
	130 :	1111101011010011;
	129 :	1111110100110001;
	128 :	1111110010011100;
	127 :	1111110110001101;
	126 :	0000001000110111;
	125 :	0000001001111101;
	124 :	0000000011000101;
	123 :	0000000011110111;
	122 :	1111111110010010;
	121 :	0000001000111000;
	120 :	0000001011101100;
	119 :	0000001001100101;
	118 :	0000001000001101;
	117 :	0000000101001111;
	116 :	0000000000001011;
	115 :	0000000000001010;
	114 :	0000000000001010;
	113 :	1111111111110000;
	112 :	1111111111100001;
	111 :	0000000000100000;
	110 :	0000000000011010;
	109 :	0000000000101100;
	108 :	0000000000001000;
	107 :	1111111110110101;
	106 :	1111111100111100;
	105 :	1111111101111110;
	104 :	0000000011011101;
	103 :	1111111001100011;
	102 :	1111110010010001;
	101 :	1111110111100011;
	100 :	1111101000111001;
	99 :	1111101100110111;
	98 :	1111110101010101;
	97 :	1111101111110110;
	96 :	1111110010001111;
	95 :	1111110111011111;
	94 :	1111110111111011;
	93 :	1111111000100101;
	92 :	1111111001100011;
	91 :	1111111111010000;
	90 :	1111111111100101;
	89 :	1111111111110010;
	88 :	1111111111101010;
	87 :	1111111111101111;
	86 :	0000000000011111;
	85 :	0000000000100100;
	84 :	0000000000000000;
	83 :	1111111111001010;
	82 :	1111111111000101;
	81 :	1111111111010011;
	80 :	1111111111111110;
	79 :	0000000000101000;
	78 :	1111111111101011;
	77 :	0000000001011010;
	76 :	0000000011111001;
	75 :	0000000001101000;
	74 :	1111111001011010;
	73 :	1111110101100011;
	72 :	1111110110010001;
	71 :	1111111010010011;
	70 :	1111111011110101;
	69 :	1111111010010101;
	68 :	1111111010000011;
	67 :	1111111110000110;
	66 :	1111111111001111;
	65 :	0000000001101000;
	64 :	0000000000010101;
	63 :	0000000000011101;
	62 :	1111111111111010;
	61 :	0000000000000000;
	60 :	1111111111111011;
	59 :	1111111111010001;
	58 :	1111111111010010;
	57 :	1111111111110110;
	56 :	1111111111100010;
	55 :	1111111111011111;
	54 :	1111111111100100;
	53 :	0000000000110110;
	52 :	1111111111111111;
	51 :	0000000000001101;
	50 :	0000000000010010;
	49 :	0000000000100110;
	48 :	0000000000011000;
	47 :	1111111111011011;
	46 :	0000000000000000;
	45 :	1111111110110111;
	44 :	1111111111010100;
	43 :	1111111110100100;
	42 :	1111111110110101;
	41 :	1111111110010000;
	40 :	1111111110101010;
	39 :	1111111110111111;
	38 :	1111111111101000;
	37 :	1111111111100011;
	36 :	0000000000010001;
	35 :	0000000000000000;
	34 :	1111111111011010;
	33 :	0000000000110011;
	32 :	1111111111100011;
	31 :	0000000000011100;
	30 :	0000000000100001;
	29 :	0000000000001110;
	28 :	0000000000000001;
	27 :	1111111111101010;
	26 :	0000000000010010;
	25 :	0000000000000100;
	24 :	0000000000101001;
	23 :	1111111111010101;
	22 :	1111111111110010;
	21 :	1111111111101101;
	20 :	0000000000000101;
	19 :	1111111111111100;
	18 :	0000000000000010;
	17 :	0000000000000011;
	16 :	0000000000100111;
	15 :	0000000000000010;
	14 :	0000000000000111;
	13 :	1111111111101110;
	12 :	1111111111110111;
	11 :	0000000000010000;
	10 :	1111111111111011;
	9 :	1111111111100010;
	8 :	1111111111100011;
	7 :	1111111111110001;
	6 :	0000000000000000;
	5 :	0000000000000101;
	4 :	0000000000001001;
	3 :	1111111111100100;
	2 :	1111111111010111;
	1 :	0000000000000000;
	0 :	1111111111111101;
END;
