-- begin_signature
-- weight_memory(num_weight
-- 784
-- data_width
-- 16
-- address_width
-- 10
-- weight_file
-- "C:/SystemVerilog_NPU/w_1_21.mif")
-- end_signature
WIDTH=16;
DEPTH=784;

ADDRESS_RADIX=UNS;
DATA_RADIX=BIN;

CONTENT BEGIN
	783 :	1111111111100110;
	782 :	0000000000000110;
	781 :	0000000000100100;
	780 :	1111111111000001;
	779 :	1111111111111011;
	778 :	0000000101011011;
	777 :	0000000000100010;
	776 :	0000000010000111;
	775 :	0000000000101011;
	774 :	0000000010001001;
	773 :	1111111111101111;
	772 :	1111111111011010;
	771 :	1111111111011000;
	770 :	0000000000010101;
	769 :	0000000000101000;
	768 :	0000000000001101;
	767 :	0000000000010111;
	766 :	0000000000001110;
	765 :	1111111111101110;
	764 :	0000000000001000;
	763 :	1111111111011010;
	762 :	1111111111000111;
	761 :	0000000000000001;
	760 :	1111111111100011;
	759 :	0000000000001001;
	758 :	1111111111100110;
	757 :	0000000000000000;
	756 :	0000000000000001;
	755 :	1111111111111001;
	754 :	0000000000100110;
	753 :	0000000000110010;
	752 :	1111111111110000;
	751 :	0000000000011001;
	750 :	0000000011111110;
	749 :	0000000111100101;
	748 :	0000000101101110;
	747 :	0000000110010010;
	746 :	0000001001001011;
	745 :	0000001000111100;
	744 :	0000000011110111;
	743 :	0000000011000010;
	742 :	0000000110110001;
	741 :	1111111110000110;
	740 :	1111110110111110;
	739 :	1111111100101011;
	738 :	0000000000111101;
	737 :	0000000111110011;
	736 :	0000000010100000;
	735 :	1111111111101101;
	734 :	0000001000100101;
	733 :	0000001001111110;
	732 :	0000000000100100;
	731 :	0000000000010111;
	730 :	1111111111000001;
	729 :	1111111111011011;
	728 :	0000000000000110;
	727 :	1111111111100011;
	726 :	1111111111011101;
	725 :	1111111111101000;
	724 :	1111111111101000;
	723 :	0000000000111101;
	722 :	0000000110100010;
	721 :	0000010010010001;
	720 :	0000000110010010;
	719 :	0000000001110101;
	718 :	0000001111110111;
	717 :	0000001100101100;
	716 :	0000000000111011;
	715 :	1111111010110001;
	714 :	0000001011000100;
	713 :	0000001011000010;
	712 :	1111110111010000;
	711 :	0000000101101010;
	710 :	0000000001001101;
	709 :	1111110100011101;
	708 :	1111110101011011;
	707 :	1111111011101111;
	706 :	1111111000101100;
	705 :	1111111100011101;
	704 :	1111111101001001;
	703 :	1111111111101011;
	702 :	0000000000001011;
	701 :	1111111111101111;
	700 :	0000000000000100;
	699 :	0000000000001100;
	698 :	0000000000000101;
	697 :	1111111110110101;
	696 :	1111111101111110;
	695 :	0000000111101100;
	694 :	0000000110100100;
	693 :	0000000110100001;
	692 :	0000000010101001;
	691 :	0000000100001000;
	690 :	0000000110001110;
	689 :	1111111101000101;
	688 :	0000001100100001;
	687 :	1111111101001000;
	686 :	0000011010001000;
	685 :	0000010000110111;
	684 :	0000000010110100;
	683 :	0000000001100101;
	682 :	0000000110111100;
	681 :	1111111010100110;
	680 :	1111111110000001;
	679 :	1111110010110111;
	678 :	1111110110101100;
	677 :	1111111001111100;
	676 :	1111110111000000;
	675 :	1111111101001101;
	674 :	0000000000101100;
	673 :	1111111111110010;
	672 :	1111111111111010;
	671 :	0000000000000110;
	670 :	1111111111111011;
	669 :	1111111011101010;
	668 :	1111111001000110;
	667 :	1111111101010100;
	666 :	1111111101101110;
	665 :	1111111001101010;
	664 :	0000000000101011;
	663 :	1111110110100011;
	662 :	1111110011111010;
	661 :	0000001010100011;
	660 :	1111111110101110;
	659 :	1111110010011111;
	658 :	0000000001111000;
	657 :	1111101100001111;
	656 :	0000001000101111;
	655 :	0000000011111111;
	654 :	0000010000001100;
	653 :	1111101110100100;
	652 :	1111110111010001;
	651 :	1111110000011111;
	650 :	1111101001111000;
	649 :	1111101100111110;
	648 :	1111111011101010;
	647 :	0000000001100000;
	646 :	1111111111010101;
	645 :	0000000000000111;
	644 :	0000000000011000;
	643 :	0000000000001011;
	642 :	0000000000011110;
	641 :	1111111001110110;
	640 :	1111111000010100;
	639 :	1111111011011110;
	638 :	1111111111000101;
	637 :	1111111110001010;
	636 :	1111111111001011;
	635 :	1111110011010110;
	634 :	1111111101111011;
	633 :	1111111101110011;
	632 :	1111110010001101;
	631 :	0000000000010001;
	630 :	1111110011110000;
	629 :	1111111011110000;
	628 :	0000000000000111;
	627 :	1111110110111111;
	626 :	0000000110000101;
	625 :	0000000111010001;
	624 :	1111111110110000;
	623 :	0000000001000111;
	622 :	0000001001111001;
	621 :	1111100101000100;
	620 :	1111110100101011;
	619 :	1111111110100110;
	618 :	1111111100111111;
	617 :	0000000000000001;
	616 :	1111111111010101;
	615 :	1111111111011100;
	614 :	1111111111010110;
	613 :	1111111001000000;
	612 :	0000000000101001;
	611 :	1111111101000011;
	610 :	0000000110101001;
	609 :	0000000000111111;
	608 :	0000001111001000;
	607 :	1111111010111010;
	606 :	1111111011011010;
	605 :	0000000100001100;
	604 :	0000000110101000;
	603 :	1111110110111010;
	602 :	0000001101101000;
	601 :	0000001001001001;
	600 :	1111101101010010;
	599 :	0000000011010100;
	598 :	1111111011100001;
	597 :	0000001001001100;
	596 :	1111101101100101;
	595 :	1111111001111110;
	594 :	1111111110010011;
	593 :	0000000000110000;
	592 :	1111110010101111;
	591 :	1111101111110100;
	590 :	1111111101001100;
	589 :	1111111111111010;
	588 :	0000000000000010;
	587 :	0000000000000011;
	586 :	1111111111000110;
	585 :	1111111101111110;
	584 :	0000001001011101;
	583 :	0000000010010001;
	582 :	0000000100011011;
	581 :	0000000100111101;
	580 :	0000000110011110;
	579 :	0000000010111000;
	578 :	0000000100100011;
	577 :	0000001111011101;
	576 :	1111110010000111;
	575 :	0000001111000101;
	574 :	1111110001111100;
	573 :	0000001101011000;
	572 :	0000000111000000;
	571 :	1111111010111100;
	570 :	1111110110101111;
	569 :	1111111010001001;
	568 :	0000000111101111;
	567 :	1111111010001011;
	566 :	1111110111001100;
	565 :	1111111011100110;
	564 :	1111110111101100;
	563 :	1111101101010111;
	562 :	0000000000101001;
	561 :	0000000000000011;
	560 :	0000000000001100;
	559 :	1111111111010101;
	558 :	1111111111011011;
	557 :	1111111100100110;
	556 :	0000000100101011;
	555 :	1111111100000011;
	554 :	1111110000011000;
	553 :	1111110100101100;
	552 :	0000000100001001;
	551 :	0000000010111101;
	550 :	1111111100101100;
	549 :	1111111010100100;
	548 :	1111111010000010;
	547 :	0000000100011111;
	546 :	1111111101001010;
	545 :	1111110110010001;
	544 :	0000001111101011;
	543 :	0000000110110011;
	542 :	1111110101110111;
	541 :	1111111111100001;
	540 :	0000000010111011;
	539 :	0000000001010011;
	538 :	1111111111100010;
	537 :	1111110101011000;
	536 :	1111111110000011;
	535 :	1111110101100011;
	534 :	0000000001100101;
	533 :	1111111111001001;
	532 :	0000000000100010;
	531 :	1111111111011010;
	530 :	1111111110010110;
	529 :	1111111000110110;
	528 :	1111111101010110;
	527 :	1111111000110100;
	526 :	1111110010001110;
	525 :	0000000111010100;
	524 :	0000001110000011;
	523 :	1111111100011110;
	522 :	1111111101100001;
	521 :	1111111110111001;
	520 :	1111111100010111;
	519 :	0000000011100100;
	518 :	1111110101001101;
	517 :	0000000001000111;
	516 :	1111111111101100;
	515 :	0000010100000011;
	514 :	0000000001010110;
	513 :	1111110111100000;
	512 :	0000000001000010;
	511 :	0000001000101101;
	510 :	0000000110000111;
	509 :	1111110011001011;
	508 :	1111110010000100;
	507 :	1111110010010100;
	506 :	1111111110011010;
	505 :	0000000000001011;
	504 :	0000000001010010;
	503 :	1111111111011011;
	502 :	1111111011001001;
	501 :	1111111000010000;
	500 :	1111111110010110;
	499 :	0000000000110101;
	498 :	1111101110011001;
	497 :	1111111101010110;
	496 :	0000001101111100;
	495 :	1111111001010111;
	494 :	1111111010111011;
	493 :	0000000001001101;
	492 :	1111111110010111;
	491 :	1111101010100001;
	490 :	1111101011110100;
	489 :	1111100110101011;
	488 :	1111111000111111;
	487 :	0000001110111010;
	486 :	0000001001100001;
	485 :	0000000000000111;
	484 :	0000001001111001;
	483 :	0000001010100001;
	482 :	0000000100101011;
	481 :	1111101010111011;
	480 :	1111101101000100;
	479 :	1111110100101101;
	478 :	1111111100101000;
	477 :	0000000000011111;
	476 :	0000000000001010;
	475 :	1111111111101111;
	474 :	1111110011111000;
	473 :	1111110101111111;
	472 :	1111100111100001;
	471 :	1111101101011011;
	470 :	0000000000001110;
	469 :	1111110000000110;
	468 :	1111110001101010;
	467 :	1111101000101101;
	466 :	1111101110101000;
	465 :	0000000011010110;
	464 :	1111111101110000;
	463 :	1111111101010001;
	462 :	1111101110110010;
	461 :	1111110010011000;
	460 :	1111101100000010;
	459 :	0000001111001111;
	458 :	0000000110100001;
	457 :	0000000011001111;
	456 :	0000001001001000;
	455 :	1111100011110100;
	454 :	1111101001111000;
	453 :	1111110011111111;
	452 :	1111111101101111;
	451 :	1111111011101010;
	450 :	1111111101011101;
	449 :	0000000000001001;
	448 :	0000000000101100;
	447 :	1111111111101100;
	446 :	1111111001111110;
	445 :	1111111110100101;
	444 :	1111101111111001;
	443 :	1111110010011100;
	442 :	1111111001011011;
	441 :	1111100110101011;
	440 :	1111101101001100;
	439 :	0000000011100001;
	438 :	0000000000100100;
	437 :	1111111101010010;
	436 :	0000000001001001;
	435 :	1111111101010000;
	434 :	0000001000010100;
	433 :	1111111110001100;
	432 :	0000001000010110;
	431 :	1111110011011010;
	430 :	1111101100010100;
	429 :	1111101011111110;
	428 :	1111110101000101;
	427 :	1111101000001111;
	426 :	1111110100110000;
	425 :	0000000010000100;
	424 :	0000001111100101;
	423 :	0000001010111000;
	422 :	1111111111101111;
	421 :	0000000000000010;
	420 :	1111111111110010;
	419 :	0000000000100000;
	418 :	1111111010101010;
	417 :	1111111101011110;
	416 :	1111110110110111;
	415 :	1111110110110000;
	414 :	0000000000110110;
	413 :	1111111110001100;
	412 :	1111111100011010;
	411 :	1111111010110110;
	410 :	1111111010110011;
	409 :	1111111110100101;
	408 :	1111101111000101;
	407 :	1111110000010100;
	406 :	1111101001100111;
	405 :	1111101101011100;
	404 :	1111100010100000;
	403 :	1111110010001000;
	402 :	1111100010010100;
	401 :	1111010110111010;
	400 :	0000000011100010;
	399 :	0000010011111110;
	398 :	0000011011001100;
	397 :	0000100110000000;
	396 :	0000011111111100;
	395 :	0000010110011010;
	394 :	1111111111110001;
	393 :	0000000000000000;
	392 :	1111111111100111;
	391 :	1111111110010000;
	390 :	1111111101101011;
	389 :	1111110001011100;
	388 :	1111110110101001;
	387 :	1111110101111000;
	386 :	1111111100100000;
	385 :	1111111011010010;
	384 :	0000010111100011;
	383 :	0000010010010011;
	382 :	0000010011001000;
	381 :	1111111001110010;
	380 :	0000001001000110;
	379 :	0000010000001000;
	378 :	0000000010001110;
	377 :	1111101010011001;
	376 :	1111111010010111;
	375 :	1111101101010101;
	374 :	1111110101011001;
	373 :	0000101010010111;
	372 :	0001010010101101;
	371 :	0001100101000011;
	370 :	0001010110011000;
	369 :	0001000111001111;
	368 :	0000101010101100;
	367 :	0000010011101100;
	366 :	0000000001000110;
	365 :	0000000001111010;
	364 :	0000000000010111;
	363 :	1111111111111100;
	362 :	0000000001011011;
	361 :	1111110100101001;
	360 :	0000001001101110;
	359 :	0000001111110111;
	358 :	0000001111111110;
	357 :	0000000000001001;
	356 :	0000000010111110;
	355 :	0000001101011001;
	354 :	1111111100011010;
	353 :	0000001011010100;
	352 :	1111111000110100;
	351 :	0000000001001101;
	350 :	1111111101000011;
	349 :	1111101011110110;
	348 :	0000001000010101;
	347 :	0000111000000100;
	346 :	0001100001011101;
	345 :	0010001011100011;
	344 :	0001111010110111;
	343 :	0001011100011001;
	342 :	0000110101110110;
	341 :	0000110010001101;
	340 :	0000011100110100;
	339 :	0000010010010100;
	338 :	0000000011011110;
	337 :	0000000000101000;
	336 :	0000000000110000;
	335 :	1111111111011101;
	334 :	0000000010001101;
	333 :	0000000001101110;
	332 :	0000000100101100;
	331 :	0000010001011001;
	330 :	0000001010110101;
	329 :	0000000011011000;
	328 :	1111110111110000;
	327 :	0000001111100001;
	326 :	0000000001010101;
	325 :	1111111111100000;
	324 :	0000000001000111;
	323 :	0000010101011100;
	322 :	0000100110110000;
	321 :	0000111100011000;
	320 :	0001110101000101;
	319 :	0001011010000111;
	318 :	0001010010111000;
	317 :	0000110100000010;
	316 :	0000011000001101;
	315 :	0000011011101010;
	314 :	0000000001001011;
	313 :	0000001110110000;
	312 :	0000010011011011;
	311 :	0000001011010101;
	310 :	0000000011000011;
	309 :	0000000000010011;
	308 :	1111111111011010;
	307 :	1111111110001011;
	306 :	1111111000100111;
	305 :	1111111010110000;
	304 :	0000000011110010;
	303 :	0000001101101000;
	302 :	0000000101011111;
	301 :	0000001110011001;
	300 :	1111111100000110;
	299 :	0000000010110101;
	298 :	1111101101011100;
	297 :	0000000011000101;
	296 :	0000001100110110;
	295 :	0000010110010001;
	294 :	0000100110000011;
	293 :	0000101010100000;
	292 :	0000011010000110;
	291 :	0000000111000010;
	290 :	1111101100001001;
	289 :	1111110110011001;
	288 :	1111010110010010;
	287 :	1111100100010010;
	286 :	1111101110100101;
	285 :	1111111010110011;
	284 :	0000000101100100;
	283 :	0000000000111101;
	282 :	1111111111011000;
	281 :	0000000000001000;
	280 :	1111111111110011;
	279 :	1111110111001001;
	278 :	1111111010100100;
	277 :	0000000101001100;
	276 :	0000010110001011;
	275 :	0000000011011110;
	274 :	1111111110111000;
	273 :	0000010101110000;
	272 :	0000010001100110;
	271 :	0000001100111001;
	270 :	0000000100011100;
	269 :	0000000111001100;
	268 :	1111111110001101;
	267 :	0000010001110001;
	266 :	0000001100000000;
	265 :	0000000000110101;
	264 :	1111011111001010;
	263 :	1111110010100110;
	262 :	1111101010011001;
	261 :	1111110100010110;
	260 :	1111110100101001;
	259 :	1111110100011000;
	258 :	1111111000000011;
	257 :	1111101111001011;
	256 :	1111111010001111;
	255 :	0000000000100011;
	254 :	1111111110010000;
	253 :	1111111111101011;
	252 :	1111111111100111;
	251 :	1111111111111001;
	250 :	1111111111001100;
	249 :	0000000110110110;
	248 :	0000010011101111;
	247 :	0000001110010110;
	246 :	0000000011111011;
	245 :	0000000010000011;
	244 :	0000000111101001;
	243 :	0000000010100110;
	242 :	0000000011100001;
	241 :	1111111111000010;
	240 :	0000001101111101;
	239 :	1111111100011101;
	238 :	1111100110000100;
	237 :	1111110111011111;
	236 :	1111110111011100;
	235 :	1111111100011101;
	234 :	1111110000101100;
	233 :	1111111010011011;
	232 :	0000000100100111;
	231 :	1111111011110001;
	230 :	0000010000011110;
	229 :	1111110110110110;
	228 :	1111110111001110;
	227 :	1111111111010101;
	226 :	0000000010010110;
	225 :	1111111111110100;
	224 :	1111111110101101;
	223 :	1111111111111110;
	222 :	0000000000011110;
	221 :	0000001110000100;
	220 :	0000001101000100;
	219 :	0000001111011001;
	218 :	0000000010011010;
	217 :	0000000100111000;
	216 :	1111111111111100;
	215 :	0000000010001010;
	214 :	0000001101111101;
	213 :	1111111110110001;
	212 :	1111111110100001;
	211 :	0000000000000010;
	210 :	1111110011111010;
	209 :	1111101011110011;
	208 :	1111101111001010;
	207 :	1111111101010001;
	206 :	0000000001011010;
	205 :	1111110100010011;
	204 :	1111111000001000;
	203 :	1111111000111111;
	202 :	1111110000000101;
	201 :	0000000000111100;
	200 :	1111111010000000;
	199 :	1111111111100001;
	198 :	0000000000111111;
	197 :	1111111111110101;
	196 :	1111111111011110;
	195 :	0000000000000101;
	194 :	1111111111110001;
	193 :	0000001010111000;
	192 :	0000010111110101;
	191 :	0000010101000001;
	190 :	0000001011110110;
	189 :	0000010001000110;
	188 :	0000000111000010;
	187 :	1111111111110010;
	186 :	0000000001011111;
	185 :	0000000111110100;
	184 :	1111101110101110;
	183 :	1111111111000010;
	182 :	1111111000001111;
	181 :	0000000011110101;
	180 :	1111111111101001;
	179 :	1111111000011001;
	178 :	1111100000010000;
	177 :	1111101110010101;
	176 :	0000000101110011;
	175 :	1111101011100110;
	174 :	1111101011001000;
	173 :	1111111001110100;
	172 :	1111111011111011;
	171 :	0000000000100000;
	170 :	0000000000011111;
	169 :	0000000000000011;
	168 :	1111111111001110;
	167 :	0000000000101100;
	166 :	0000000010101011;
	165 :	0000000100011010;
	164 :	0000001010110110;
	163 :	0000001001010101;
	162 :	0000000111000111;
	161 :	0000000001000010;
	160 :	1111111010010000;
	159 :	0000011001010010;
	158 :	0000010010000101;
	157 :	0000010001010110;
	156 :	0000000010011101;
	155 :	0000001100101100;
	154 :	0000000100010111;
	153 :	0000000101100011;
	152 :	0000001101100011;
	151 :	0000010010100001;
	150 :	0000000111100001;
	149 :	0000000100100101;
	148 :	0000001100100101;
	147 :	0000000110011000;
	146 :	0000000101010000;
	145 :	0000000100101001;
	144 :	1111111111001101;
	143 :	0000000000010100;
	142 :	1111111111001100;
	141 :	1111111111101100;
	140 :	1111111111110110;
	139 :	0000000000111000;
	138 :	0000000000100111;
	137 :	1111111111100010;
	136 :	1111111111010000;
	135 :	0000000001011111;
	134 :	1111111011001001;
	133 :	1111111100111001;
	132 :	1111110101011111;
	131 :	0000000001001011;
	130 :	1111110001000101;
	129 :	0000001000011101;
	128 :	0000000111000110;
	127 :	0000001010010100;
	126 :	0000010011110100;
	125 :	0000001110011101;
	124 :	0000000010110100;
	123 :	1111111010001001;
	122 :	1111111000011101;
	121 :	0000000110001011;
	120 :	1111111110111111;
	119 :	1111111101111000;
	118 :	0000000100011100;
	117 :	0000000010001010;
	116 :	1111111111100001;
	115 :	1111111111111011;
	114 :	1111111111011000;
	113 :	1111111111101011;
	112 :	1111111111011110;
	111 :	1111111111010101;
	110 :	0000000000010101;
	109 :	1111111101100000;
	108 :	1111111101111010;
	107 :	0000000010111100;
	106 :	0000000001111110;
	105 :	0000000000100000;
	104 :	0000000000111010;
	103 :	0000000101100001;
	102 :	0000001100100010;
	101 :	1111111110100010;
	100 :	1111110101101111;
	99 :	0000000110101011;
	98 :	1111111101001101;
	97 :	1111110100001110;
	96 :	1111111001011001;
	95 :	1111111111110011;
	94 :	0000000010011000;
	93 :	0000000010010101;
	92 :	1111111110110010;
	91 :	0000000001100011;
	90 :	0000000011011000;
	89 :	0000000000011000;
	88 :	0000000000101001;
	87 :	1111111111010110;
	86 :	1111111111110011;
	85 :	1111111111011011;
	84 :	0000000001000000;
	83 :	0000000000000110;
	82 :	0000000000000010;
	81 :	1111111100110110;
	80 :	1111111100000111;
	79 :	0000000000001000;
	78 :	0000000001111101;
	77 :	0000000111000000;
	76 :	1111111101010001;
	75 :	1111111110000000;
	74 :	0000000010011000;
	73 :	0000000011111100;
	72 :	1111110101100010;
	71 :	1111111111011000;
	70 :	0000000000010101;
	69 :	0000000000000110;
	68 :	0000000010010010;
	67 :	0000000000100011;
	66 :	1111111111000001;
	65 :	0000000001101001;
	64 :	0000000011101001;
	63 :	0000000100011011;
	62 :	0000000001111100;
	61 :	0000000000010110;
	60 :	0000000000110001;
	59 :	0000000000000010;
	58 :	0000000000101110;
	57 :	1111111111111011;
	56 :	0000000000010101;
	55 :	0000000000011011;
	54 :	1111111111100100;
	53 :	1111111111110000;
	52 :	0000000000010011;
	51 :	1111111111011001;
	50 :	1111111111101100;
	49 :	0000000001000110;
	48 :	0000000001011001;
	47 :	0000000010001001;
	46 :	1111111111111111;
	45 :	0000000000100100;
	44 :	1111111100101001;
	43 :	1111111101110100;
	42 :	0000000000110011;
	41 :	0000000010011100;
	40 :	0000000001101100;
	39 :	0000000001000010;
	38 :	0000000000110010;
	37 :	0000000000101101;
	36 :	0000000001001111;
	35 :	0000000000000101;
	34 :	1111111111100011;
	33 :	0000000001010111;
	32 :	0000000000000111;
	31 :	0000000001001110;
	30 :	0000000000000111;
	29 :	1111111111011101;
	28 :	1111111111001110;
	27 :	0000000000011101;
	26 :	1111111110111011;
	25 :	1111111111010011;
	24 :	1111111111101101;
	23 :	0000000000100100;
	22 :	1111111110110010;
	21 :	0000000000100011;
	20 :	1111111111100000;
	19 :	0000000000001110;
	18 :	1111111111100001;
	17 :	0000000000000011;
	16 :	1111111111111101;
	15 :	0000000000010001;
	14 :	0000000000001101;
	13 :	0000000000001100;
	12 :	1111111111111111;
	11 :	0000000000000001;
	10 :	0000000000000100;
	9 :	0000000000000010;
	8 :	1111111111100111;
	7 :	1111111111110011;
	6 :	0000000000101100;
	5 :	0000000000100111;
	4 :	1111111111010110;
	3 :	1111111111010001;
	2 :	0000000000011101;
	1 :	1111111111010110;
	0 :	0000000000010000;
END;
