-- begin_signature
-- weight_memory(num_weight
-- 784
-- data_width
-- 16
-- address_width
-- 10
-- weight_file
-- "C:/SystemVerilog_NPU/w_1_14.mif")
-- end_signature
WIDTH=16;
DEPTH=784;

ADDRESS_RADIX=UNS;
DATA_RADIX=BIN;

CONTENT BEGIN
	783 :	1111111111110011;
	782 :	1111111111111100;
	781 :	1111111111101011;
	780 :	0000000000111011;
	779 :	0000000000000100;
	778 :	0000000000110001;
	777 :	0000000000011010;
	776 :	1111111111001100;
	775 :	1111111111011001;
	774 :	0000000000000011;
	773 :	1111111110110001;
	772 :	0000000001011001;
	771 :	1111111110111101;
	770 :	1111111111101010;
	769 :	1111111111011111;
	768 :	0000000010100000;
	767 :	0000000000010010;
	766 :	1111111111110101;
	765 :	0000000000001001;
	764 :	0000000010110111;
	763 :	0000000100000110;
	762 :	0000000001111000;
	761 :	1111111111101101;
	760 :	0000000000000100;
	759 :	0000000000000010;
	758 :	0000000000111001;
	757 :	1111111111101100;
	756 :	0000000000010111;
	755 :	1111111111101100;
	754 :	0000000000101110;
	753 :	0000000000101001;
	752 :	1111111111000110;
	751 :	1111111111110111;
	750 :	0000000000011101;
	749 :	0000000100001100;
	748 :	0000000001001110;
	747 :	1111111001111001;
	746 :	1111111111111010;
	745 :	0000001000000100;
	744 :	1111111111001101;
	743 :	1111111100000100;
	742 :	0000000101001111;
	741 :	0000001000111001;
	740 :	0000001001000001;
	739 :	1111111001011111;
	738 :	1111110110100101;
	737 :	1111111100001010;
	736 :	1111111100100111;
	735 :	1111111111110101;
	734 :	0000000000110011;
	733 :	1111111111101110;
	732 :	0000000001001001;
	731 :	0000000000001101;
	730 :	1111111111100101;
	729 :	1111111111100110;
	728 :	0000000000011111;
	727 :	1111111111110000;
	726 :	0000000000010001;
	725 :	0000000000101000;
	724 :	0000000010111011;
	723 :	0000000011110110;
	722 :	0000000000001100;
	721 :	0000000111110001;
	720 :	0000000010110000;
	719 :	1111110011101101;
	718 :	1111110001101010;
	717 :	0000000111111011;
	716 :	1111111000100101;
	715 :	1111110110101011;
	714 :	0000000001011001;
	713 :	0000000000110010;
	712 :	0000001001110111;
	711 :	0000001000000001;
	710 :	1111101110111100;
	709 :	1111110010010001;
	708 :	1111110110001001;
	707 :	1111111000110000;
	706 :	1111110110101100;
	705 :	1111111000100111;
	704 :	1111111100101010;
	703 :	0000000000100100;
	702 :	0000000000100001;
	701 :	0000000000101000;
	700 :	0000000001000000;
	699 :	1111111111010001;
	698 :	0000000000100110;
	697 :	0000000000001001;
	696 :	0000001000100011;
	695 :	0000001100001110;
	694 :	0000000101101000;
	693 :	0000001100000010;
	692 :	0000001111011111;
	691 :	0000000110100000;
	690 :	0000001011001011;
	689 :	1111111011100010;
	688 :	0000001000110011;
	687 :	0000001010111101;
	686 :	1111110000010101;
	685 :	1111110011000111;
	684 :	0000010111101001;
	683 :	0000001010100000;
	682 :	0000000011001011;
	681 :	1111111010010111;
	680 :	0000000101100101;
	679 :	1111111101010100;
	678 :	1111110001100000;
	677 :	1111110101010100;
	676 :	1111111100100001;
	675 :	0000000000001000;
	674 :	0000000001000010;
	673 :	0000000000000000;
	672 :	0000000000001010;
	671 :	0000000000101100;
	670 :	0000000000001111;
	669 :	0000000001001011;
	668 :	0000000111010110;
	667 :	0000010001001111;
	666 :	0000001000100101;
	665 :	0000001110011011;
	664 :	0000001101000100;
	663 :	1111111101011010;
	662 :	1111111110010111;
	661 :	1111111000001100;
	660 :	0000010010110000;
	659 :	1111111000010101;
	658 :	1111111110100011;
	657 :	1111111000101011;
	656 :	1111111010100111;
	655 :	1111110001101100;
	654 :	1111111101001010;
	653 :	1111101111010010;
	652 :	0000000000010110;
	651 :	1111111101100111;
	650 :	1111111100110010;
	649 :	1111111010101100;
	648 :	1111111010010000;
	647 :	1111111111101000;
	646 :	1111111111100100;
	645 :	1111111111111011;
	644 :	1111111111110010;
	643 :	1111111111011101;
	642 :	0000000000010100;
	641 :	0000000000100110;
	640 :	0000000100000001;
	639 :	0000001001010111;
	638 :	0000000001011110;
	637 :	0000010001000000;
	636 :	1111111001110111;
	635 :	1111101110101100;
	634 :	1111111010111101;
	633 :	0000010010010010;
	632 :	0000000101000100;
	631 :	0000000010011110;
	630 :	0000011001001101;
	629 :	0000010000000110;
	628 :	1111110001100110;
	627 :	1111111101000000;
	626 :	0000001011000100;
	625 :	1111111110010011;
	624 :	0000000101010000;
	623 :	0000000100010100;
	622 :	0000001011001100;
	621 :	0000001000000101;
	620 :	1111111001100000;
	619 :	1111111111000110;
	618 :	0000000000101011;
	617 :	0000000000010101;
	616 :	0000000000000101;
	615 :	0000000000100011;
	614 :	0000000000010110;
	613 :	1111111111100011;
	612 :	1111111111000110;
	611 :	1111111000111010;
	610 :	0000000010010111;
	609 :	0000010011000111;
	608 :	0000000101000001;
	607 :	1111111111001101;
	606 :	0000001000001000;
	605 :	0000010011001000;
	604 :	1111111010000001;
	603 :	1111111011011110;
	602 :	0000001011100110;
	601 :	0000011111100101;
	600 :	1111111110011111;
	599 :	0000001111111001;
	598 :	0000000111100101;
	597 :	1111111101011100;
	596 :	0000001001101001;
	595 :	0000010001110011;
	594 :	0000010000010110;
	593 :	0000011010111010;
	592 :	0000000101111111;
	591 :	0000000010000101;
	590 :	0000000000000011;
	589 :	1111111111100101;
	588 :	0000000000010001;
	587 :	1111111110011001;
	586 :	0000000000011001;
	585 :	1111111101100010;
	584 :	1111101110101010;
	583 :	1111101110001100;
	582 :	0000000011101111;
	581 :	0000000111111110;
	580 :	1111110000110001;
	579 :	0000000011110011;
	578 :	1111110110000100;
	577 :	1111110101001001;
	576 :	1111111010101110;
	575 :	1111110011110111;
	574 :	0000001000011010;
	573 :	0000001000101001;
	572 :	0000000110110001;
	571 :	0000000101001001;
	570 :	1111111100011011;
	569 :	1111110011110010;
	568 :	0000001101101110;
	567 :	1111110001110110;
	566 :	1111111110001101;
	565 :	0000000110001101;
	564 :	0000000110000101;
	563 :	0000001001000111;
	562 :	0000000100100100;
	561 :	0000000000010001;
	560 :	1111111111100110;
	559 :	1111111111100011;
	558 :	1111111111010111;
	557 :	1111111011100101;
	556 :	1111101110100001;
	555 :	1111111010001010;
	554 :	0000000011011000;
	553 :	0000010101100000;
	552 :	0000000010110111;
	551 :	1111111011001110;
	550 :	1111111000101110;
	549 :	0000000011011110;
	548 :	1111111011111100;
	547 :	0000000010100010;
	546 :	0000000001010000;
	545 :	0000001111000000;
	544 :	0000000000110000;
	543 :	0000000101101100;
	542 :	0000001100111101;
	541 :	0000000110011000;
	540 :	0000001010001100;
	539 :	0000000110101010;
	538 :	1111111101001011;
	537 :	1111111100101111;
	536 :	1111111101011111;
	535 :	0000000111111110;
	534 :	0000000100101111;
	533 :	1111111111111000;
	532 :	1111111111010110;
	531 :	1111111111001001;
	530 :	1111111101110011;
	529 :	1111111011001110;
	528 :	1111110111010001;
	527 :	1111111010100000;
	526 :	1111110011010000;
	525 :	1111101101010010;
	524 :	1111110101101001;
	523 :	1111111000000001;
	522 :	0000000110001011;
	521 :	1111110110110101;
	520 :	0000001010110011;
	519 :	0000010001111001;
	518 :	0000010010101001;
	517 :	0000000000001010;
	516 :	0000001010101001;
	515 :	1111111110010000;
	514 :	0000001010111111;
	513 :	1111111001100010;
	512 :	1111110110110010;
	511 :	0000000101011000;
	510 :	1111111011010101;
	509 :	1111111111001101;
	508 :	1111111101100110;
	507 :	0000000000101010;
	506 :	1111111111101001;
	505 :	1111111111011001;
	504 :	0000000000011000;
	503 :	0000000010001110;
	502 :	1111111100100101;
	501 :	1111111100101110;
	500 :	1111110100001101;
	499 :	1111111011010000;
	498 :	1111101010110101;
	497 :	1111011110000000;
	496 :	1111110110111100;
	495 :	1111110011110001;
	494 :	0000001011010110;
	493 :	1111111000111111;
	492 :	0000000110001100;
	491 :	0000000001000101;
	490 :	1111110011110010;
	489 :	1111110001110110;
	488 :	1111111111011111;
	487 :	0000001011101001;
	486 :	0000000111011010;
	485 :	0000000100101000;
	484 :	0000001110010000;
	483 :	1111111001101000;
	482 :	1111111101111110;
	481 :	0000001010000100;
	480 :	0000000101010000;
	479 :	0000000011111010;
	478 :	0000000000010000;
	477 :	0000000000000111;
	476 :	1111111111111001;
	475 :	1111111111111111;
	474 :	1111111110000010;
	473 :	0000000100001011;
	472 :	1111111010001010;
	471 :	0000000010110011;
	470 :	1111110101101111;
	469 :	1111101010111010;
	468 :	1111110000100100;
	467 :	1111111110011001;
	466 :	1111111011110110;
	465 :	0000001111101000;
	464 :	1111111001100010;
	463 :	0000000100100111;
	462 :	1111110011111001;
	461 :	1111110100000101;
	460 :	0000001100101000;
	459 :	0000001111001110;
	458 :	1111111010010101;
	457 :	1111111010110011;
	456 :	1111110011000010;
	455 :	1111101101100101;
	454 :	0000000011101101;
	453 :	0000011010000110;
	452 :	0000001011110101;
	451 :	0000000010101011;
	450 :	1111111111000000;
	449 :	0000000000110110;
	448 :	0000000000010001;
	447 :	1111111111100000;
	446 :	1111111110010110;
	445 :	0000000010001000;
	444 :	0000000000010101;
	443 :	0000001010100010;
	442 :	1111110000101000;
	441 :	1111110111001001;
	440 :	1111111100101110;
	439 :	1111101111101001;
	438 :	1111111101101100;
	437 :	1111110111011111;
	436 :	0000001000111100;
	435 :	1111111110001001;
	434 :	1111110001011001;
	433 :	1111110110000011;
	432 :	1111111000100111;
	431 :	1111110001110101;
	430 :	0000000101111100;
	429 :	1111111100000110;
	428 :	0000000001001101;
	427 :	0000011011100000;
	426 :	0000000110101010;
	425 :	0000001101000111;
	424 :	0000001101010100;
	423 :	0000000000000000;
	422 :	1111111110100011;
	421 :	1111111111010111;
	420 :	1111111111100111;
	419 :	0000000000000111;
	418 :	1111111010111010;
	417 :	1111111101111001;
	416 :	0000000000000110;
	415 :	1111101010010001;
	414 :	1111111000010100;
	413 :	1111011101010110;
	412 :	0000000000000100;
	411 :	1111010101100010;
	410 :	1111111111110011;
	409 :	0000010011001110;
	408 :	0000000010001101;
	407 :	1111101110110010;
	406 :	1111101000110011;
	405 :	0000000011001000;
	404 :	0000000000100100;
	403 :	0000000110110000;
	402 :	0000010101110110;
	401 :	0000010101101010;
	400 :	0000001010101010;
	399 :	0000100011000110;
	398 :	0000001100111001;
	397 :	1111111111000101;
	396 :	1111111110111001;
	395 :	1111111111010011;
	394 :	1111111111000010;
	393 :	1111111111010111;
	392 :	1111111111010110;
	391 :	1111111110100101;
	390 :	1111111111001010;
	389 :	1111111000100010;
	388 :	1111110001001100;
	387 :	1111111000100001;
	386 :	0000000010000110;
	385 :	1111110110011000;
	384 :	1111111000000111;
	383 :	0000001000011100;
	382 :	1111110001011101;
	381 :	0000010011100110;
	380 :	1111111010100111;
	379 :	1111111010111111;
	378 :	1111100001000000;
	377 :	1111101101010101;
	376 :	1111111111110011;
	375 :	1111101111101101;
	374 :	0000001000101010;
	373 :	0000010001011111;
	372 :	0000010001000111;
	371 :	0000001011001110;
	370 :	1111111110010011;
	369 :	1111111011110000;
	368 :	1111101001101110;
	367 :	1111111011101011;
	366 :	1111111101011101;
	365 :	0000000000010110;
	364 :	0000000000000001;
	363 :	1111111110001110;
	362 :	0000000000101001;
	361 :	1111111100110011;
	360 :	0000000001110000;
	359 :	0000000010111000;
	358 :	1111110110101010;
	357 :	0000000111101001;
	356 :	0000001001101010;
	355 :	1111111001110100;
	354 :	0000001111000101;
	353 :	0000010010100101;
	352 :	0000001101110000;
	351 :	1111101000110011;
	350 :	1111010010100001;
	349 :	1111110011111101;
	348 :	1111111110010101;
	347 :	1111111101001100;
	346 :	0000001011000110;
	345 :	1111101111011010;
	344 :	1111110111100101;
	343 :	0000001001111110;
	342 :	0000000110100000;
	341 :	1111110110001001;
	340 :	1111101110110001;
	339 :	1111110111110001;
	338 :	1111111011101100;
	337 :	1111111111001101;
	336 :	1111111111101101;
	335 :	1111111111100010;
	334 :	0000000001011111;
	333 :	0000001001101100;
	332 :	0000010111111100;
	331 :	1111111111101000;
	330 :	1111110111100111;
	329 :	0000001001000111;
	328 :	0000000100111011;
	327 :	0000001101110010;
	326 :	0000110001101000;
	325 :	0000111111110001;
	324 :	0000101000000110;
	323 :	1111100010101011;
	322 :	1111100000110010;
	321 :	1111101010011001;
	320 :	1111100111111111;
	319 :	1111100001011110;
	318 :	1111110110011100;
	317 :	1111110000000100;
	316 :	1111111110000010;
	315 :	0000001101001101;
	314 :	0000000101011100;
	313 :	1111101001000101;
	312 :	1111100111000011;
	311 :	1111111001011000;
	310 :	1111111100011100;
	309 :	1111111110101011;
	308 :	1111111111010010;
	307 :	1111111101110011;
	306 :	1111111011001011;
	305 :	1111111100100111;
	304 :	0000001101011111;
	303 :	0000000111011101;
	302 :	0000001111111010;
	301 :	0000001111110110;
	300 :	0000001110010110;
	299 :	0000010010011100;
	298 :	0000100100001000;
	297 :	0000001010100111;
	296 :	1111011100000010;
	295 :	1111010111110001;
	294 :	1111010001110110;
	293 :	1111011100000111;
	292 :	1111110111110100;
	291 :	1111101000010101;
	290 :	0000000110011000;
	289 :	0000010010100110;
	288 :	0000101101110101;
	287 :	0000010111010100;
	286 :	0000001000011001;
	285 :	1111100111010111;
	284 :	1111110000111010;
	283 :	1111111011010001;
	282 :	1111111110101011;
	281 :	1111111101011101;
	280 :	1111111111101111;
	279 :	1111111000101011;
	278 :	1111111001110100;
	277 :	0000000001111010;
	276 :	0000001101100001;
	275 :	0000100001000001;
	274 :	0000100000010101;
	273 :	0000011001001110;
	272 :	0000100110000000;
	271 :	0000010110111011;
	270 :	0000010001101100;
	269 :	1111110111110010;
	268 :	1111100010101010;
	267 :	1111001001100110;
	266 :	1111000011011010;
	265 :	1111101000011000;
	264 :	1111110100001010;
	263 :	0000001001010101;
	262 :	0000010100101110;
	261 :	0000001000001100;
	260 :	0000001010100101;
	259 :	0000000011111011;
	258 :	1111111100111001;
	257 :	1111101001010010;
	256 :	1111101010001010;
	255 :	1111111010010010;
	254 :	1111111101001000;
	253 :	1111111100111110;
	252 :	0000000000011101;
	251 :	0000000000010010;
	250 :	1111111111010100;
	249 :	0000000111000010;
	248 :	0000001111001010;
	247 :	0000011000111001;
	246 :	0000100011110010;
	245 :	0000100001011010;
	244 :	0000101101011000;
	243 :	0000010110110001;
	242 :	0000010111011000;
	241 :	1111111101110100;
	240 :	1111110011110011;
	239 :	1111110011000000;
	238 :	0000000011000011;
	237 :	1111110010000001;
	236 :	0000000000111101;
	235 :	0000010011000011;
	234 :	1111101101111101;
	233 :	1111111101101110;
	232 :	0000001110000011;
	231 :	0000000100001000;
	230 :	1111111000110111;
	229 :	0000000000101111;
	228 :	1111101101011100;
	227 :	1111111010011111;
	226 :	1111111101110110;
	225 :	1111111101111111;
	224 :	0000000000001011;
	223 :	0000000000000101;
	222 :	1111111111111110;
	221 :	0000000100010110;
	220 :	0000001011011111;
	219 :	0000010001111001;
	218 :	0000011000101010;
	217 :	0000100000101010;
	216 :	0000100011111100;
	215 :	0000100001111111;
	214 :	0000010000110110;
	213 :	0000001110101100;
	212 :	0000000010010011;
	211 :	0000000101000001;
	210 :	0000000011100100;
	209 :	1111110110101000;
	208 :	0000001111101001;
	207 :	0000010010111111;
	206 :	0000011000111111;
	205 :	0000011000001010;
	204 :	0000010110001100;
	203 :	1111101000011100;
	202 :	1111100001011111;
	201 :	1111111001000010;
	200 :	1111100100100001;
	199 :	1111110101000110;
	198 :	1111111111001111;
	197 :	1111111111001100;
	196 :	0000000000101110;
	195 :	1111111111110101;
	194 :	1111111111100101;
	193 :	0000000000011101;
	192 :	0000000100110101;
	191 :	0000001010100101;
	190 :	0000010010111011;
	189 :	0000010111100100;
	188 :	0000011001011101;
	187 :	0000100010011001;
	186 :	0000001110111110;
	185 :	0000010101011111;
	184 :	1111111010001101;
	183 :	0000001000110011;
	182 :	1111110011100001;
	181 :	0000000001001101;
	180 :	0000001010111010;
	179 :	0000000100100011;
	178 :	0000000010011010;
	177 :	1111111000110011;
	176 :	0000001000001100;
	175 :	1111110101100000;
	174 :	1111011001011110;
	173 :	1111110001110001;
	172 :	1111101110001100;
	171 :	1111111001101100;
	170 :	0000000001010100;
	169 :	0000000000001110;
	168 :	0000000000111010;
	167 :	0000000000011011;
	166 :	1111111111010011;
	165 :	1111111111011100;
	164 :	0000000000000101;
	163 :	0000001001100111;
	162 :	0000010001100001;
	161 :	0000011100101111;
	160 :	0000110101100111;
	159 :	0000100011110110;
	158 :	0000010101000111;
	157 :	0000001110101011;
	156 :	1111111110011110;
	155 :	1111111100000000;
	154 :	1111111010010010;
	153 :	0000000000011000;
	152 :	1111101100010100;
	151 :	1111101101100100;
	150 :	1111111100100010;
	149 :	1111110110011010;
	148 :	1111110100110011;
	147 :	1111100101010010;
	146 :	1111111000111111;
	145 :	1111110000001101;
	144 :	1111110010001011;
	143 :	1111111100100010;
	142 :	1111111111110111;
	141 :	1111111111100010;
	140 :	1111111111110111;
	139 :	0000000000101000;
	138 :	1111111111101010;
	137 :	0000000000000000;
	136 :	0000000000110101;
	135 :	0000000100000001;
	134 :	0000001011101001;
	133 :	0000001110001000;
	132 :	0000011111111000;
	131 :	0000100110111000;
	130 :	0000011001101011;
	129 :	0000100110111101;
	128 :	0000010101110101;
	127 :	1111111100111010;
	126 :	0000001100000011;
	125 :	1111111000000100;
	124 :	1111101111001010;
	123 :	1111111011110011;
	122 :	1111110101001110;
	121 :	1111111100010110;
	120 :	1111100110000110;
	119 :	0000000011010110;
	118 :	0000000100000011;
	117 :	1111111100010000;
	116 :	0000000000001000;
	115 :	1111111111110000;
	114 :	0000000000001101;
	113 :	1111111111110111;
	112 :	0000000000000010;
	111 :	0000000000101011;
	110 :	0000000000010000;
	109 :	1111111111111110;
	108 :	1111111111101001;
	107 :	0000000001101100;
	106 :	0000000010111101;
	105 :	0000000101110110;
	104 :	0000000101100110;
	103 :	0000010000100111;
	102 :	0000011111000010;
	101 :	0000011111001100;
	100 :	0000010111110100;
	99 :	0000001100101100;
	98 :	0000010100000010;
	97 :	1111111100001011;
	96 :	1111111000010011;
	95 :	0000000101010111;
	94 :	0000001000110000;
	93 :	0000000111100101;
	92 :	1111111111010101;
	91 :	0000000001101010;
	90 :	1111111111111101;
	89 :	1111111110011000;
	88 :	0000000000010000;
	87 :	0000000000001000;
	86 :	0000000000010000;
	85 :	0000000000110100;
	84 :	0000000000011111;
	83 :	1111111111001101;
	82 :	0000000000001111;
	81 :	1111111110110111;
	80 :	1111111110011110;
	79 :	1111111111110001;
	78 :	0000000000011101;
	77 :	0000000001010010;
	76 :	0000000011011010;
	75 :	0000000110100000;
	74 :	0000001001111001;
	73 :	0000001101010011;
	72 :	0000001010000000;
	71 :	0000000101010001;
	70 :	0000000101101001;
	69 :	0000000010100011;
	68 :	0000000101010111;
	67 :	0000000110100010;
	66 :	0000000001111001;
	65 :	0000000001010011;
	64 :	0000000010010011;
	63 :	0000000001001111;
	62 :	0000000001110010;
	61 :	0000000000011101;
	60 :	1111111111111111;
	59 :	0000000000011000;
	58 :	0000000000001010;
	57 :	0000000000110110;
	56 :	0000000000001110;
	55 :	1111111111010011;
	54 :	1111111111011100;
	53 :	1111111111010110;
	52 :	1111111111101100;
	51 :	1111111111110101;
	50 :	0000000000110111;
	49 :	0000000000000010;
	48 :	0000000000011001;
	47 :	0000000000010110;
	46 :	0000000000011111;
	45 :	0000000010111010;
	44 :	0000000011111011;
	43 :	0000000000100101;
	42 :	1111111111001111;
	41 :	0000000011000101;
	40 :	0000000100000001;
	39 :	0000000010101011;
	38 :	0000000000011010;
	37 :	0000000000100101;
	36 :	0000000001011111;
	35 :	0000000001010001;
	34 :	0000000000101110;
	33 :	1111111111100001;
	32 :	1111111111110010;
	31 :	1111111110111101;
	30 :	1111111111001110;
	29 :	0000000000011001;
	28 :	1111111111111000;
	27 :	0000000000010000;
	26 :	1111111111000011;
	25 :	0000000000000010;
	24 :	1111111111100000;
	23 :	1111111111101100;
	22 :	0000000000011111;
	21 :	1111111111100010;
	20 :	0000000000001111;
	19 :	0000000000000000;
	18 :	0000000000000000;
	17 :	0000000000011100;
	16 :	0000000000001011;
	15 :	0000000000000111;
	14 :	1111111111100000;
	13 :	1111111111001011;
	12 :	1111111111110010;
	11 :	1111111111110000;
	10 :	0000000000010011;
	9 :	1111111111111101;
	8 :	0000000000000000;
	7 :	0000000000001001;
	6 :	0000000000010110;
	5 :	1111111111011001;
	4 :	1111111111101010;
	3 :	0000000000100111;
	2 :	1111111111010011;
	1 :	0000000000001110;
	0 :	1111111111101000;
END;
