-- begin_signature
-- weight_memory(num_weight
-- 784
-- data_width
-- 16
-- address_width
-- 10
-- weight_file
-- "C:/SystemVerilog_NPU/w_1_16.mif")
-- end_signature
WIDTH=16;
DEPTH=784;

ADDRESS_RADIX=UNS;
DATA_RADIX=BIN;

CONTENT BEGIN
	783 :	1111111111100110;
	782 :	1111111110110001;
	781 :	1111111111110010;
	780 :	1111111111101001;
	779 :	0000000000011010;
	778 :	1111111111110001;
	777 :	1111111111110111;
	776 :	1111111111011110;
	775 :	1111111111110100;
	774 :	0000000000010111;
	773 :	1111111111111001;
	772 :	1111111011111001;
	771 :	1111111011111001;
	770 :	0000000000100111;
	769 :	1111111111010000;
	768 :	1111111111110100;
	767 :	0000000000011111;
	766 :	0000000001110010;
	765 :	1111111111111011;
	764 :	1111111110001001;
	763 :	1111111110110101;
	762 :	1111111111110010;
	761 :	1111111111111010;
	760 :	0000000000011101;
	759 :	0000000000001111;
	758 :	1111111111111111;
	757 :	0000000000010110;
	756 :	1111111111111011;
	755 :	1111111111100001;
	754 :	0000000000011010;
	753 :	0000000000000111;
	752 :	0000000000111011;
	751 :	1111111111011101;
	750 :	0000000000011001;
	749 :	1111111111100011;
	748 :	0000000000110100;
	747 :	0000000010100101;
	746 :	0000000101011010;
	745 :	0000000010010010;
	744 :	1111111100110100;
	743 :	1111110110010010;
	742 :	1111111100000010;
	741 :	0000001000000111;
	740 :	0000000000101000;
	739 :	0000001010000010;
	738 :	0000001011000101;
	737 :	0000000100011011;
	736 :	0000000101010001;
	735 :	0000000001110110;
	734 :	0000000001101001;
	733 :	0000000001000101;
	732 :	1111111110110101;
	731 :	0000000000101011;
	730 :	1111111111110110;
	729 :	0000000000010010;
	728 :	1111111111011101;
	727 :	1111111110110100;
	726 :	1111111111111011;
	725 :	1111111111100101;
	724 :	1111111111101011;
	723 :	1111111100110111;
	722 :	1111110111100111;
	721 :	1111110111110100;
	720 :	1111110110010111;
	719 :	1111111111000000;
	718 :	0000000111101000;
	717 :	0000000111001100;
	716 :	0000000101000011;
	715 :	0000000001100000;
	714 :	0000000010010010;
	713 :	1111111001000101;
	712 :	1111111001101011;
	711 :	0000000000110101;
	710 :	0000000100000001;
	709 :	0000000001010111;
	708 :	0000000101111011;
	707 :	0000010000010111;
	706 :	0000001111011100;
	705 :	0000001001101011;
	704 :	0000000100100110;
	703 :	0000000000100010;
	702 :	0000000000110010;
	701 :	1111111111100010;
	700 :	0000000000001101;
	699 :	0000000000100011;
	698 :	0000000000000110;
	697 :	1111111111111111;
	696 :	0000000000100001;
	695 :	1111111110111010;
	694 :	1111111100100101;
	693 :	1111111000010101;
	692 :	1111101110101110;
	691 :	1111101101010010;
	690 :	0000000001001101;
	689 :	0000011101010011;
	688 :	0000001101001111;
	687 :	1111111111101111;
	686 :	0000010101000100;
	685 :	0000000010111101;
	684 :	0000000110000100;
	683 :	0000010111111100;
	682 :	1111101001100000;
	681 :	1111011100100000;
	680 :	1111111000100100;
	679 :	0000000000001110;
	678 :	0000001011000110;
	677 :	0000001110000111;
	676 :	0000001000000110;
	675 :	0000000001110011;
	674 :	0000000000101000;
	673 :	1111111111100100;
	672 :	1111111111111101;
	671 :	0000000000010011;
	670 :	1111111111111111;
	669 :	0000000000000011;
	668 :	0000000000001111;
	667 :	0000000001010001;
	666 :	0000000001101110;
	665 :	1111111111110001;
	664 :	1111111000010100;
	663 :	1111110011100110;
	662 :	0000000011100000;
	661 :	0000001101011001;
	660 :	1111110111010001;
	659 :	1111101111110111;
	658 :	1111110011110111;
	657 :	1111111111000100;
	656 :	0000000110100010;
	655 :	0000001111101011;
	654 :	1111110000101100;
	653 :	1111111010011010;
	652 :	1111110100100101;
	651 :	1111111010110100;
	650 :	1111110101001111;
	649 :	0000000010100100;
	648 :	0000000110110100;
	647 :	1111111111111110;
	646 :	0000000000110110;
	645 :	0000000000001010;
	644 :	0000000000000011;
	643 :	1111111111110001;
	642 :	0000000000100011;
	641 :	1111111111001011;
	640 :	1111111111100101;
	639 :	0000000010011111;
	638 :	0000000110001000;
	637 :	0000000110001110;
	636 :	0000000010100101;
	635 :	1111111011111011;
	634 :	1111111111011100;
	633 :	1111101100010111;
	632 :	1111111001001011;
	631 :	0000000001001010;
	630 :	1111110111010101;
	629 :	1111100111000010;
	628 :	0000001001100000;
	627 :	0000000110011010;
	626 :	0000000101110101;
	625 :	0000001010001010;
	624 :	0000000101100111;
	623 :	0000000101010100;
	622 :	0000000111010011;
	621 :	0000000110100001;
	620 :	0000000100011100;
	619 :	0000000001000100;
	618 :	0000000000000110;
	617 :	1111111110111110;
	616 :	1111111110111011;
	615 :	1111111111010100;
	614 :	1111111111011001;
	613 :	0000000001100010;
	612 :	0000000010001110;
	611 :	0000000101101001;
	610 :	0000001010101100;
	609 :	0000001111011011;
	608 :	0000001111110000;
	607 :	0000001100101011;
	606 :	0000000001110000;
	605 :	1111111011000101;
	604 :	0000000111011001;
	603 :	0000001111010011;
	602 :	0000001110100100;
	601 :	1111110111011001;
	600 :	0000000000000110;
	599 :	1111101111111110;
	598 :	0000000101110011;
	597 :	1111111110000011;
	596 :	0000000001010111;
	595 :	1111111110011101;
	594 :	0000000011110100;
	593 :	0000000000110001;
	592 :	0000000100001011;
	591 :	0000000111010010;
	590 :	0000000001100101;
	589 :	0000000000110100;
	588 :	1111111111010000;
	587 :	0000000000100101;
	586 :	1111111111111100;
	585 :	0000000011110101;
	584 :	0000000111010111;
	583 :	0000001100011011;
	582 :	0000010000100000;
	581 :	0000001010101000;
	580 :	0000001101010110;
	579 :	1111111100001100;
	578 :	1111111010000100;
	577 :	1111111101001011;
	576 :	0000001001100111;
	575 :	0000001111011011;
	574 :	1111110110110000;
	573 :	0000010000101000;
	572 :	0000000010011000;
	571 :	1111111101011000;
	570 :	1111111011010111;
	569 :	1111110011011011;
	568 :	1111110100100000;
	567 :	0000001010000101;
	566 :	0000000001000001;
	565 :	1111111100011000;
	564 :	0000000001101100;
	563 :	0000001101000101;
	562 :	1111111111110011;
	561 :	0000000001010000;
	560 :	1111111111110100;
	559 :	1111111111101101;
	558 :	1111111111010111;
	557 :	0000000100100011;
	556 :	0000000111100000;
	555 :	0000001101001001;
	554 :	0000010001100010;
	553 :	0000001011011100;
	552 :	0000000011110001;
	551 :	0000000011000000;
	550 :	0000001111000000;
	549 :	0000001000110101;
	548 :	1111101111010101;
	547 :	1111111000100001;
	546 :	1111111010001011;
	545 :	0000000011000110;
	544 :	0000001100010100;
	543 :	1111101000110111;
	542 :	1111101111111001;
	541 :	1111101000110111;
	540 :	1111110111001010;
	539 :	1111111110010110;
	538 :	0000000110100010;
	537 :	0000000101010000;
	536 :	1111111001011001;
	535 :	0000000111110010;
	534 :	0000000001010001;
	533 :	1111111110111000;
	532 :	1111111110101101;
	531 :	1111111111100011;
	530 :	0000000001110010;
	529 :	0000000111001011;
	528 :	0000010001110101;
	527 :	0000010010001111;
	526 :	0000010000100101;
	525 :	0000000111101011;
	524 :	1111111110001100;
	523 :	0000000010101100;
	522 :	0000000011000101;
	521 :	1111111010001010;
	520 :	1111110010100011;
	519 :	0000001000010100;
	518 :	1111101111011100;
	517 :	0000000011010110;
	516 :	0000001101110111;
	515 :	1111111100100101;
	514 :	1111111010111100;
	513 :	1111101110101101;
	512 :	1111111110001010;
	511 :	1111110011010000;
	510 :	0000000010110101;
	509 :	0000000100111100;
	508 :	1111111011001101;
	507 :	0000000010100111;
	506 :	0000000001101000;
	505 :	1111111111011100;
	504 :	1111111111111100;
	503 :	0000000010010000;
	502 :	0000000010101110;
	501 :	0000001011010001;
	500 :	0000001110010110;
	499 :	0000000101101100;
	498 :	0000001100110111;
	497 :	0000000110000101;
	496 :	0000000001011000;
	495 :	0000000101001111;
	494 :	1111111001111101;
	493 :	0000001100000001;
	492 :	1111111011111010;
	491 :	0000001000100100;
	490 :	0000000110011111;
	489 :	0000001011010100;
	488 :	0000001100110100;
	487 :	1111110100100111;
	486 :	1111101101101000;
	485 :	1111110101011110;
	484 :	1111111001010110;
	483 :	1111111010001000;
	482 :	0000001000001011;
	481 :	1111111010000011;
	480 :	0000000001011010;
	479 :	0000000010000101;
	478 :	0000000010101111;
	477 :	1111111111101110;
	476 :	1111111111010001;
	475 :	1111111111111010;
	474 :	0000000110010000;
	473 :	0000010000000011;
	472 :	0000010101010101;
	471 :	0000001011011011;
	470 :	0000000101001111;
	469 :	1111110100000010;
	468 :	0000000111101110;
	467 :	1111111011111101;
	466 :	0000001100110100;
	465 :	0000010001000010;
	464 :	1111111001001100;
	463 :	1111110001000001;
	462 :	1111101110000001;
	461 :	0000000000000111;
	460 :	0000000101000000;
	459 :	1111110111101100;
	458 :	0000100011100001;
	457 :	0000011000011000;
	456 :	1111111101001111;
	455 :	0000000111100101;
	454 :	0000000111001010;
	453 :	1111111100111011;
	452 :	0000000111000011;
	451 :	0000000100010101;
	450 :	0000000010001001;
	449 :	0000000000001011;
	448 :	0000000000100000;
	447 :	1111111111011000;
	446 :	0000001111110010;
	445 :	0000010011111011;
	444 :	0000010111001000;
	443 :	0000001101110010;
	442 :	0000001110011100;
	441 :	1111110111010101;
	440 :	1111111101111100;
	439 :	1111111100010100;
	438 :	0000000001000110;
	437 :	1111111111101010;
	436 :	1111101101011010;
	435 :	1111110000110111;
	434 :	1111101010011011;
	433 :	0000000011010010;
	432 :	1111110110000000;
	431 :	0000001101101111;
	430 :	0000001111110110;
	429 :	0000001011111101;
	428 :	1111111011101000;
	427 :	1111110010001010;
	426 :	0000001001001111;
	425 :	0000001011110001;
	424 :	0000000101011011;
	423 :	0000000001111101;
	422 :	0000000000100001;
	421 :	0000000000011000;
	420 :	1111111111111011;
	419 :	1111111111110100;
	418 :	0000001000010010;
	417 :	0000000111101100;
	416 :	0000010101000100;
	415 :	0000011100111111;
	414 :	0000010111101001;
	413 :	0000000000100000;
	412 :	1111101000011000;
	411 :	0000010101001110;
	410 :	0000010100110111;
	409 :	0000000111011111;
	408 :	1111111000010110;
	407 :	1111111011010011;
	406 :	0000000111100001;
	405 :	1111101110001001;
	404 :	0000000101010001;
	403 :	1111111100101001;
	402 :	1111111010011011;
	401 :	1111111111010011;
	400 :	1111110010010110;
	399 :	0000001000001010;
	398 :	0000011010100110;
	397 :	0000001011101101;
	396 :	0000001000101100;
	395 :	0000000001110001;
	394 :	0000000001000110;
	393 :	0000000000001111;
	392 :	1111111111110000;
	391 :	1111111111110111;
	390 :	0000000100111001;
	389 :	0000010111000001;
	388 :	0000100101011111;
	387 :	0000011110010111;
	386 :	0000011110111101;
	385 :	0000001110101001;
	384 :	1111101101001110;
	383 :	0000010110111010;
	382 :	0000010111100100;
	381 :	1111111111111101;
	380 :	1111110001010000;
	379 :	1111100011110011;
	378 :	0000000000000111;
	377 :	1111101111111001;
	376 :	1111101000001100;
	375 :	0000000000010000;
	374 :	0000001110111111;
	373 :	1111111100011111;
	372 :	1111110011011101;
	371 :	0000000000011010;
	370 :	0000010001001000;
	369 :	0000010000101000;
	368 :	0000001011000000;
	367 :	0000000100010100;
	366 :	0000000010111101;
	365 :	0000000000000010;
	364 :	1111111111011111;
	363 :	0000000000100000;
	362 :	0000001000010101;
	361 :	0000010111110001;
	360 :	0000010100001011;
	359 :	0000001100110110;
	358 :	0000010111111001;
	357 :	0000000011100111;
	356 :	1111110100011010;
	355 :	0000010010011111;
	354 :	0000011110110100;
	353 :	1111111000011101;
	352 :	1111111011111011;
	351 :	1111110001000101;
	350 :	1111100111111100;
	349 :	1111101100011100;
	348 :	1111001000111011;
	347 :	1111001111101010;
	346 :	0000000110101100;
	345 :	0000010100000001;
	344 :	0000010000010000;
	343 :	0000001100111111;
	342 :	0000001100001001;
	341 :	0000010000000010;
	340 :	0000000111110001;
	339 :	0000000110100000;
	338 :	1111111111110001;
	337 :	1111111111101000;
	336 :	0000000000000001;
	335 :	1111111111000001;
	334 :	0000000100101001;
	333 :	0000000111110000;
	332 :	0000001000101100;
	331 :	0000001110101101;
	330 :	0000011100100111;
	329 :	0000000110011100;
	328 :	0000000001101010;
	327 :	0000001111011011;
	326 :	0000010001100100;
	325 :	0000010101101010;
	324 :	1111101001111101;
	323 :	1111110010111100;
	322 :	0000000011010111;
	321 :	0000000111010110;
	320 :	1111100000011100;
	319 :	0000000110110010;
	318 :	1111111011010001;
	317 :	0000011001101001;
	316 :	0000011011010100;
	315 :	0000010010001001;
	314 :	0000001100001000;
	313 :	0000001110100011;
	312 :	0000001010111101;
	311 :	0000001000100010;
	310 :	1111111111001011;
	309 :	0000000001010000;
	308 :	0000000001010000;
	307 :	0000000001010001;
	306 :	0000000111010110;
	305 :	0000000100111010;
	304 :	0000000000001011;
	303 :	1111111101010101;
	302 :	0000001010110111;
	301 :	0000001110010100;
	300 :	0000011100110110;
	299 :	0000001010000100;
	298 :	0000100001110101;
	297 :	0000100101111010;
	296 :	0000010000111100;
	295 :	1111110111111100;
	294 :	1111011001111001;
	293 :	1111101001000000;
	292 :	1111110011100110;
	291 :	0000001100001011;
	290 :	0000010000010110;
	289 :	0000100100100001;
	288 :	0000010011010010;
	287 :	0000001011000010;
	286 :	0000001100000110;
	285 :	0000001101001100;
	284 :	0000001010011011;
	283 :	0000000110011101;
	282 :	0000000001101010;
	281 :	0000000000111001;
	280 :	1111111111110110;
	279 :	0000000110001101;
	278 :	0000000011110101;
	277 :	1111111110010010;
	276 :	1111110010111011;
	275 :	1111110100100001;
	274 :	0000000010001110;
	273 :	0000000110010111;
	272 :	0000001101000101;
	271 :	0000010100010100;
	270 :	0000010011110011;
	269 :	0000100000010001;
	268 :	0000010110111001;
	267 :	1111110101000010;
	266 :	1111101110011010;
	265 :	1111110010001100;
	264 :	1111110010001100;
	263 :	1111101011110000;
	262 :	0000010110011011;
	261 :	0000101110110011;
	260 :	0000011100111111;
	259 :	0000000011101000;
	258 :	0000000011100011;
	257 :	0000000010011110;
	256 :	0000000100101100;
	255 :	0000001000001111;
	254 :	0000000000011110;
	253 :	0000000000001011;
	252 :	1111111111100111;
	251 :	0000000000000100;
	250 :	0000000000001011;
	249 :	1111110011011111;
	248 :	1111100100111010;
	247 :	1111101111110111;
	246 :	1111110111001011;
	245 :	0000001001001001;
	244 :	1111110111100011;
	243 :	0000000100101100;
	242 :	0000001010110001;
	241 :	0000010001110111;
	240 :	0000011011100010;
	239 :	0000001000001001;
	238 :	1111111111001101;
	237 :	1111101001111100;
	236 :	1111100101011010;
	235 :	1111100010101111;
	234 :	0000101111011010;
	233 :	0000111111001111;
	232 :	0000011101001100;
	231 :	0000001001010010;
	230 :	1111111111110010;
	229 :	1111111100111110;
	228 :	1111111111101011;
	227 :	0000000010010000;
	226 :	0000000001101110;
	225 :	0000000000010010;
	224 :	0000000000010010;
	223 :	0000000000110101;
	222 :	1111111101101110;
	221 :	1111111100010101;
	220 :	1111110010001101;
	219 :	1111110100011110;
	218 :	0000000101100111;
	217 :	0000010000011001;
	216 :	1111110110001110;
	215 :	0000001001010110;
	214 :	0000010101001001;
	213 :	0000001110000000;
	212 :	0000010110000001;
	211 :	1111111010101110;
	210 :	1111110011101010;
	209 :	0000000110100101;
	208 :	1111111010101101;
	207 :	1111111111011000;
	206 :	0000011001010001;
	205 :	0000110111001011;
	204 :	0000100111011000;
	203 :	0000010111010011;
	202 :	0000001001000100;
	201 :	1111111100000111;
	200 :	1111111110011010;
	199 :	0000000010111001;
	198 :	0000000001001110;
	197 :	0000000010000100;
	196 :	0000000000001000;
	195 :	1111111111001100;
	194 :	1111111111011111;
	193 :	1111111111001100;
	192 :	1111101011110010;
	191 :	1111100011111110;
	190 :	1111111110100000;
	189 :	0000000101001100;
	188 :	1111110110001101;
	187 :	0000000010011110;
	186 :	0000010000101100;
	185 :	0000001101110101;
	184 :	0000001000111101;
	183 :	1111011100011000;
	182 :	1111100101011010;
	181 :	0000000101000111;
	180 :	1111101110011100;
	179 :	0000000011111011;
	178 :	0000110010101000;
	177 :	0000111110001000;
	176 :	0000101001111110;
	175 :	0000011101001101;
	174 :	0000001001001011;
	173 :	1111111101100100;
	172 :	0000000000110000;
	171 :	1111111111111110;
	170 :	0000000000001011;
	169 :	1111111111111110;
	168 :	0000000000001110;
	167 :	1111111110001010;
	166 :	1111111101101001;
	165 :	1111111101110001;
	164 :	1111101011101010;
	163 :	1111100101001111;
	162 :	1111111000001001;
	161 :	1111110110010111;
	160 :	1111110100101000;
	159 :	0000000110001010;
	158 :	0000011110001110;
	157 :	0000000000111011;
	156 :	0000000110100011;
	155 :	1111101100000011;
	154 :	1111110100000101;
	153 :	0000000000011010;
	152 :	1111111110011101;
	151 :	0000010110111101;
	150 :	0000101111101101;
	149 :	0000011111001110;
	148 :	0000011011101111;
	147 :	0000001100111101;
	146 :	0000000111000111;
	145 :	0000000010010010;
	144 :	0000000000010001;
	143 :	0000000000010101;
	142 :	0000000000110110;
	141 :	0000000000001100;
	140 :	0000000000011001;
	139 :	1111111111010010;
	138 :	0000000001101110;
	137 :	1111111111011000;
	136 :	1111110010000110;
	135 :	1111100000101101;
	134 :	1111110100001011;
	133 :	1111110011111011;
	132 :	1111111000101100;
	131 :	1111111001010000;
	130 :	1111111101110010;
	129 :	1111110111000100;
	128 :	0000000100010101;
	127 :	0000100011101000;
	126 :	0000011000001010;
	125 :	0000010010110101;
	124 :	0000011100000010;
	123 :	0000100010100001;
	122 :	0000011011011000;
	121 :	0000010101000001;
	120 :	0000011000010001;
	119 :	0000001001011101;
	118 :	0000000011110000;
	117 :	0000000000010111;
	116 :	0000000000100111;
	115 :	0000000000100101;
	114 :	1111111111101001;
	113 :	1111111111011100;
	112 :	1111111111110001;
	111 :	0000000000001101;
	110 :	1111111111100011;
	109 :	0000000010000011;
	108 :	1111111010110100;
	107 :	1111110100011001;
	106 :	1111110101000011;
	105 :	1111110011110101;
	104 :	1111110111000001;
	103 :	1111110000110011;
	102 :	1111110100001101;
	101 :	0000000101100000;
	100 :	0000001011101111;
	99 :	1111110101011101;
	98 :	1111111110010100;
	97 :	0000001111000011;
	96 :	0000010010100111;
	95 :	0000001111000010;
	94 :	0000001110010011;
	93 :	0000000101010110;
	92 :	0000000100110101;
	91 :	0000000000110100;
	90 :	0000000000001101;
	89 :	1111111111110101;
	88 :	1111111111101010;
	87 :	0000000000011001;
	86 :	0000000000000111;
	85 :	1111111111011110;
	84 :	1111111111001001;
	83 :	0000000000011001;
	82 :	1111111111110100;
	81 :	0000000010001100;
	80 :	0000000010100000;
	79 :	1111111111000000;
	78 :	1111111011110000;
	77 :	1111110111100111;
	76 :	1111111010100011;
	75 :	1111110100010110;
	74 :	1111110001000100;
	73 :	1111110000111001;
	72 :	1111111011001011;
	71 :	1111110011000110;
	70 :	1111111010010111;
	69 :	0000000000000000;
	68 :	0000000001110000;
	67 :	0000000000111100;
	66 :	0000000001110110;
	65 :	0000000010010010;
	64 :	0000000000110100;
	63 :	1111111110101100;
	62 :	0000000000010001;
	61 :	0000000000000001;
	60 :	1111111111111011;
	59 :	1111111111110111;
	58 :	1111111111111100;
	57 :	0000000000101111;
	56 :	1111111111100101;
	55 :	1111111111011001;
	54 :	1111111111011000;
	53 :	0000000000010000;
	52 :	1111111111101000;
	51 :	1111111110101001;
	50 :	1111111111001101;
	49 :	1111111110110001;
	48 :	1111111111010111;
	47 :	1111111111000111;
	46 :	1111111111110011;
	45 :	0000000001010001;
	44 :	0000000011111111;
	43 :	1111111111101100;
	42 :	1111111111001010;
	41 :	1111111110100100;
	40 :	1111111111010010;
	39 :	0000000001000110;
	38 :	0000000000000000;
	37 :	0000000000011010;
	36 :	0000000000110011;
	35 :	0000000000001111;
	34 :	0000000000010000;
	33 :	1111111111011010;
	32 :	1111111111101001;
	31 :	1111111111100110;
	30 :	1111111111011000;
	29 :	1111111110111100;
	28 :	0000000000011100;
	27 :	1111111111100000;
	26 :	0000000000000000;
	25 :	1111111111111110;
	24 :	1111111111110111;
	23 :	1111111111010100;
	22 :	1111111111100001;
	21 :	0000000000100110;
	20 :	1111111111001000;
	19 :	0000000000000101;
	18 :	1111111111000101;
	17 :	0000000000001110;
	16 :	0000000000000001;
	15 :	1111111111010100;
	14 :	0000000000000010;
	13 :	0000000000100001;
	12 :	0000000000001101;
	11 :	1111111111101111;
	10 :	0000000000100000;
	9 :	1111111111100101;
	8 :	0000000000001100;
	7 :	0000000000001011;
	6 :	0000000000110011;
	5 :	1111111111110101;
	4 :	1111111111101110;
	3 :	0000000000101101;
	2 :	1111111111011111;
	1 :	0000000000101010;
	0 :	1111111111111101;
END;
