-- begin_signature
-- weight_memory(num_weight
-- 784
-- data_width
-- 16
-- address_width
-- 10
-- weight_file
-- "C:/SystemVerilog_NPU/w_1_15.mif")
-- end_signature
WIDTH=16;
DEPTH=784;

ADDRESS_RADIX=UNS;
DATA_RADIX=BIN;

CONTENT BEGIN
	783 :	1111111111110110;
	782 :	1111111111110111;
	781 :	0000000000000100;
	780 :	1111111111011100;
	779 :	0000000000100110;
	778 :	0000000010010010;
	777 :	0000000010000101;
	776 :	0000000001000000;
	775 :	0000000001010001;
	774 :	0000000100010001;
	773 :	0000000010011111;
	772 :	0000000011011010;
	771 :	0000000010100101;
	770 :	0000000010011010;
	769 :	0000000001000100;
	768 :	0000000000110111;
	767 :	0000000000011001;
	766 :	0000000001111100;
	765 :	0000000001010011;
	764 :	0000000000101001;
	763 :	1111111111111100;
	762 :	0000000000101001;
	761 :	0000000000000111;
	760 :	0000000000100000;
	759 :	1111111111101110;
	758 :	0000000000111001;
	757 :	1111111111100111;
	756 :	0000000000001110;
	755 :	1111111110111110;
	754 :	1111111111010101;
	753 :	0000000000000010;
	752 :	1111111111110001;
	751 :	0000000000011000;
	750 :	0000000010111101;
	749 :	1111111111011001;
	748 :	0000000000010010;
	747 :	0000000001110110;
	746 :	1111111110000110;
	745 :	1111110101001010;
	744 :	1111111000011010;
	743 :	1111111111001010;
	742 :	0000010000001010;
	741 :	1111111000100011;
	740 :	1111111010101100;
	739 :	0000000011101100;
	738 :	0000000101000110;
	737 :	0000001011101000;
	736 :	0000000111001010;
	735 :	0000000011011000;
	734 :	0000000011100111;
	733 :	0000000001011011;
	732 :	0000000000000001;
	731 :	1111111111111011;
	730 :	1111111111011011;
	729 :	0000000000011000;
	728 :	1111111111011101;
	727 :	0000000000010000;
	726 :	1111111111111010;
	725 :	1111111111100101;
	724 :	1111111011111111;
	723 :	1111111110010111;
	722 :	1111111101010111;
	721 :	1111111101000100;
	720 :	1111111001000101;
	719 :	1111100001011111;
	718 :	1111101000111110;
	717 :	1111110010010111;
	716 :	1111110111101001;
	715 :	1111110010100110;
	714 :	0000000101001011;
	713 :	1111110000010010;
	712 :	1111101001100100;
	711 :	0000001001000101;
	710 :	1111011110011011;
	709 :	1111100111001110;
	708 :	1111101011111001;
	707 :	1111111000110111;
	706 :	1111110101110000;
	705 :	0000000010011110;
	704 :	0000001000000101;
	703 :	0000000000101011;
	702 :	1111111111100011;
	701 :	0000000000000000;
	700 :	0000000000010111;
	699 :	0000000000101010;
	698 :	1111111111111011;
	697 :	1111111110000100;
	696 :	1111110110011010;
	695 :	1111111101111101;
	694 :	1111111110011000;
	693 :	1111111010101011;
	692 :	1111110111010000;
	691 :	1111100110010100;
	690 :	1111100101011010;
	689 :	1111110010100111;
	688 :	1111011100000111;
	687 :	1111101010101100;
	686 :	1111011111101010;
	685 :	1111100010101010;
	684 :	1111100011010010;
	683 :	1111110100010000;
	682 :	1111011001111001;
	681 :	1111101010011001;
	680 :	1111111001100101;
	679 :	1111111101111100;
	678 :	0000000001100001;
	677 :	0000010001100100;
	676 :	0000000000000010;
	675 :	1111111011111111;
	674 :	1111111111111101;
	673 :	0000000000000001;
	672 :	0000000000001001;
	671 :	0000000000100100;
	670 :	1111111111001001;
	669 :	1111111101100101;
	668 :	1111111010000101;
	667 :	1111110000110110;
	666 :	1111110010010111;
	665 :	1111110010101011;
	664 :	1111101111101010;
	663 :	1111110110110100;
	662 :	1111011111001010;
	661 :	1111100010010001;
	660 :	1111100110111011;
	659 :	1111100110010011;
	658 :	1111110100000110;
	657 :	1111100010010010;
	656 :	1111101011100110;
	655 :	1111110101110101;
	654 :	1111110101001111;
	653 :	1111110001000110;
	652 :	0000001010010000;
	651 :	0000001111010100;
	650 :	0000000001110110;
	649 :	1111110011101101;
	648 :	1111101111111010;
	647 :	1111110011011011;
	646 :	1111111100101000;
	645 :	0000000000000010;
	644 :	1111111111110100;
	643 :	1111111111110010;
	642 :	0000000000101110;
	641 :	1111111101101100;
	640 :	1111111011100001;
	639 :	1111110010001000;
	638 :	1111110101101101;
	637 :	1111101010110100;
	636 :	1111110100000010;
	635 :	1111101111010000;
	634 :	1111100111111110;
	633 :	1111100110101001;
	632 :	1111100001100111;
	631 :	1111100110011011;
	630 :	1111111011110001;
	629 :	1111100010100110;
	628 :	1111011101011111;
	627 :	1111011101001011;
	626 :	1111100101011001;
	625 :	1111100001011110;
	624 :	1111110111100001;
	623 :	1111110110001010;
	622 :	1111110011001001;
	621 :	1111110000000001;
	620 :	1111110101111001;
	619 :	1111110101001110;
	618 :	1111111100010000;
	617 :	0000000000011110;
	616 :	1111111111110101;
	615 :	1111111111001111;
	614 :	1111111111100100;
	613 :	0000000000110010;
	612 :	0000000000001000;
	611 :	1111101100010100;
	610 :	1111100101100100;
	609 :	1111100000110101;
	608 :	1111100111011011;
	607 :	1111101110000111;
	606 :	1111001100111101;
	605 :	1111011000001000;
	604 :	1111110001001101;
	603 :	1111000100010001;
	602 :	1111001001000010;
	601 :	1111001101000110;
	600 :	1111010000101101;
	599 :	1111001011010100;
	598 :	1111010111001111;
	597 :	1111011101011001;
	596 :	1111001100101010;
	595 :	1111011111001001;
	594 :	1111101010010010;
	593 :	1111110100101011;
	592 :	1111111010111100;
	591 :	1111110000100101;
	590 :	1111111011101001;
	589 :	1111111111110001;
	588 :	0000000001000011;
	587 :	1111111110101010;
	586 :	1111111111101111;
	585 :	1111111111001110;
	584 :	0000000010101001;
	583 :	1111101011001011;
	582 :	1111010001111011;
	581 :	1111001011110001;
	580 :	1111010100011101;
	579 :	1111011111110110;
	578 :	1111100001000000;
	577 :	1111010101111111;
	576 :	1111100111010000;
	575 :	1111010010010101;
	574 :	1111011100101111;
	573 :	1111011111000011;
	572 :	1111110100110011;
	571 :	1111111000110111;
	570 :	1111110101110101;
	569 :	1111110001010101;
	568 :	1111100101001111;
	567 :	1111101100101101;
	566 :	1111110010110000;
	565 :	1111110101001101;
	564 :	1111111001101111;
	563 :	1111110101011101;
	562 :	1111111101000010;
	561 :	0000000000011011;
	560 :	0000000000001011;
	559 :	1111111111101001;
	558 :	0000000000001000;
	557 :	1111111111111101;
	556 :	1111111010111101;
	555 :	1111100111110111;
	554 :	1111011110010111;
	553 :	1111111100000110;
	552 :	1111111110100100;
	551 :	1111111011000111;
	550 :	1111110010011000;
	549 :	1111101100110001;
	548 :	1111111010111100;
	547 :	0000001110100010;
	546 :	0000001111110001;
	545 :	0000000101101101;
	544 :	0000001010111011;
	543 :	0000001100000010;
	542 :	0000010010101101;
	541 :	0000000101100010;
	540 :	0000001000000110;
	539 :	0000001110100010;
	538 :	1111111101001001;
	537 :	1111111010111111;
	536 :	1111111111000110;
	535 :	1111111010110000;
	534 :	1111111110011110;
	533 :	1111111111110111;
	532 :	1111111111101100;
	531 :	1111111111011111;
	530 :	0000000010101000;
	529 :	0000000001000001;
	528 :	1111111111100010;
	527 :	1111110111101001;
	526 :	0000000001001101;
	525 :	0000011111111010;
	524 :	0000001001111010;
	523 :	1111101111000100;
	522 :	1111110110010101;
	521 :	0000011000001010;
	520 :	0000011001101110;
	519 :	0000011110010111;
	518 :	0000100110011010;
	517 :	0000001100011010;
	516 :	1111110000101101;
	515 :	1111110110001010;
	514 :	1111111001010011;
	513 :	0000000000101010;
	512 :	0000001110111001;
	511 :	0000010001111001;
	510 :	0000010000111001;
	509 :	0000000011001010;
	508 :	0000001001001000;
	507 :	1111111100000100;
	506 :	1111111111101011;
	505 :	0000000000000011;
	504 :	1111111111100000;
	503 :	0000000000010010;
	502 :	0000000011111100;
	501 :	0000000011010010;
	500 :	0000000010111100;
	499 :	0000001101101111;
	498 :	0000000011010010;
	497 :	0000000011011110;
	496 :	1111110001100111;
	495 :	1111100111010101;
	494 :	0000100000100000;
	493 :	0000101000000111;
	492 :	0000010111010101;
	491 :	0000011011001101;
	490 :	0000001001111111;
	489 :	1111110101001000;
	488 :	0000001010101001;
	487 :	1111111101110001;
	486 :	1111101111000110;
	485 :	1111101110101110;
	484 :	1111111111011111;
	483 :	0000001100000011;
	482 :	0000001100101101;
	481 :	0000000011111011;
	480 :	0000000111011000;
	479 :	1111111111110110;
	478 :	1111111111001101;
	477 :	0000000000000111;
	476 :	0000000000110100;
	475 :	1111111111101011;
	474 :	0000000000000000;
	473 :	1111111100101011;
	472 :	1111110011100110;
	471 :	1111110111000111;
	470 :	1111101100000010;
	469 :	1111101000101000;
	468 :	0000000111001111;
	467 :	0000000100011101;
	466 :	0000100101110110;
	465 :	0000011011100011;
	464 :	0000001110111101;
	463 :	0000011001101011;
	462 :	0000010010000111;
	461 :	1111110010001001;
	460 :	1111111100111010;
	459 :	1111111010110100;
	458 :	0000001100011101;
	457 :	1111110101110101;
	456 :	0000001110101110;
	455 :	0000010001100011;
	454 :	0000001100000101;
	453 :	0000001000101110;
	452 :	0000001110000100;
	451 :	0000000101100001;
	450 :	1111111111101101;
	449 :	0000000000011101;
	448 :	1111111111111011;
	447 :	1111111111010010;
	446 :	0000000001000001;
	445 :	1111111100110011;
	444 :	1111111011100000;
	443 :	1111111110001110;
	442 :	0000000111111001;
	441 :	0000000010101000;
	440 :	0000001110001011;
	439 :	0000010110100100;
	438 :	0000001011011010;
	437 :	0000010100010110;
	436 :	0000000111010110;
	435 :	0000011011000111;
	434 :	0000000111111110;
	433 :	1111110010010010;
	432 :	1111100111100101;
	431 :	1111101100001111;
	430 :	0000001011111010;
	429 :	0000001001000101;
	428 :	0000001001100011;
	427 :	1111111101111001;
	426 :	0000001001000110;
	425 :	0000001000001111;
	424 :	0000000010001110;
	423 :	0000000101001011;
	422 :	1111111111110110;
	421 :	1111111111011100;
	420 :	0000000000100110;
	419 :	1111111111100011;
	418 :	1111111111011101;
	417 :	1111111101001110;
	416 :	1111111010101011;
	415 :	0000000101001010;
	414 :	0000001101000101;
	413 :	0000000111110010;
	412 :	0000011011001110;
	411 :	0000100000010010;
	410 :	0000010001100101;
	409 :	0000010011110101;
	408 :	0000010001101001;
	407 :	0000001100011101;
	406 :	0000000111001010;
	405 :	1111110011010101;
	404 :	1111110101101000;
	403 :	0000000011010110;
	402 :	0000001110001100;
	401 :	1111111001001011;
	400 :	0000001101100001;
	399 :	0000001100100011;
	398 :	1111111101001111;
	397 :	0000001010100001;
	396 :	0000000000111101;
	395 :	1111111010001101;
	394 :	0000000001101110;
	393 :	1111111111100111;
	392 :	0000000000001000;
	391 :	1111111111110010;
	390 :	1111111101010000;
	389 :	1111111110011100;
	388 :	1111111011010001;
	387 :	1111100000111101;
	386 :	1111101111110110;
	385 :	0000010101110011;
	384 :	0000001000111010;
	383 :	0000000010110010;
	382 :	0000000110010100;
	381 :	0000001110110011;
	380 :	0000010110101101;
	379 :	0000011001001111;
	378 :	0000001101011101;
	377 :	1111101011101111;
	376 :	1111101110101001;
	375 :	0000000000000010;
	374 :	0000100110011010;
	373 :	1111111111000101;
	372 :	1111111111111000;
	371 :	0000010010001101;
	370 :	0000001001011101;
	369 :	0000000111010110;
	368 :	0000000110100001;
	367 :	1111111000011111;
	366 :	0000000010000101;
	365 :	0000000000011010;
	364 :	0000000000000000;
	363 :	0000000001010000;
	362 :	0000000010001100;
	361 :	1111111011001001;
	360 :	1111101010111001;
	359 :	1111100100001001;
	358 :	0000000011100010;
	357 :	1111111110110010;
	356 :	0000000111000101;
	355 :	0000100010001001;
	354 :	0000011010100101;
	353 :	1111111110011010;
	352 :	0000100100010110;
	351 :	0000100101101110;
	350 :	1111101100001001;
	349 :	1111101010100010;
	348 :	1111110110101011;
	347 :	0000011101010000;
	346 :	0000000111000101;
	345 :	0000000010010110;
	344 :	0000010100111011;
	343 :	0000010110010001;
	342 :	1111111010100011;
	341 :	1111101111000101;
	340 :	1111110100001001;
	339 :	1111111110010010;
	338 :	0000000010000110;
	337 :	1111111111110000;
	336 :	0000000000000000;
	335 :	1111111111110111;
	334 :	1111111000111011;
	333 :	1111111000000001;
	332 :	1111100100101010;
	331 :	1111101010001101;
	330 :	1111110010111000;
	329 :	1111111011101110;
	328 :	0000001010100100;
	327 :	0000010010101001;
	326 :	0000010100000101;
	325 :	0000011010111000;
	324 :	0000010111110011;
	323 :	0000100001010000;
	322 :	0000010000001000;
	321 :	1111111100010110;
	320 :	0000011101011101;
	319 :	0000011000110011;
	318 :	0000000001101010;
	317 :	1111110110000010;
	316 :	1111111001000100;
	315 :	0000001000010100;
	314 :	1111110101110101;
	313 :	1111100111101101;
	312 :	1111101001010101;
	311 :	0000000010010001;
	310 :	0000000010101001;
	309 :	0000000000011001;
	308 :	1111111111101101;
	307 :	0000000000010001;
	306 :	1111111001010001;
	305 :	1111111011110010;
	304 :	1111101000110010;
	303 :	1111100001001101;
	302 :	1111110111000000;
	301 :	1111110011011001;
	300 :	1111110110010011;
	299 :	0000011001100010;
	298 :	1111111100100100;
	297 :	1111110001111111;
	296 :	1111110011111010;
	295 :	0000001001111010;
	294 :	1111111000111101;
	293 :	0000001111111110;
	292 :	0000010111110110;
	291 :	0000000011101100;
	290 :	1111100100110011;
	289 :	0000001110010111;
	288 :	1111110111000110;
	287 :	1111111111101110;
	286 :	0000000001010001;
	285 :	0000000001111010;
	284 :	1111110000101011;
	283 :	1111111010101011;
	282 :	1111111111111111;
	281 :	0000000001000111;
	280 :	1111111111011010;
	279 :	0000000000101000;
	278 :	1111111001100111;
	277 :	1111101110110111;
	276 :	1111101111001101;
	275 :	1111110001100000;
	274 :	0000001111001001;
	273 :	1111111101001001;
	272 :	0000000001011110;
	271 :	0000000111010101;
	270 :	0000010111010010;
	269 :	0000001011111010;
	268 :	1111110010010010;
	267 :	1111110100111101;
	266 :	1111110110000101;
	265 :	0000000001111000;
	264 :	1111111011100000;
	263 :	0000011000010100;
	262 :	0000010101111111;
	261 :	0000000001000000;
	260 :	0000000001111001;
	259 :	0000000000100110;
	258 :	0000001011010111;
	257 :	0000001010111110;
	256 :	1111110010001011;
	255 :	1111111100101101;
	254 :	1111111100000011;
	253 :	0000000000000101;
	252 :	1111111111101000;
	251 :	1111111111111111;
	250 :	1111111101000111;
	249 :	1111111111011101;
	248 :	1111111101100101;
	247 :	1111111000110010;
	246 :	1111111110011001;
	245 :	1111111000011000;
	244 :	0000000101111101;
	243 :	0000000100001000;
	242 :	0000001110110100;
	241 :	1111111010000011;
	240 :	1111101100010110;
	239 :	0000000110010001;
	238 :	1111111000000101;
	237 :	1111110001010110;
	236 :	1111110100000111;
	235 :	0000001011000010;
	234 :	0000000011010010;
	233 :	0000001110011010;
	232 :	0000010100101011;
	231 :	0000000100001010;
	230 :	0000001100011010;
	229 :	1111111001100111;
	228 :	1111101101010011;
	227 :	1111111111000011;
	226 :	0000000100110110;
	225 :	0000000001101111;
	224 :	1111111111001001;
	223 :	1111111111101001;
	222 :	0000000100100100;
	221 :	1111111100001101;
	220 :	1111111100010011;
	219 :	0000000001100010;
	218 :	1111110011110001;
	217 :	1111111000111100;
	216 :	0000001111000111;
	215 :	0000000111011110;
	214 :	1111101101110011;
	213 :	0000010010010011;
	212 :	0000000100100011;
	211 :	1111111011110101;
	210 :	1111110010110101;
	209 :	1111110110011100;
	208 :	0000001011101000;
	207 :	0000001000001110;
	206 :	0000010001110110;
	205 :	0000001000101110;
	204 :	1111111001000111;
	203 :	0000000110100011;
	202 :	0000010101010110;
	201 :	1111110100110100;
	200 :	1111110100010001;
	199 :	0000000011110001;
	198 :	1111111111011010;
	197 :	1111111101011100;
	196 :	1111111111000110;
	195 :	1111111111011110;
	194 :	1111111111001101;
	193 :	1111110011001100;
	192 :	1111110110011111;
	191 :	1111101010001110;
	190 :	1111110111100101;
	189 :	1111111110001010;
	188 :	1111110000101000;
	187 :	1111101111011010;
	186 :	1111110000010011;
	185 :	0000010000010100;
	184 :	0000001101100100;
	183 :	0000001011101101;
	182 :	0000000110010011;
	181 :	1111110011000111;
	180 :	0000001000111000;
	179 :	0000000000110010;
	178 :	0000000111101100;
	177 :	0000000010011010;
	176 :	0000010111110000;
	175 :	0000010011011000;
	174 :	0000100001010100;
	173 :	0000001110000001;
	172 :	1111110111110111;
	171 :	1111111100111001;
	170 :	1111111101011000;
	169 :	0000000000001010;
	168 :	1111111111110011;
	167 :	0000000000001011;
	166 :	1111111101011110;
	165 :	1111111010001100;
	164 :	1111111100100000;
	163 :	1111111101000010;
	162 :	0000000000011101;
	161 :	1111101110101001;
	160 :	1111101110110010;
	159 :	1111100010000101;
	158 :	1111110100000011;
	157 :	1111100110101100;
	156 :	1111100110100101;
	155 :	1111101001101111;
	154 :	1111110001101111;
	153 :	1111101101111001;
	152 :	1111110010111000;
	151 :	1111101011101001;
	150 :	0000000010001100;
	149 :	0000000101101010;
	148 :	0000010000110011;
	147 :	0000000010111001;
	146 :	0000001010110101;
	145 :	0000000111010101;
	144 :	1111111111001000;
	143 :	1111111110111100;
	142 :	0000000000100010;
	141 :	0000000000101101;
	140 :	0000000000100101;
	139 :	1111111111100011;
	138 :	1111111110001100;
	137 :	1111111000111110;
	136 :	1111111101011100;
	135 :	0000000100111000;
	134 :	0000001011001101;
	133 :	0000000101101101;
	132 :	0000000111110001;
	131 :	0000000001000000;
	130 :	1111101101001011;
	129 :	1111100011100110;
	128 :	1111011000000011;
	127 :	1111011000100001;
	126 :	1111110100010000;
	125 :	1111110110001101;
	124 :	1111101101100000;
	123 :	1111100111100111;
	122 :	1111101101001110;
	121 :	1111101110110010;
	120 :	1111110110110101;
	119 :	1111110101111110;
	118 :	1111111101011011;
	117 :	1111111111011101;
	116 :	1111111110011111;
	115 :	1111111111000111;
	114 :	0000000000010001;
	113 :	1111111111001010;
	112 :	1111111111111100;
	111 :	1111111111100100;
	110 :	1111111111010000;
	109 :	1111111111010010;
	108 :	1111111101001101;
	107 :	1111111011110100;
	106 :	1111111011010111;
	105 :	1111111100110000;
	104 :	0000000011000100;
	103 :	1111111010111111;
	102 :	1111101011011000;
	101 :	1111100110101010;
	100 :	1111011010101111;
	99 :	1111100111100101;
	98 :	1111110010000010;
	97 :	1111101110100001;
	96 :	1111101110000000;
	95 :	1111110001110100;
	94 :	1111110011001111;
	93 :	1111110011110101;
	92 :	1111110010001100;
	91 :	1111111010010011;
	90 :	1111111100001100;
	89 :	0000000000000100;
	88 :	1111111111100110;
	87 :	1111111111100100;
	86 :	0000000000000110;
	85 :	0000000001011100;
	84 :	0000000000001101;
	83 :	0000000000101001;
	82 :	1111111111100100;
	81 :	1111111110111100;
	80 :	1111111110101100;
	79 :	1111111110111011;
	78 :	1111111110111011;
	77 :	1111111110010001;
	76 :	1111111011110110;
	75 :	1111111010101110;
	74 :	1111110110011110;
	73 :	1111110011100100;
	72 :	1111110011001111;
	71 :	1111111011001100;
	70 :	1111111101100000;
	69 :	1111111100000000;
	68 :	1111111001111100;
	67 :	1111111001100100;
	66 :	1111111010111010;
	65 :	1111111101000001;
	64 :	1111111011000100;
	63 :	1111111100100011;
	62 :	1111111111001011;
	61 :	1111111111110000;
	60 :	0000000000100100;
	59 :	1111111111100001;
	58 :	1111111111101001;
	57 :	0000000000110010;
	56 :	1111111111101110;
	55 :	0000000000010011;
	54 :	1111111111110001;
	53 :	0000000000001001;
	52 :	0000000000111000;
	51 :	1111111111010111;
	50 :	0000000000100001;
	49 :	1111111111110001;
	48 :	0000000000100101;
	47 :	0000000000011111;
	46 :	1111111110111111;
	45 :	1111111110111000;
	44 :	1111111101111110;
	43 :	1111111111000001;
	42 :	1111111111101111;
	41 :	1111111111101101;
	40 :	1111111110100000;
	39 :	1111111111010101;
	38 :	1111111110111101;
	37 :	1111111111011001;
	36 :	1111111110100000;
	35 :	1111111111110100;
	34 :	0000000000001001;
	33 :	0000000000001101;
	32 :	0000000000000111;
	31 :	1111111111110010;
	30 :	0000000000111101;
	29 :	0000000000001110;
	28 :	0000000000000100;
	27 :	1111111111111001;
	26 :	1111111111010000;
	25 :	0000000000111100;
	24 :	0000000000001000;
	23 :	0000000000000101;
	22 :	1111111111111101;
	21 :	0000000000000110;
	20 :	1111111111101000;
	19 :	0000000000100000;
	18 :	0000000000000011;
	17 :	1111111111111001;
	16 :	1111111111010111;
	15 :	0000000000001001;
	14 :	1111111111100010;
	13 :	0000000000011011;
	12 :	1111111111101000;
	11 :	0000000000000001;
	10 :	1111111111100010;
	9 :	1111111111001010;
	8 :	1111111111101011;
	7 :	1111111111011000;
	6 :	1111111111001111;
	5 :	1111111111111001;
	4 :	1111111111110110;
	3 :	0000000000011011;
	2 :	1111111111110001;
	1 :	0000000000000110;
	0 :	1111111111110011;
END;
