-- begin_signature
-- weight_memory(num_weight
-- 784
-- data_width
-- 16
-- address_width
-- 10
-- weight_file
-- "C:/SystemVerilog_NPU/w_1_11.mif")
-- end_signature
WIDTH=16;
DEPTH=784;

ADDRESS_RADIX=UNS;
DATA_RADIX=BIN;

CONTENT BEGIN
	783 :	1111111110111110;
	782 :	1111111111100010;
	781 :	1111111111110001;
	780 :	1111111111110010;
	779 :	1111111111011111;
	778 :	1111111111100101;
	777 :	0000000000010010;
	776 :	0000000001011100;
	775 :	1111111111111010;
	774 :	1111111100011110;
	773 :	1111111111110100;
	772 :	0000000001011010;
	771 :	1111111110011010;
	770 :	1111111101111001;
	769 :	1111111111100110;
	768 :	1111111101001000;
	767 :	1111111101111010;
	766 :	1111111101100010;
	765 :	1111111111000001;
	764 :	1111111101010110;
	763 :	1111111101100000;
	762 :	1111111111010100;
	761 :	0000000000010000;
	760 :	0000000000001101;
	759 :	1111111111111110;
	758 :	0000000000000000;
	757 :	1111111111111010;
	756 :	0000000000101110;
	755 :	1111111111011001;
	754 :	0000000000001110;
	753 :	1111111111010111;
	752 :	1111111111000101;
	751 :	1111111111101000;
	750 :	1111111110100111;
	749 :	1111110101111001;
	748 :	1111110111100000;
	747 :	1111111110000011;
	746 :	1111111011001010;
	745 :	1111110111100101;
	744 :	1111111110100000;
	743 :	1111111001100111;
	742 :	1111101100000100;
	741 :	1111100111001101;
	740 :	1111110001001010;
	739 :	1111110001101100;
	738 :	1111101001111001;
	737 :	1111110011001001;
	736 :	1111111000101110;
	735 :	1111110111110101;
	734 :	1111111011111000;
	733 :	1111111100101011;
	732 :	1111111101110101;
	731 :	1111111111100111;
	730 :	1111111111010100;
	729 :	0000000000010010;
	728 :	1111111111101000;
	727 :	0000000000101001;
	726 :	0000000001000001;
	725 :	1111111111110000;
	724 :	1111111111010100;
	723 :	1111111110011111;
	722 :	1111111011100101;
	721 :	1111111010010010;
	720 :	1111111001011101;
	719 :	1111110011000111;
	718 :	1111110101101110;
	717 :	1111101101011111;
	716 :	1111110110001001;
	715 :	0000000101111111;
	714 :	0000000001100100;
	713 :	0000000010010000;
	712 :	1111111100110010;
	711 :	0000000010101010;
	710 :	0000000000001001;
	709 :	1111111001101110;
	708 :	1111110111110111;
	707 :	1111110111110001;
	706 :	1111111011111010;
	705 :	1111111101111110;
	704 :	0000000010001010;
	703 :	0000000000100111;
	702 :	1111111110110110;
	701 :	1111111111110101;
	700 :	0000000000110110;
	699 :	1111111111110010;
	698 :	0000000000101100;
	697 :	0000000010101000;
	696 :	0000000001001111;
	695 :	0000000011110110;
	694 :	0000000101101001;
	693 :	0000000010101001;
	692 :	0000000001101101;
	691 :	0000001111011110;
	690 :	0000000001100001;
	689 :	1111110110110111;
	688 :	0000001110010010;
	687 :	1111111110110010;
	686 :	1111111000110101;
	685 :	1111110100010011;
	684 :	1111101011111100;
	683 :	1111110001000011;
	682 :	1111110000100101;
	681 :	1111110110000011;
	680 :	1111110111000000;
	679 :	1111110000111111;
	678 :	0000000000111010;
	677 :	0000000001000001;
	676 :	1111111101100000;
	675 :	1111111010001111;
	674 :	1111111101111110;
	673 :	0000000001011010;
	672 :	1111111111001100;
	671 :	1111111111011111;
	670 :	1111111111011100;
	669 :	1111111111111000;
	668 :	1111111010000001;
	667 :	1111111011001000;
	666 :	1111111010111111;
	665 :	1111111111111111;
	664 :	1111111100000010;
	663 :	0000000100101110;
	662 :	0000001111001110;
	661 :	0000001000111001;
	660 :	0000000010011010;
	659 :	1111110110000101;
	658 :	0000001100010101;
	657 :	1111100110111101;
	656 :	1111110110001101;
	655 :	1111101001001001;
	654 :	1111101001101111;
	653 :	1111101110011010;
	652 :	1111110110010000;
	651 :	1111111101010001;
	650 :	1111111010000001;
	649 :	1111110101001111;
	648 :	1111110100111100;
	647 :	1111111010010011;
	646 :	1111111110011100;
	645 :	0000000000100100;
	644 :	0000000000000101;
	643 :	0000000000101011;
	642 :	0000000000000100;
	641 :	0000000010011111;
	640 :	1111111100111011;
	639 :	1111111010101101;
	638 :	1111110110111111;
	637 :	1111111011101101;
	636 :	1111111001101011;
	635 :	1111111110101100;
	634 :	0000000010100100;
	633 :	0000000110110100;
	632 :	1111111111100011;
	631 :	1111111010011100;
	630 :	0000001100010100;
	629 :	1111101111110100;
	628 :	1111110100101101;
	627 :	1111110111100011;
	626 :	1111110000101010;
	625 :	1111111000001000;
	624 :	0000001010010011;
	623 :	1111111000010001;
	622 :	1111101100111010;
	621 :	1111110001111001;
	620 :	1111111000000010;
	619 :	1111111011101111;
	618 :	1111111110101000;
	617 :	1111111111111101;
	616 :	1111111111110001;
	615 :	1111111111100100;
	614 :	0000000000101000;
	613 :	0000000110100110;
	612 :	1111111111010001;
	611 :	1111111111000100;
	610 :	1111101101101011;
	609 :	1111101110100101;
	608 :	1111110111001111;
	607 :	1111110101011010;
	606 :	1111111011001111;
	605 :	1111111011110110;
	604 :	0000000101111000;
	603 :	0000000010110001;
	602 :	0000001110001010;
	601 :	1111110010100010;
	600 :	1111111100001111;
	599 :	1111111001100001;
	598 :	1111110000010101;
	597 :	1111110000111101;
	596 :	1111110011111101;
	595 :	1111101001101001;
	594 :	1111101101100010;
	593 :	1111111001110111;
	592 :	1111111101011000;
	591 :	1111111011100111;
	590 :	1111111110011100;
	589 :	0000000000000110;
	588 :	0000000000000111;
	587 :	0000000000010100;
	586 :	0000000000111100;
	585 :	0000000001001001;
	584 :	0000000010110001;
	583 :	1111101011111000;
	582 :	1111011110010111;
	581 :	1111101101011000;
	580 :	0000000011000111;
	579 :	1111111001001011;
	578 :	0000001110111001;
	577 :	0000011000100010;
	576 :	0000010111110010;
	575 :	0000001111100011;
	574 :	0000000111000101;
	573 :	0000001110011000;
	572 :	0000010000010110;
	571 :	1111111111000111;
	570 :	1111110001000001;
	569 :	1111011010100101;
	568 :	1111100110001100;
	567 :	1111110001110101;
	566 :	1111101110010010;
	565 :	0000000001100100;
	564 :	0000000111000000;
	563 :	1111111100011001;
	562 :	0000000000010110;
	561 :	1111111111001111;
	560 :	1111111111110110;
	559 :	1111111111100110;
	558 :	0000000000000111;
	557 :	1111111110100100;
	556 :	1111111101110101;
	555 :	1111101001010011;
	554 :	1111101001011001;
	553 :	1111110011000010;
	552 :	1111111100100000;
	551 :	1111111010001111;
	550 :	0000001011001100;
	549 :	0000000110001110;
	548 :	0000001011110011;
	547 :	0000001111110011;
	546 :	0000000111100110;
	545 :	0000011001011011;
	544 :	0000001111000001;
	543 :	1111111111111011;
	542 :	1111101110111111;
	541 :	1111100111100011;
	540 :	1111101111011001;
	539 :	1111111111101001;
	538 :	1111110100110101;
	537 :	1111111011101110;
	536 :	0000001001101101;
	535 :	1111111101000000;
	534 :	1111111111101101;
	533 :	1111111111100110;
	532 :	1111111111100110;
	531 :	0000000001101101;
	530 :	0000000010000011;
	529 :	0000000011111101;
	528 :	0000000010000111;
	527 :	1111101100101001;
	526 :	1111110100110110;
	525 :	1111110110011100;
	524 :	1111101111111101;
	523 :	1111110101101111;
	522 :	0000001100000000;
	521 :	0000000111011000;
	520 :	0000001010001101;
	519 :	1111111000100100;
	518 :	0000000011100001;
	517 :	0000010001101110;
	516 :	0000011111111010;
	515 :	0000001000011010;
	514 :	1111011010001110;
	513 :	1111010110011000;
	512 :	1111110011101110;
	511 :	1111111001111101;
	510 :	1111110011000010;
	509 :	1111111010010001;
	508 :	0000001100101010;
	507 :	1111111101110000;
	506 :	1111111101110110;
	505 :	1111111111110000;
	504 :	0000000000001011;
	503 :	1111111111101101;
	502 :	0000000010100111;
	501 :	0000001000000010;
	500 :	0000001100011111;
	499 :	0000000001011100;
	498 :	0000000011100110;
	497 :	0000000010001010;
	496 :	0000000001111100;
	495 :	1111110101000110;
	494 :	0000001000000000;
	493 :	0000010001010011;
	492 :	0000000001010110;
	491 :	1111111100011100;
	490 :	0000011111110010;
	489 :	0000101011010111;
	488 :	0000011101000100;
	487 :	1111100110001001;
	486 :	1111101001001111;
	485 :	1111110100011001;
	484 :	0000000011011010;
	483 :	1111111110010000;
	482 :	1111110111001100;
	481 :	1111111011100101;
	480 :	0000000110110000;
	479 :	1111111010001100;
	478 :	1111111100110000;
	477 :	1111111111000101;
	476 :	0000000000001110;
	475 :	0000000000000000;
	474 :	1111111111001001;
	473 :	0000000110101011;
	472 :	0000001101001000;
	471 :	0000001001101011;
	470 :	1111101001010011;
	469 :	0000000001100110;
	468 :	0000010011111110;
	467 :	0000000001111001;
	466 :	0000001000010011;
	465 :	0000001000110000;
	464 :	1111111011010001;
	463 :	0000010111110101;
	462 :	0000111111010100;
	461 :	0000101011000011;
	460 :	1111111000000110;
	459 :	1111010011000111;
	458 :	1111100111000011;
	457 :	0000000001010011;
	456 :	0000000110011101;
	455 :	0000000111010111;
	454 :	1111111011000000;
	453 :	1111111011001011;
	452 :	0000000111110011;
	451 :	0000000011001101;
	450 :	1111111100110101;
	449 :	1111111111100010;
	448 :	0000000000011110;
	447 :	0000000000001001;
	446 :	1111111111110100;
	445 :	0000000111101101;
	444 :	0000000011010000;
	443 :	1111110111011001;
	442 :	0000001001001101;
	441 :	0000000010110000;
	440 :	0000001010000111;
	439 :	1111111100000010;
	438 :	0000001000110110;
	437 :	0000000001001100;
	436 :	0000000100000101;
	435 :	0000101110110100;
	434 :	0000100010001001;
	433 :	0000000010000010;
	432 :	1111001110101001;
	431 :	1111101000100011;
	430 :	0000001000010011;
	429 :	0000000100110110;
	428 :	0000000000000011;
	427 :	0000000011111101;
	426 :	1111101110011111;
	425 :	1111110111000100;
	424 :	0000001100011000;
	423 :	0000001101111101;
	422 :	0000000010000000;
	421 :	1111111101000001;
	420 :	1111111110111011;
	419 :	1111111111111100;
	418 :	1111111111001111;
	417 :	0000001001010001;
	416 :	1111111001011010;
	415 :	0000000100111101;
	414 :	0000010000000001;
	413 :	0000000000001101;
	412 :	1111111001110111;
	411 :	0000010100101110;
	410 :	0000001000110100;
	409 :	0000010010001000;
	408 :	0000001101001101;
	407 :	0000001010111001;
	406 :	0000010101011101;
	405 :	1111101111100111;
	404 :	1111100010100010;
	403 :	1111111001111010;
	402 :	0000010000010111;
	401 :	1111111101111101;
	400 :	0000000111001011;
	399 :	0000001000100011;
	398 :	0000000011110011;
	397 :	0000001010110111;
	396 :	0000001100101100;
	395 :	0000001000100001;
	394 :	0000000000011000;
	393 :	1111111110000110;
	392 :	0000000000001100;
	391 :	0000000000010010;
	390 :	0000000000011011;
	389 :	0000000010011111;
	388 :	1111111110100110;
	387 :	1111111101011010;
	386 :	0000010010110011;
	385 :	0000000011010001;
	384 :	1111111100111010;
	383 :	0000001010111111;
	382 :	0000011000010110;
	381 :	0000011011001011;
	380 :	0000001000111110;
	379 :	0000001011011011;
	378 :	0000001011010011;
	377 :	1111011100011111;
	376 :	1111101111000111;
	375 :	0000010010001010;
	374 :	0000010111000001;
	373 :	0000000010100100;
	372 :	1111111001001010;
	371 :	0000001000000100;
	370 :	0000000100000011;
	369 :	1111111101011110;
	368 :	0000001000001010;
	367 :	0000001000010110;
	366 :	0000000001001010;
	365 :	1111111111011101;
	364 :	0000000000111000;
	363 :	1111111111111101;
	362 :	1111111101010100;
	361 :	1111111000101111;
	360 :	1111111000111011;
	359 :	1111110000111111;
	358 :	0000000101011010;
	357 :	0000000111110010;
	356 :	1111110011111100;
	355 :	1111111011001100;
	354 :	0000011001000000;
	353 :	0000010111000111;
	352 :	0000100011000100;
	351 :	0000000110001110;
	350 :	1111011100100011;
	349 :	1111110101001100;
	348 :	0000010001011100;
	347 :	0000000100101101;
	346 :	0000000011100001;
	345 :	0000000000101000;
	344 :	0000000111000000;
	343 :	0000000010010000;
	342 :	0000000001001101;
	341 :	0000000110010011;
	340 :	1111111110010110;
	339 :	0000001000110101;
	338 :	0000000001010101;
	337 :	1111111111110100;
	336 :	1111111111111001;
	335 :	1111111111001001;
	334 :	1111111011010111;
	333 :	1111110000000111;
	332 :	1111011000001011;
	331 :	1111100010011000;
	330 :	1111111000000001;
	329 :	1111111010010101;
	328 :	1111101001101001;
	327 :	1111111011001000;
	326 :	0000010001100001;
	325 :	0000011010100000;
	324 :	0000001100101011;
	323 :	1111111000111011;
	322 :	1111111000010101;
	321 :	1111111000111000;
	320 :	1111111110111001;
	319 :	1111110001111001;
	318 :	0000010001000111;
	317 :	0000010000100000;
	316 :	1111101111110100;
	315 :	0000001111010101;
	314 :	0000010010101110;
	313 :	0000000111000001;
	312 :	1111111010110011;
	311 :	0000000011101111;
	310 :	1111111101111111;
	309 :	0000000001000111;
	308 :	1111111111101001;
	307 :	1111111111110011;
	306 :	1111111000100010;
	305 :	1111110100000000;
	304 :	1111100100110001;
	303 :	1111100110110001;
	302 :	1111110111001101;
	301 :	1111111101001001;
	300 :	1111100001100011;
	299 :	1111101111101000;
	298 :	0000001011111111;
	297 :	0000011010100110;
	296 :	0000000001010011;
	295 :	1111100111000010;
	294 :	1111011110010100;
	293 :	1111101100110100;
	292 :	1111100111000110;
	291 :	1111110001101101;
	290 :	1111111011000111;
	289 :	1111111101110010;
	288 :	0000000101000001;
	287 :	0000001001011010;
	286 :	0000001000100110;
	285 :	0000000110101111;
	284 :	0000000001010011;
	283 :	1111111111101000;
	282 :	0000000000101110;
	281 :	0000000001100110;
	280 :	0000000000011111;
	279 :	1111111101110100;
	278 :	1111110111011001;
	277 :	1111110011100110;
	276 :	1111110001001000;
	275 :	1111111101110100;
	274 :	1111111010000010;
	273 :	0000000110000111;
	272 :	1111111001100111;
	271 :	1111100001001111;
	270 :	1111101010110101;
	269 :	1111111110010110;
	268 :	1111111011001111;
	267 :	1111101001000010;
	266 :	0000000110110100;
	265 :	1111101011110100;
	264 :	1111101001000111;
	263 :	1111110100010110;
	262 :	1111111101100001;
	261 :	0000000100101110;
	260 :	1111111101111100;
	259 :	0000000100110011;
	258 :	0000000000100001;
	257 :	0000001100111111;
	256 :	0000000010101101;
	255 :	0000000000001110;
	254 :	1111111111111001;
	253 :	1111111111111101;
	252 :	1111111111010110;
	251 :	1111111110111111;
	250 :	1111111011111101;
	249 :	1111110011010011;
	248 :	1111111111000100;
	247 :	0000000000101110;
	246 :	1111111011111010;
	245 :	1111111100010011;
	244 :	0000000011000101;
	243 :	1111101001100110;
	242 :	1111011000100000;
	241 :	1111001010111001;
	240 :	1111101001010011;
	239 :	0000010100001000;
	238 :	0000000010011001;
	237 :	1111110101010000;
	236 :	0000010010010111;
	235 :	0000001001010011;
	234 :	1111111100011111;
	233 :	0000000000101000;
	232 :	0000000110010100;
	231 :	0000000001110000;
	230 :	1111111010110011;
	229 :	1111111011110010;
	228 :	1111111001101001;
	227 :	1111111110010110;
	226 :	0000000001001101;
	225 :	0000000000000101;
	224 :	1111111111100110;
	223 :	1111111111100111;
	222 :	1111111100000000;
	221 :	0000000011110111;
	220 :	0000001101011111;
	219 :	0000010001001101;
	218 :	1111111011111010;
	217 :	1111111010000000;
	216 :	0000000110010000;
	215 :	1111110110011110;
	214 :	1111100001000001;
	213 :	1111011110110010;
	212 :	1111011010111100;
	211 :	1111111001111110;
	210 :	0000000000111001;
	209 :	0000001111101000;
	208 :	0000001011100100;
	207 :	0000000101011101;
	206 :	1111111000010010;
	205 :	0000001001000010;
	204 :	0000000000100000;
	203 :	1111111110110000;
	202 :	1111111001111110;
	201 :	1111111010100110;
	200 :	0000000001001010;
	199 :	0000000010101001;
	198 :	0000000001001000;
	197 :	1111111111111010;
	196 :	0000000000011001;
	195 :	0000000000000000;
	194 :	1111111101010111;
	193 :	1111111101001010;
	192 :	0000000110111100;
	191 :	0000001111010001;
	190 :	1111111101110110;
	189 :	0000000101110101;
	188 :	1111111101100001;
	187 :	0000000000000011;
	186 :	1111101010101001;
	185 :	1111110001000100;
	184 :	1111100111100000;
	183 :	1111101001010101;
	182 :	1111111001100000;
	181 :	0000000000000000;
	180 :	0000001100011010;
	179 :	1111110011100001;
	178 :	0000001000111100;
	177 :	0000000001101110;
	176 :	0000001011011011;
	175 :	0000001011101101;
	174 :	0000000011110011;
	173 :	1111111111111011;
	172 :	0000000001111101;
	171 :	1111111110010111;
	170 :	1111111110010000;
	169 :	1111111110111110;
	168 :	1111111111010000;
	167 :	0000000000100110;
	166 :	1111111111110001;
	165 :	0000000111000000;
	164 :	0000001110000100;
	163 :	0000010011001001;
	162 :	0000000011010100;
	161 :	1111111000110001;
	160 :	1111100111110111;
	159 :	1111100010100010;
	158 :	1111100000111100;
	157 :	1111110001111111;
	156 :	1111110010101000;
	155 :	1111110101001001;
	154 :	1111110011111100;
	153 :	1111110011010010;
	152 :	1111110100111100;
	151 :	1111101000011000;
	150 :	1111111100101010;
	149 :	1111110110101001;
	148 :	0000000011101010;
	147 :	0000000011001010;
	146 :	0000000010010110;
	145 :	1111111111010111;
	144 :	1111111111100101;
	143 :	1111111111010011;
	142 :	1111111111101001;
	141 :	1111111111110011;
	140 :	1111111111101111;
	139 :	1111111111111010;
	138 :	1111111111011110;
	137 :	0000000001111111;
	136 :	0000001011011010;
	135 :	0000001100111110;
	134 :	0000000110110101;
	133 :	1111111110011101;
	132 :	1111111011011101;
	131 :	1111110010100001;
	130 :	1111100011101000;
	129 :	1111111000110100;
	128 :	0000000100001100;
	127 :	1111111111011000;
	126 :	0000000101100001;
	125 :	0000000111011101;
	124 :	1111111011001101;
	123 :	1111110001110111;
	122 :	1111111101011011;
	121 :	1111111010001011;
	120 :	1111111100101000;
	119 :	0000000000001111;
	118 :	0000000011010111;
	117 :	0000000010100100;
	116 :	0000000000100000;
	115 :	1111111111111010;
	114 :	1111111111110111;
	113 :	0000000000001100;
	112 :	1111111111100011;
	111 :	0000000000010001;
	110 :	0000000000100000;
	109 :	0000000000111110;
	108 :	0000000100011110;
	107 :	0000000010110011;
	106 :	0000000001010001;
	105 :	1111111111000001;
	104 :	1111111000000111;
	103 :	1111110000010111;
	102 :	1111101011110011;
	101 :	1111111001100111;
	100 :	0000000001110111;
	99 :	0000000000000100;
	98 :	0000000101101001;
	97 :	1111111011011101;
	96 :	1111111100000010;
	95 :	0000000010000000;
	94 :	1111110110010110;
	93 :	1111111010011001;
	92 :	1111111011100011;
	91 :	0000000010011110;
	90 :	0000000001010100;
	89 :	0000000000001010;
	88 :	0000000000100010;
	87 :	1111111110101000;
	86 :	0000000000010100;
	85 :	1111111111110001;
	84 :	1111111111100100;
	83 :	1111111111011101;
	82 :	0000000000000101;
	81 :	0000000000010010;
	80 :	0000000000001001;
	79 :	0000000000101111;
	78 :	0000000000110110;
	77 :	1111111111111010;
	76 :	1111111110011000;
	75 :	1111111111111000;
	74 :	1111111010110001;
	73 :	1111111101011001;
	72 :	1111111010100001;
	71 :	1111111110001110;
	70 :	0000000001011111;
	69 :	0000000001101110;
	68 :	0000000000101111;
	67 :	0000000000010011;
	66 :	1111111111100010;
	65 :	0000000000100101;
	64 :	0000000000001001;
	63 :	0000000001011011;
	62 :	0000000000010111;
	61 :	0000000000011011;
	60 :	0000000000011100;
	59 :	1111111111011111;
	58 :	1111111111111000;
	57 :	1111111111111110;
	56 :	0000000000000111;
	55 :	0000000001010000;
	54 :	1111111111110010;
	53 :	0000000000001111;
	52 :	1111111110111111;
	51 :	0000000000011111;
	50 :	0000000000000110;
	49 :	1111111111101000;
	48 :	1111111111111011;
	47 :	0000000000001100;
	46 :	1111111111100001;
	45 :	1111111111011101;
	44 :	1111111101011110;
	43 :	1111111111111001;
	42 :	1111111111111101;
	41 :	0000000000000101;
	40 :	0000000000000010;
	39 :	0000000000000011;
	38 :	1111111111111011;
	37 :	1111111111111000;
	36 :	1111111111101111;
	35 :	1111111111100100;
	34 :	0000000000011111;
	33 :	1111111111101011;
	32 :	1111111111100111;
	31 :	1111111111101111;
	30 :	1111111111101001;
	29 :	1111111111010110;
	28 :	1111111111110011;
	27 :	0000000000001010;
	26 :	1111111111011101;
	25 :	1111111111101001;
	24 :	0000000000011111;
	23 :	1111111111110010;
	22 :	0000000000011010;
	21 :	0000000000001011;
	20 :	1111111111100111;
	19 :	0000000000010111;
	18 :	1111111111001111;
	17 :	1111111111101101;
	16 :	1111111111111010;
	15 :	0000000000010011;
	14 :	1111111111011101;
	13 :	0000000000100000;
	12 :	0000000000000000;
	11 :	0000000000010101;
	10 :	0000000000000111;
	9 :	1111111111010011;
	8 :	1111111111010101;
	7 :	1111111111110110;
	6 :	1111111111101000;
	5 :	1111111111110101;
	4 :	1111111111101000;
	3 :	0000000000000001;
	2 :	1111111111011011;
	1 :	1111111111011101;
	0 :	1111111111110110;
END;
