-- begin_signature
-- weight_memory(num_weight
-- 30
-- data_width
-- 16
-- address_width
-- 5
-- weight_file
-- "C:/SystemVerilog_NPU/w_3_9.mif")
-- end_signature
WIDTH=16;
DEPTH=30;

ADDRESS_RADIX=UNS;
DATA_RADIX=BIN;

CONTENT BEGIN
	29 :	0000010101110110;
	28 :	0000111010110011;
	27 :	1110111111110001;
	26 :	0001000101111010;
	25 :	0001000100010011;
	24 :	1110110110001101;
	23 :	0000111100110110;
	22 :	0001000010011101;
	21 :	0000100010010110;
	20 :	1111101110001101;
	19 :	1111110011111110;
	18 :	0001000101000111;
	17 :	0000011011011110;
	16 :	0000000000011111;
	15 :	1111111011000011;
	14 :	1100101101111010;
	13 :	1111100110101110;
	12 :	0000000110100100;
	11 :	0000111000101011;
	10 :	1110001101000111;
	9 :	1111111100110111;
	8 :	0000101110000110;
	7 :	0001100000011010;
	6 :	0001010100000011;
	5 :	0001011011000111;
	4 :	1111111001110101;
	3 :	1111110111011001;
	2 :	0001011100101111;
	1 :	1110111110010010;
	0 :	1101111001000010;
END;
