-- begin_signature
-- weight_memory(num_weight
-- 30
-- data_width
-- 16
-- address_width
-- 5
-- weight_file
-- "C:/SystemVerilog_NPU/w_2_9.mif")
-- end_signature
WIDTH=16;
DEPTH=30;

ADDRESS_RADIX=UNS;
DATA_RADIX=BIN;

CONTENT BEGIN
	29 :	1110110111110110;
	28 :	1111111011000110;
	27 :	0000110101101000;
	26 :	0001000100100000;
	25 :	0000010110111110;
	24 :	0000010100101111;
	23 :	0001011110100111;
	22 :	1111111111100111;
	21 :	1101111111100000;
	20 :	1111010110011011;
	19 :	0000100011010101;
	18 :	1111111111101110;
	17 :	0000011101111110;
	16 :	0000101111100110;
	15 :	0000001001010000;
	14 :	1111101000000010;
	13 :	1111100110000000;
	12 :	1111110101010000;
	11 :	1111101101100110;
	10 :	0001101101101011;
	9 :	0000011010000111;
	8 :	0000100011001011;
	7 :	1111001001101101;
	6 :	0001010110001110;
	5 :	1111010111010111;
	4 :	1111110101111010;
	3 :	1110101010101101;
	2 :	0000111100100101;
	1 :	0001111011101010;
	0 :	0000011100111110;
END;
