-- begin_signature
-- weight_memory(num_weight
-- 784
-- data_width
-- 16
-- address_width
-- 10
-- weight_file
-- "C:/SystemVerilog_NPU/w_1_4.mif")
-- end_signature
WIDTH=16;
DEPTH=784;

ADDRESS_RADIX=UNS;
DATA_RADIX=BIN;

CONTENT BEGIN
	783 :	1111111111100110;
	782 :	0000000000000110;
	781 :	0000000000100000;
	780 :	1111111111001010;
	779 :	0000000000001100;
	778 :	0000000000000000;
	777 :	0000000001001111;
	776 :	0000000000010101;
	775 :	0000000000001111;
	774 :	0000000000010101;
	773 :	1111111111011100;
	772 :	0000000000111011;
	771 :	0000000001010001;
	770 :	0000000001101100;
	769 :	0000000000111100;
	768 :	0000000001100000;
	767 :	0000000001111111;
	766 :	0000000000010011;
	765 :	0000000000111110;
	764 :	0000000011100010;
	763 :	0000000011110101;
	762 :	0000000001000111;
	761 :	0000000000001101;
	760 :	0000000000011110;
	759 :	1111111111010100;
	758 :	0000000000001100;
	757 :	0000000000010000;
	756 :	1111111111101100;
	755 :	1111111111110000;
	754 :	1111111111001010;
	753 :	0000000000010101;
	752 :	0000000000000010;
	751 :	1111111111101111;
	750 :	0000000000000110;
	749 :	0000000000011010;
	748 :	0000000110011000;
	747 :	0000001011001101;
	746 :	0000001100001100;
	745 :	0000000100000100;
	744 :	0000010101100000;
	743 :	0000010010111000;
	742 :	0000011010001001;
	741 :	0000010000101111;
	740 :	0000001101110101;
	739 :	0000001111100101;
	738 :	0000001011000000;
	737 :	0000000001010010;
	736 :	1111111111010101;
	735 :	0000000010101000;
	734 :	0000000010010101;
	733 :	0000000011000010;
	732 :	0000000000101110;
	731 :	1111111110111111;
	730 :	0000000000010101;
	729 :	0000000000100001;
	728 :	0000000000011011;
	727 :	0000000000010011;
	726 :	0000000000110011;
	725 :	1111111111111111;
	724 :	1111111111100001;
	723 :	1111111100001101;
	722 :	0000000010011001;
	721 :	0000000100000011;
	720 :	0000010101110110;
	719 :	0000011110000110;
	718 :	0000000111111100;
	717 :	0000001011110111;
	716 :	1111110110100000;
	715 :	1111110111111100;
	714 :	0000001011000100;
	713 :	0000000011001111;
	712 :	1111111110010000;
	711 :	1111111101110001;
	710 :	1111111111010111;
	709 :	0000000101001110;
	708 :	0000000101110011;
	707 :	0000001100101111;
	706 :	0000000100101100;
	705 :	0000000001011111;
	704 :	0000000001011001;
	703 :	0000000000101010;
	702 :	1111111111110101;
	701 :	1111111111101001;
	700 :	0000000000000100;
	699 :	1111111111100010;
	698 :	1111111111000010;
	697 :	0000000000000111;
	696 :	0000000100100010;
	695 :	0000000110010010;
	694 :	0000000110101001;
	693 :	0000001011100011;
	692 :	0000011010111000;
	691 :	0000001110011011;
	690 :	0000000011011000;
	689 :	0000000011111010;
	688 :	1111111000011111;
	687 :	0000000111001110;
	686 :	0000000001110111;
	685 :	1111110011101001;
	684 :	1111110110011101;
	683 :	1111110110000010;
	682 :	0000000011100100;
	681 :	0000000001110011;
	680 :	0000000010001000;
	679 :	0000000001001010;
	678 :	0000000010011100;
	677 :	1111111111111101;
	676 :	0000000010001011;
	675 :	0000000000001010;
	674 :	0000000001000110;
	673 :	0000000000001100;
	672 :	1111111111110000;
	671 :	0000000000011111;
	670 :	1111111111011001;
	669 :	1111111111111010;
	668 :	0000001001101110;
	667 :	0000001011011000;
	666 :	0000001100111011;
	665 :	0000001011100010;
	664 :	0000010010100011;
	663 :	0000000110000110;
	662 :	1111111100000111;
	661 :	0000001111110001;
	660 :	0000000111111010;
	659 :	0000010000101110;
	658 :	0000001111100110;
	657 :	0000011110010010;
	656 :	0000010000010101;
	655 :	0000010100011100;
	654 :	0000000001011100;
	653 :	0000001101000011;
	652 :	0000001111000001;
	651 :	0000000110100111;
	650 :	0000000100110000;
	649 :	1111111110101011;
	648 :	1111111110110110;
	647 :	0000000000111110;
	646 :	1111111111110111;
	645 :	0000000000010010;
	644 :	0000000001001010;
	643 :	0000000000010100;
	642 :	1111111111100101;
	641 :	0000000000011000;
	640 :	0000000110011110;
	639 :	0000001010100110;
	638 :	0000001100011011;
	637 :	0000001001000010;
	636 :	1111111011111011;
	635 :	1111110011101000;
	634 :	0000001100011011;
	633 :	0000010010110000;
	632 :	0000000111110111;
	631 :	1111111110011000;
	630 :	0000000111100110;
	629 :	0000000001101010;
	628 :	0000001100000111;
	627 :	0000001010110111;
	626 :	1111110010011011;
	625 :	1111111000100100;
	624 :	0000000101111011;
	623 :	0000000100000100;
	622 :	0000000011110000;
	621 :	1111111111100001;
	620 :	1111111110010111;
	619 :	1111111111001100;
	618 :	0000000000100111;
	617 :	0000000000000000;
	616 :	0000000000010110;
	615 :	0000000000011011;
	614 :	0000000000001010;
	613 :	0000000101011100;
	612 :	0000001100001111;
	611 :	0000000100001110;
	610 :	0000001101110111;
	609 :	0000001011110010;
	608 :	1111111100110001;
	607 :	0000000111111101;
	606 :	0000000110111111;
	605 :	1111111101000101;
	604 :	1111111110011000;
	603 :	1111111100110100;
	602 :	1111111000100101;
	601 :	1111110011011010;
	600 :	0000000000011010;
	599 :	0000000100100001;
	598 :	0000000111110001;
	597 :	1111111100110000;
	596 :	1111101010000010;
	595 :	1111111001101100;
	594 :	0000001000100101;
	593 :	0000001001001011;
	592 :	1111111110110100;
	591 :	1111111111000011;
	590 :	0000000000111000;
	589 :	0000000000000010;
	588 :	1111111111010000;
	587 :	1111111111111001;
	586 :	0000000000001011;
	585 :	0000001000001000;
	584 :	0000001000111011;
	583 :	0000010000100100;
	582 :	0000010000100110;
	581 :	0000001000110111;
	580 :	0000000101110011;
	579 :	0000010010010111;
	578 :	0000001010000101;
	577 :	0000000100011101;
	576 :	1111111001011111;
	575 :	1111111110110001;
	574 :	0000001010110011;
	573 :	0000000000000000;
	572 :	1111111110100000;
	571 :	0000010001111000;
	570 :	0000000011000010;
	569 :	0000000001100101;
	568 :	1111110110110110;
	567 :	1111110110000010;
	566 :	0000010000110101;
	565 :	0000001010010001;
	564 :	1111111110011101;
	563 :	1111111101110011;
	562 :	0000000000101101;
	561 :	1111111111011100;
	560 :	0000000000010010;
	559 :	0000000000010111;
	558 :	0000000000111111;
	557 :	0000000001110101;
	556 :	0000000010001010;
	555 :	0000000110010011;
	554 :	0000000111010101;
	553 :	0000001100011101;
	552 :	1111111100100001;
	551 :	0000001101010001;
	550 :	0000001101110001;
	549 :	0000000011101100;
	548 :	0000001110001101;
	547 :	1111111111000011;
	546 :	1111111111011100;
	545 :	1111111101000011;
	544 :	0000001011001111;
	543 :	1111111111111100;
	542 :	0000000110110010;
	541 :	1111101101111111;
	540 :	1111101011111010;
	539 :	1111101111011110;
	538 :	0000001011001110;
	537 :	0000000111000110;
	536 :	1111111110110101;
	535 :	1111111100001000;
	534 :	0000000011011111;
	533 :	0000000000000011;
	532 :	0000000001000011;
	531 :	0000000000111111;
	530 :	0000000001000000;
	529 :	1111111100000111;
	528 :	1111111001010001;
	527 :	1111111010100010;
	526 :	1111110111010101;
	525 :	1111111011001011;
	524 :	1111111110100001;
	523 :	0000000111011101;
	522 :	1111111111101010;
	521 :	1111110010100110;
	520 :	0000000001110101;
	519 :	0000010001010001;
	518 :	1111011111010001;
	517 :	1111111100001111;
	516 :	1111111110111101;
	515 :	0000010010100101;
	514 :	0000000111011110;
	513 :	1111110101101100;
	512 :	1111100100011100;
	511 :	1111101011011110;
	510 :	0000001010010010;
	509 :	0000000110010011;
	508 :	1111110111100000;
	507 :	1111111001011100;
	506 :	0000000001000001;
	505 :	0000000000000001;
	504 :	0000000000110001;
	503 :	0000000001110111;
	502 :	0000000000001101;
	501 :	1111111011101001;
	500 :	1111111101010001;
	499 :	1111110111100101;
	498 :	1111101000111010;
	497 :	1111011100101001;
	496 :	1111110011000010;
	495 :	0000001011101111;
	494 :	1111111111010010;
	493 :	0000000110010110;
	492 :	0000000010101011;
	491 :	0000001010110001;
	490 :	0000000110111011;
	489 :	0000001100100011;
	488 :	0000000110100101;
	487 :	1111110010000010;
	486 :	1111111010011100;
	485 :	1111110100010111;
	484 :	0000000001101111;
	483 :	1111111101011001;
	482 :	1111111001010110;
	481 :	0000001101100101;
	480 :	0000000010111100;
	479 :	1111111101001101;
	478 :	1111111111001111;
	477 :	1111111111101010;
	476 :	1111111111100100;
	475 :	1111111111110001;
	474 :	1111111111111111;
	473 :	1111111000100001;
	472 :	1111111011110011;
	471 :	1111110010001001;
	470 :	1111111000010110;
	469 :	1111011111001001;
	468 :	1111110100100000;
	467 :	1111110010000011;
	466 :	1111111100000001;
	465 :	0000010110111111;
	464 :	0000000100010100;
	463 :	1111110000000101;
	462 :	1111110001001001;
	461 :	0000001001100110;
	460 :	1111111011100010;
	459 :	1111101011110111;
	458 :	0000000000011001;
	457 :	1111101010110110;
	456 :	1111101110110111;
	455 :	1111101110010111;
	454 :	1111111100011010;
	453 :	0000010010110111;
	452 :	0000000100110001;
	451 :	1111111001011101;
	450 :	0000000000101010;
	449 :	0000000001010001;
	448 :	1111111111101010;
	447 :	0000000000101100;
	446 :	0000000001101110;
	445 :	1111111001111100;
	444 :	0000000001100101;
	443 :	1111110010000101;
	442 :	1111110000000011;
	441 :	1111111110000011;
	440 :	1111111101110101;
	439 :	1111101101001110;
	438 :	1111101011101000;
	437 :	1111101111101110;
	436 :	1111110100110011;
	435 :	1111111110001011;
	434 :	1111101110001010;
	433 :	0000000100011010;
	432 :	0000000111101100;
	431 :	1111111100010101;
	430 :	1111110000110100;
	429 :	1111111100001000;
	428 :	1111111101111010;
	427 :	1111101000111001;
	426 :	1111101100110100;
	425 :	0000000010100010;
	424 :	1111111110110011;
	423 :	1111111010111111;
	422 :	0000000001001011;
	421 :	0000000000010100;
	420 :	1111111111101010;
	419 :	1111111111101011;
	418 :	0000000000110001;
	417 :	1111111110101000;
	416 :	1111110111110110;
	415 :	1111101010011101;
	414 :	1111101111101101;
	413 :	1111111110101011;
	412 :	1111110101000010;
	411 :	1111110011101010;
	410 :	1111111011111010;
	409 :	1111110000110001;
	408 :	1111110111011100;
	407 :	1111110100000000;
	406 :	1111110110101011;
	405 :	0000001001001000;
	404 :	1111111111011000;
	403 :	1111110011100100;
	402 :	1111111001111001;
	401 :	1111110001101111;
	400 :	1111111100110011;
	399 :	1111111111010000;
	398 :	1111110011000011;
	397 :	1111011011011111;
	396 :	1111111010001001;
	395 :	0000000011000000;
	394 :	0000000001000110;
	393 :	0000000000110110;
	392 :	0000000001001111;
	391 :	1111111110111011;
	390 :	0000000011011000;
	389 :	0000000100000010;
	388 :	1111111010010100;
	387 :	1111101110110010;
	386 :	0000000001111100;
	385 :	0000000010011110;
	384 :	0000000111110000;
	383 :	0000010010000011;
	382 :	0000001111000100;
	381 :	1111111011110100;
	380 :	1111111001000011;
	379 :	1111111000011111;
	378 :	0000001001010110;
	377 :	1111110100011101;
	376 :	0000000000100010;
	375 :	1111111110000111;
	374 :	1111100110100010;
	373 :	1111111001000110;
	372 :	1111001100011110;
	371 :	0000000000000100;
	370 :	1111111001011110;
	369 :	1111110101010011;
	368 :	0000001011000010;
	367 :	0000000011000011;
	366 :	0000000001010100;
	365 :	0000000000101101;
	364 :	1111111111111010;
	363 :	0000000001101010;
	362 :	0000000101100110;
	361 :	0000000010010111;
	360 :	0000000001010011;
	359 :	0000000010100100;
	358 :	0000001010010001;
	357 :	0000001011011001;
	356 :	1111111001001010;
	355 :	0000010000000010;
	354 :	1111111111110001;
	353 :	0000001000111001;
	352 :	1111110101000100;
	351 :	1111111101110011;
	350 :	1111111010100001;
	349 :	1111110110111110;
	348 :	1111100111000101;
	347 :	1111100010011111;
	346 :	1111101111110010;
	345 :	0000010010110110;
	344 :	1111110110101110;
	343 :	0000010000000001;
	342 :	0000001001001011;
	341 :	0000000100000111;
	340 :	0000010001011010;
	339 :	0000000001100110;
	338 :	0000000001111101;
	337 :	0000000000011101;
	336 :	1111111111110101;
	335 :	1111111111111011;
	334 :	0000000011111001;
	333 :	0000000001010110;
	332 :	0000001001010110;
	331 :	0000001110011100;
	330 :	0000000111001111;
	329 :	0000001111111011;
	328 :	1111111100001101;
	327 :	1111110111110000;
	326 :	1111101101001111;
	325 :	0000001010000101;
	324 :	1111110100011111;
	323 :	0000010100110101;
	322 :	0000011100011001;
	321 :	0000101000111001;
	320 :	1111111001011001;
	319 :	0000001010101001;
	318 :	0000010110000110;
	317 :	0000001100010110;
	316 :	0000010001000110;
	315 :	0000011010100000;
	314 :	0000100010010111;
	313 :	1111111100010101;
	312 :	0000001110010000;
	311 :	0000000101000110;
	310 :	0000000101010011;
	309 :	1111111111010111;
	308 :	0000000000100111;
	307 :	1111111110111010;
	306 :	0000000110010110;
	305 :	0000001001101000;
	304 :	0000000011100011;
	303 :	0000010110010101;
	302 :	0000010001000101;
	301 :	0000000011000001;
	300 :	1111111001100000;
	299 :	0000000011100001;
	298 :	1111111101100111;
	297 :	0000000010101110;
	296 :	1111111101101100;
	295 :	0000100111011010;
	294 :	0001011001100000;
	293 :	0000110100111000;
	292 :	1111111001100010;
	291 :	1111110011111111;
	290 :	0000010011101011;
	289 :	1111111111000010;
	288 :	1111111011100000;
	287 :	0000001011101101;
	286 :	0000010110100010;
	285 :	1111111001010111;
	284 :	0000001010111010;
	283 :	0000000111111100;
	282 :	0000000011110110;
	281 :	1111111111111111;
	280 :	1111111110111011;
	279 :	0000000000010000;
	278 :	0000000111010011;
	277 :	0000001010111010;
	276 :	0000001011001001;
	275 :	0000010011010100;
	274 :	0000001001110001;
	273 :	1111111111010010;
	272 :	1111111101001011;
	271 :	0000000101101001;
	270 :	0000000110110010;
	269 :	0000000101000111;
	268 :	1111111100010010;
	267 :	0000111110010001;
	266 :	0001010001110011;
	265 :	0000001001111001;
	264 :	1111011110100100;
	263 :	1111110001001000;
	262 :	0000011001011101;
	261 :	0000000100100001;
	260 :	0000001001010011;
	259 :	0000100011101010;
	258 :	0000000101010011;
	257 :	0000001001000000;
	256 :	0000000100111111;
	255 :	0000000101110001;
	254 :	1111111111111010;
	253 :	0000000000101101;
	252 :	0000000000100001;
	251 :	0000000000100001;
	250 :	0000000011111010;
	249 :	0000001000111110;
	248 :	0000001111010011;
	247 :	0000000010001101;
	246 :	1111111110101101;
	245 :	1111111111111111;
	244 :	1111111111011010;
	243 :	0000000000101110;
	242 :	1111111111011101;
	241 :	1111110101011100;
	240 :	0000010010001000;
	239 :	0001010110110010;
	238 :	0001000010111110;
	237 :	1111111010011010;
	236 :	1111101010111000;
	235 :	1111110010001000;
	234 :	1111111110100000;
	233 :	1111111001111111;
	232 :	0000001110011011;
	231 :	1111111111111010;
	230 :	1111111110101000;
	229 :	0000000011011011;
	228 :	0000000100000111;
	227 :	0000000100011001;
	226 :	0000000000001010;
	225 :	0000000000001110;
	224 :	1111111111100110;
	223 :	1111111111001000;
	222 :	1111111101000000;
	221 :	0000000101000110;
	220 :	1111111111001110;
	219 :	1111111111001001;
	218 :	1111110011110111;
	217 :	1111111010101101;
	216 :	1111111101110111;
	215 :	1111100001111110;
	214 :	1111111001110001;
	213 :	0000000100101101;
	212 :	0000110000101111;
	211 :	0001001110001000;
	210 :	0000101000010110;
	209 :	1111111100111011;
	208 :	1111011100000111;
	207 :	1111100100010101;
	206 :	1111110000011100;
	205 :	1111110001100111;
	204 :	1111101111010110;
	203 :	1111110101110110;
	202 :	1111110111111101;
	201 :	0000000000000010;
	200 :	0000000000100011;
	199 :	0000000011000101;
	198 :	0000000000110001;
	197 :	0000000001001000;
	196 :	1111111111100101;
	195 :	1111111101111100;
	194 :	1111111100001100;
	193 :	0000000001000111;
	192 :	1111110110110100;
	191 :	1111110010010010;
	190 :	1111111100110101;
	189 :	1111110001000110;
	188 :	1111110100100101;
	187 :	1111101010001001;
	186 :	1111110110001001;
	185 :	0000100100100110;
	184 :	0001001001000001;
	183 :	0001010001000001;
	182 :	0000100001110100;
	181 :	0000011101010110;
	180 :	1111110100100011;
	179 :	0000000010001110;
	178 :	0000001000001011;
	177 :	1111100110010011;
	176 :	1111110111101001;
	175 :	1111110001011010;
	174 :	1111110111011000;
	173 :	0000000111111110;
	172 :	0000000000111110;
	171 :	1111111111100111;
	170 :	0000000000110011;
	169 :	1111111111110001;
	168 :	1111111111110001;
	167 :	1111111111000100;
	166 :	1111111101111100;
	165 :	0000000001101001;
	164 :	1111111001101111;
	163 :	1111110101110011;
	162 :	1111110111101001;
	161 :	1111101101111001;
	160 :	1111011110011000;
	159 :	1111101110111001;
	158 :	1111111101011001;
	157 :	0000001100001001;
	156 :	0000100100111001;
	155 :	0000101111101011;
	154 :	0000010101010000;
	153 :	0000010111000100;
	152 :	1111100101101000;
	151 :	1111111111101000;
	150 :	1111110010101100;
	149 :	1111110100100111;
	148 :	1111110110100000;
	147 :	1111110100000001;
	146 :	1111110111100101;
	145 :	0000000001111110;
	144 :	1111111111010101;
	143 :	0000000010001101;
	142 :	0000000000010011;
	141 :	1111111111011001;
	140 :	0000000000011100;
	139 :	1111111111011100;
	138 :	0000000010111000;
	137 :	0000000100000000;
	136 :	1111111111010100;
	135 :	1111110110110101;
	134 :	1111110011111010;
	133 :	1111111011001010;
	132 :	1111111101011101;
	131 :	1111111100100001;
	130 :	0000000100010011;
	129 :	0000000111000101;
	128 :	0000000111111000;
	127 :	0000000011010001;
	126 :	1111101001010010;
	125 :	1111101001000011;
	124 :	1111101110101011;
	123 :	0000001000000101;
	122 :	1111111100011110;
	121 :	1111110101011111;
	120 :	1111110101101011;
	119 :	1111110101111111;
	118 :	1111111011001111;
	117 :	1111111111100011;
	116 :	1111111110100110;
	115 :	0000000000010100;
	114 :	1111111111111101;
	113 :	0000000000100010;
	112 :	1111111111100101;
	111 :	1111111111011011;
	110 :	1111111111010110;
	109 :	0000000000111001;
	108 :	1111111010001001;
	107 :	1111110011111101;
	106 :	1111101110111011;
	105 :	1111101110010101;
	104 :	1111110100100000;
	103 :	1111111111001011;
	102 :	0000001001110101;
	101 :	0000001011011000;
	100 :	0000000001000001;
	99 :	1111111111001111;
	98 :	1111111100110000;
	97 :	1111111111100000;
	96 :	0000000000001011;
	95 :	0000000100110001;
	94 :	0000000001101000;
	93 :	1111111001011100;
	92 :	1111111000011000;
	91 :	1111111010111000;
	90 :	1111111010111110;
	89 :	1111111110110001;
	88 :	1111111111010001;
	87 :	1111111111110100;
	86 :	1111111111100010;
	85 :	0000000000011111;
	84 :	1111111111110010;
	83 :	1111111111011100;
	82 :	0000000000000110;
	81 :	0000000001001001;
	80 :	0000000001101001;
	79 :	1111111110110110;
	78 :	1111111101101101;
	77 :	1111111011010101;
	76 :	1111111011100111;
	75 :	1111111011000001;
	74 :	1111111101001010;
	73 :	1111111011000101;
	72 :	1111111100101100;
	71 :	1111111011000000;
	70 :	1111111011101000;
	69 :	1111111010110100;
	68 :	1111111010111010;
	67 :	1111111010010100;
	66 :	1111111011011000;
	65 :	1111111100101110;
	64 :	1111111110001001;
	63 :	1111111110101001;
	62 :	1111111110001110;
	61 :	1111111111111011;
	60 :	0000000001000110;
	59 :	0000000000011001;
	58 :	0000000001010001;
	57 :	1111111111101111;
	56 :	0000000000000011;
	55 :	0000000000110111;
	54 :	0000000000111001;
	53 :	0000000001010000;
	52 :	0000000000001000;
	51 :	0000000000011110;
	50 :	1111111111110100;
	49 :	0000000000011001;
	48 :	0000000000010010;
	47 :	1111111111001101;
	46 :	1111111111100110;
	45 :	1111111111111100;
	44 :	0000000001001010;
	43 :	1111111111110111;
	42 :	0000000000000100;
	41 :	0000000000110011;
	40 :	0000000000000010;
	39 :	1111111110111101;
	38 :	1111111111101010;
	37 :	0000000000010001;
	36 :	0000000000111111;
	35 :	0000000000110010;
	34 :	1111111111111001;
	33 :	0000000000011101;
	32 :	0000000000011000;
	31 :	1111111111101000;
	30 :	0000000000001110;
	29 :	0000000000000100;
	28 :	0000000000101000;
	27 :	0000000000001011;
	26 :	0000000000001101;
	25 :	0000000000001010;
	24 :	1111111111001110;
	23 :	0000000000011111;
	22 :	1111111111111111;
	21 :	0000000000000000;
	20 :	0000000000010010;
	19 :	0000000000000101;
	18 :	0000000000010100;
	17 :	1111111111000110;
	16 :	1111111111111000;
	15 :	0000000000001011;
	14 :	0000000000000111;
	13 :	1111111111010111;
	12 :	1111111111100011;
	11 :	1111111111010100;
	10 :	1111111111010100;
	9 :	0000000000101110;
	8 :	0000000000000101;
	7 :	1111111111011111;
	6 :	0000000000000001;
	5 :	0000000000010011;
	4 :	1111111111000100;
	3 :	1111111111010101;
	2 :	1111111111101001;
	1 :	0000000000101101;
	0 :	1111111111110010;
END;
