-- begin_signature
-- weight_memory(num_weight
-- 30
-- data_width
-- 16
-- address_width
-- 5
-- weight_file
-- "C:/SystemVerilog_NPU/w_3_4.mif")
-- end_signature
WIDTH=16;
DEPTH=30;

ADDRESS_RADIX=UNS;
DATA_RADIX=BIN;

CONTENT BEGIN
	29 :	0000110101111100;
	28 :	0000010001110110;
	27 :	1101010101101011;
	26 :	0000110010010101;
	25 :	0000011011001010;
	24 :	1111000001000100;
	23 :	1111111000111110;
	22 :	1111111101001011;
	21 :	1111101010100100;
	20 :	0000001000111110;
	19 :	0000000000100001;
	18 :	0000010111111100;
	17 :	1111011010100110;
	16 :	1111001000010110;
	15 :	0000111100101111;
	14 :	0001000100110101;
	13 :	1111000110110101;
	12 :	1110010001011010;
	11 :	0001101000101000;
	10 :	0001101110111110;
	9 :	1101101000010011;
	8 :	0001100111100010;
	7 :	1111010100011101;
	6 :	1100111000000101;
	5 :	1111100111010110;
	4 :	0000110010001010;
	3 :	0000000100100000;
	2 :	1110011111100000;
	1 :	0001001001111110;
	0 :	0001001010100100;
END;
