-- begin_signature
-- weight_memory(num_weight
-- 30
-- data_width
-- 16
-- address_width
-- 5
-- weight_file
-- "C:/SystemVerilog_NPU/w_2_1.mif")
-- end_signature
WIDTH=16;
DEPTH=30;

ADDRESS_RADIX=UNS;
DATA_RADIX=BIN;

CONTENT BEGIN
	29 :	0000100101011101;
	28 :	0000000101011101;
	27 :	0000001000000010;
	26 :	1111111011010110;
	25 :	1111101001011100;
	24 :	1111110101111110;
	23 :	0000010101100000;
	22 :	1111101000000100;
	21 :	0001001010011101;
	20 :	1111110011000010;
	19 :	1111010010111100;
	18 :	1111110100001011;
	17 :	1111110111011010;
	16 :	1111010101000100;
	15 :	0000001110000001;
	14 :	0001000101111110;
	13 :	0000000110101011;
	12 :	1111111110100000;
	11 :	0000000000010000;
	10 :	1110100111001110;
	9 :	1111001110111000;
	8 :	1110111110001000;
	7 :	0000010001010001;
	6 :	1111011101111101;
	5 :	0000010001101101;
	4 :	0000010011111101;
	3 :	0001000110011101;
	2 :	0000010011010000;
	1 :	1111100101001100;
	0 :	1111100010011010;
END;
