-- begin_signature
-- weight_memory(num_weight
-- 30
-- data_width
-- 16
-- address_width
-- 5
-- weight_file
-- "C:/SystemVerilog_NPU/w_2_27.mif")
-- end_signature
WIDTH=16;
DEPTH=30;

ADDRESS_RADIX=UNS;
DATA_RADIX=BIN;

CONTENT BEGIN
	29 :	1110100110101111;
	28 :	0000000100110111;
	27 :	0000111110010000;
	26 :	0000010010001010;
	25 :	0000011101110001;
	24 :	0010100101000110;
	23 :	0000011100110010;
	22 :	1110111110000101;
	21 :	0000110001011101;
	20 :	0001101000001110;
	19 :	1111100111100111;
	18 :	0000000110000000;
	17 :	0001000110000001;
	16 :	0000001010100110;
	15 :	0001010011001010;
	14 :	1111011100111111;
	13 :	1101010010001011;
	12 :	1111010101110110;
	11 :	1111010000010000;
	10 :	0000000010011101;
	9 :	1111111011111011;
	8 :	1111111000000100;
	7 :	0000010110001110;
	6 :	0010001010111011;
	5 :	1111010000001001;
	4 :	0000011101010110;
	3 :	0000010111000000;
	2 :	0000100111011011;
	1 :	1111001100001110;
	0 :	1110101100101100;
END;
