WIDTH=52;
DEPTH=256;

ADDRESS_RADIX=UNS;
DATA_RADIX=BIN;

CONTENT BEGIN
	0 : 0000000001000111111111010111111011111110000111111111;
	1 : 1111111111000000000000111010111100000000000100000000;
	2 : 0000000000101111111111000001010000000000000111111111;
	3 : 1111111111010111111111111100101111111111101100000000;
	4 : 0000000101101000000001010110101011111111111011111111;
	5 : 1111111101111000000001001011110100000000101111111111;
	6 : 1111110101100000000010100101111011111111110100000000;
	7 : 0000000010001000000001001110101100000001000011111111;
	8 : 0000000011010000000000110100110000000001000100000000;
	9 : 0000000000000111111101011011010100000001000110000000;
	10 : 1111110000011111111011100000001011111111011111111111;
	11 : 0000000011001111111101110111001110000001001010000000;
	12 : 0000000100101000000000010110101000000001011100000000;
	13 : 0000000001011111111101001111111111111111101011111111;
	14 : 1111111111000000000010111101101000000001110111111111;
	15 : 0000000000111000000001110101111011111110011100000000;
	16 : 0000010001100000000100111111101100000001110100000000;
	17 : 1101100000001111101011010010101100100001000110010000;
	18 : 1111101010011111101001011110100010101110001111001111;
	19 : 0000000100110111111110000101010111111111110111111111;
	20 : 1111111111111000000001111000000000000000100000000000;
	21 : 1111111001000111111111110001001100000000000000000000;
	22 : 0000000101110000000000100110100000000001000111111111;
	23 : 0001101100011000011110111100100001000000010010100000;
	24 : 1101101000001111111010111100000010010001110101000000;
	25 : 1110001011010111011010110001011001110111111101110111;
	26 : 1111110010100111111111010100010111011110100010111111;
	27 : 0000000001111000001001001000110011111111111101111111;
	28 : 0000000011010000000001001010001111111111111011111111;
	29 : 0000001111110000000100110100100000000001110010111111;
	30 : 0010001101100001011101100110000101100001100010000100;
	31 : 1100110101110111001101000000110100101000101101011111;
	32 : 1110011111010000011110001001100001110111110100110000;
	33 : 1111001000110111101000000000100000001111101110010111;
	34 : 0000001010101000001110010011000110000001110101010000;
	35 : 1111111110111111111111010111000100000001110000000000;
	36 : 0000011101101111111101111001110111111111100001011111;
	37 : 0010110001010000101000001111011101100000010111010000;
	38 : 1101010111010111001111001010101101111000101100101000;
	39 : 0010010000100111111111000010110000100001111110011111;
	40 : 1110100001000111101000101010101101010000101001101111;
	41 : 0000010011000000011000111100111110111110110011101000;
	42 : 0000000011000000000000011101001111111111000111111111;
	43 : 0010001010100000110011110101010111111111001010010000;
	44 : 0000010110011000010111011110111010100000100111101111;
	45 : 0000010100011111100011110100100010111111011010100000;
	46 : 1111110001001111010110000001010011100001101101101111;
	47 : 1111100000010111111111101001110011000000111100011111;
	48 : 0000001110100000010001000100010100111111010001001000;
	49 : 0000000100101000000101100101111000000001100111000000;
	50 : 0011011011100001101100101100100101000001010010010100;
	51 : 1111110001100111110001101111100111100001110111100111;
	52 : 0000100100011110000101101000010110001111010101111011;
	53 : 1111111100010000100100111110111011011111010100101000;
	54 : 0000000100001000111101111000111011111111001001001000;
	55 : 0000010010010111111110010101100110110001000100101000;
	56 : 1111111011011000001000110110000000000000010010000000;
	57 : 0001110111100001001011101011001000010000101101100100;
	58 : 0001100010011000111111011101010110000001101011110111;
	59 : 1111100011101111001101101100000001110000001011100000;
	60 : 0000110110010111101010010111111111110001111000010000;
	61 : 0001110010011111101101110100001001110000011000001000;
	62 : 1111111110101000000100011101111010110000100101011111;
	63 : 1111111110011000000011011110101100000001011010000000;
	64 : 0000101010010000011101101111110111100001011110001000;
	65 : 0010000001001111110010000010011101000001110100000000;
	66 : 1101101000110111001110101000100011100000001110100100;
	67 : 1111010000001000000100000000111111011111010111100000;
	68 : 0011101100011000001001010000110101010000101000100000;
	69 : 1111011011010111110111011101101110000001100010111111;
	70 : 1111111101101000000010010111000000000001010011111111;
	71 : 0001101100010000111001011001110000100000111101100000;
	72 : 0001001011110000101000010100001111111111110110101111;
	73 : 1101010010011111010110101000111000010001010101110000;
	74 : 1110000000001111111001011101101111010110000111000100;
	75 : 0000000111011111111010000100110011100000010111100000;
	76 : 1111111100111111110110011101110111001111100100111011;
	77 : 0000000100111111111011110010011100000000111111111111;
	78 : 0001111111101001000100001111100000000000110011100000;
	79 : 0001100001101111011010010010100010100000111000000000;
	80 : 1111111111110111111000101011111100000100001010011000;
	81 : 1110110010100111001001101010110010100111100100110111;
	82 : 1110011100101111101100010000001100101111110110000111;
	83 : 1111111100110111111110010101100101001110000001101111;
	84 : 0000000110111111111011001100011011111110011000000000;
	85 : 0001000011000000110001111101000001000000000001110000;
	86 : 0001101111110000000010011111011101110000100011000100;
	87 : 1101101111101110110111000111000011100100010110100000;
	88 : 0001001100000111011101100110010110110111100111011111;
	89 : 0000001000100111110011110111011110100001101000100000;
	90 : 1111111011100111101111001110000001000001111011011111;
	91 : 0000011110001111111100000010000111111111000110000000;
	92 : 1111100111110000100011001101100010000001001011011000;
	93 : 0001001111101111000111000000000111101111000101001111;
	94 : 1110100101011111100101001100001111001001000001100000;
	95 : 0001011100100001110000111110010010011111110001100000;
	96 : 0000110110000000101111000110100101010000011010001000;
	97 : 0000001001010000000100101100011110100000110011111111;
	98 : 0000011011101111111101000000110111111111010111111111;
	99 : 1111111110010000100011110000111111000000010101011000;
	100 : 1111101010101111000000110010011001111110010010110111;
	101 : 1110101010010111011111100110001010000001100111100000;
	102 : 0000011010101001000000000000001110011110010101100100;
	103 : 0000010011100000010011000110010110100001100110000000;
	104 : 1111111110001000001100111111111010000001110011111111;
	105 : 0000101001110000000000010010010100000001011011111111;
	106 : 0000100001101000001011111010000000100000000110100000;
	107 : 1111011111100111101110011000010000110000001011010111;
	108 : 1101101011010111110101101011101110001111101000110000;
	109 : 0010010001001000001001010010010011011111110111011111;
	110 : 1111101001001000001111110011011011100000000101011111;
	111 : 1111111111100000001100011010100101100001110010110000;
	112 : 0000101111110000000001111011111111111111110100000000;
	113 : 0011010110110000011110010100010101111110010001001111;
	114 : 1111111101000000011101011011010011101000000100111000;
	115 : 1101111111010111001001111011000111110000001111100000;
	116 : 0011000000010010000011010011001111111111111100110010;
	117 : 0000100000100000010111111000000100100000111100010000;
	118 : 1111111100011000001101011001010011010001110000001000;
	119 : 0000000111111000000000010100001101111110110001111111;
	120 : 0100111001000001000111101100110111011110010010001111;
	121 : 0000101111010001000111011010100001100101110111011100;
	122 : 1111010111010111000100000000000100101000111101010000;
	123 : 0001101011100001000110011110001000000101000110001010;
	124 : 1110111100101111101101100111011100100000100111100000;
	125 : 0000000001101111110111101000110011111110001111100000;
	126 : 0000100000001111111110111101100111111110010010000000;
	127 : 0011101110101000111111001011100110011111011011101111;
	128 : 0000001111111001001100100101101010111000111100100010;
	129 : 0000111011111111111011011100100000000000001110110111;
	130 : 0001001111110000001110011010111110011001101000010100;
	131 : 0001001100011000110000111011011001100000000110101000;
	132 : 1111111010001111111000000100100111000001011000111111;
	133 : 0000000011110111111011111010101000000001101000000000;
	134 : 1111001111110000000010010010100010111110011010000000;
	135 : 1111011110000000000011110111101101111110000101001000;
	136 : 0010111100011000010110111110010111001110001001110111;
	137 : 0001001001100000001100000000111011100000100110001000;
	138 : 0000101111000000011001101111101001110001110011111000;
	139 : 1111111110010000000000110010000100111111011101101111;
	140 : 0000010110110111111101001011011111111110111101111111;
	141 : 0000001110001110111000100101010000100000001010101111;
	142 : 1110100111000111000010111110111110011111110000010111;
	143 : 0010101111101001001100101100001111011110100100000000;
	144 : 0000111101100000111001011010110101011110000010010000;
	145 : 0000001101100111101110111111101100010000100110000000;
	146 : 1111111001101111111110111010011010111110100001000000;
	147 : 0000010101010000001000111101010111111110000000000000;
	148 : 1101100100000111001101101110010011011111100100111111;
	149 : 1110111001001101110011101100100100001111010111010111;
	150 : 0001111000010001000000101101001101001111110111001000;
	151 : 0011011010010001110000011000101000001001001011110100;
	152 : 0000010110010000010000000010010010110001001011100000;
	153 : 1111111100000000000101010101111001000000111111000000;
	154 : 1111011110010000000101000010000111111110100110000000;
	155 : 1111101000011111010011100101010110111111001101000000;
	156 : 0000000010000111011010001010101001110110001011110111;
	157 : 0010111010100001010110110011000001111110100101111111;
	158 : 0010100100101010000111000110111010111000100100011100;
	159 : 1111101100000000000100010101100100110000001011010000;
	160 : 1111111111001000000000000010111110000000101000100000;
	161 : 1111110100100000001000110001110000000000111100000000;
	162 : 1111011111010111110110000010010101111110101000111111;
	163 : 0001100100101001000010101110111001111110011110111000;
	164 : 0011111001101010000110010000111000100001110110101000;
	165 : 0010000011011001011110100010110010000100110010101100;
	166 : 1111011111010000000101100111111101010001111001110000;
	167 : 1111111101000111111011111010101100000000110000100000;
	168 : 0000000110010000000101101100000000000001110111111111;
	169 : 1110000100101111100011101010001111111111001110101111;
	170 : 0000111010011000000011101001110111001110000001101111;
	171 : 0010110000010000001011010111110011110001110010000000;
	172 : 0010100000110001011001011110100110011000010101111100;
	173 : 1111010011001111110011000001000100001001001001110000;
	174 : 0000000000001000000010001100100111111111000000000000;
	175 : 1111111011111111111110111000111011111110010001111111;
	176 : 1110101110000111001101100011101110101110000011111011;
	177 : 0000010110000000010001101110111011110110100000001111;
	178 : 0010000111101111111110101100110110100000001111011111;
	179 : 0001111000100001001011100000100100110000010001000100;
	180 : 1111100010101111110110000100101110100001010000100000;
	181 : 1111111011011000000000010101101101111110000000000000;
	182 : 1111111010011000000000100110001111111111011000000000;
	183 : 1110100110110111011010100001001010111111000001001111;
	184 : 0000100000001111110111000111011010111110001110001111;
	185 : 0000010000111111101101110011001100011111001010001111;
	186 : 1111111000011111110111100110010001111110110011011111;
	187 : 1111111010000000000000000000000000000000001000000000;
	188 : 1111111010011000000001110000010100000000010010000000;
	189 : 0000000000001000000000000010001011111111100110000000;
	190 : 0000000001001000000000101001100111111110000000000000;
	191 : 1111111001111000000000001001111011111111011111111111;
	192 : 1111111110011111111100010110100111111111100001111111;
	193 : 1111111100011111111010010110101111111111010001111111;
	194 : 0000000000010000000010111011000000000000001101111111;
	195 : 1111111000010111111111010100101000000001110010000000;
	196 : 0000000000000000000000000000000000000000000000000000;
	197 : 0000000000000000000000000000000000000000000000000000;
	198 : 0000000000000000000000000000000000000000000000000000;
	199 : 0000000000000000000000000000000000000000000000000000;
	200 : 0000000000000000000000000000000000000000000000000000;
	201 : 0000000000000000000000000000000000000000000000000000;
	202 : 0000000000000000000000000000000000000000000000000000;
	203 : 0000000000000000000000000000000000000000000000000000;
	204 : 0000000000000000000000000000000000000000000000000000;
	205 : 0000000000000000000000000000000000000000000000000000;
	206 : 0000000000000000000000000000000000000000000000000000;
	207 : 0000000000000000000000000000000000000000000000000000;
	208 : 0000000000000000000000000000000000000000000000000000;
	209 : 0000000000000000000000000000000000000000000000000000;
	210 : 0000000000000000000000000000000000000000000000000000;
	211 : 0000000000000000000000000000000000000000000000000000;
	212 : 0000000000000000000000000000000000000000000000000000;
	213 : 0000000000000000000000000000000000000000000000000000;
	214 : 0000000000000000000000000000000000000000000000000000;
	215 : 0000000000000000000000000000000000000000000000000000;
	216 : 0000000000000000000000000000000000000000000000000000;
	217 : 0000000000000000000000000000000000000000000000000000;
	218 : 0000000000000000000000000000000000000000000000000000;
	219 : 0000000000000000000000000000000000000000000000000000;
	220 : 0000000000000000000000000000000000000000000000000000;
	221 : 0000000000000000000000000000000000000000000000000000;
	222 : 0000000000000000000000000000000000000000000000000000;
	223 : 0000000000000000000000000000000000000000000000000000;
	224 : 0000000000000000000000000000000000000000000000000000;
	225 : 0000000000000000000000000000000000000000000000000000;
	226 : 0000000000000000000000000000000000000000000000000000;
	227 : 0000000000000000000000000000000000000000000000000000;
	228 : 0000000000000000000000000000000000000000000000000000;
	229 : 0000000000000000000000000000000000000000000000000000;
	230 : 0000000000000000000000000000000000000000000000000000;
	231 : 0000000000000000000000000000000000000000000000000000;
	232 : 0000000000000000000000000000000000000000000000000000;
	233 : 0000000000000000000000000000000000000000000000000000;
	234 : 0000000000000000000000000000000000000000000000000000;
	235 : 0000000000000000000000000000000000000000000000000000;
	236 : 0000000000000000000000000000000000000000000000000000;
	237 : 0000000000000000000000000000000000000000000000000000;
	238 : 0000000000000000000000000000000000000000000000000000;
	239 : 0000000000000000000000000000000000000000000000000000;
	240 : 0000000000000000000000000000000000000000000000000000;
	241 : 0000000000000000000000000000000000000000000000000000;
	242 : 0000000000000000000000000000000000000000000000000000;
	243 : 0000000000000000000000000000000000000000000000000000;
	244 : 0000000000000000000000000000000000000000000000000000;
	245 : 0000000000000000000000000000000000000000000000000000;
	246 : 0000000000000000000000000000000000000000000000000000;
	247 : 0000000000000000000000000000000000000000000000000000;
	248 : 0000000000000000000000000000000000000000000000000000;
	249 : 0000000000000000000000000000000000000000000000000000;
	250 : 0000000000000000000000000000000000000000000000000000;
	251 : 0000000000000000000000000000000000000000000000000000;
	252 : 0000000000000000000000000000000000000000000000000000;
	253 : 0000000000000000000000000000000000000000000000000000;
	254 : 0000000000000000000000000000000000000000000000000000;
	255 : 0000000000000000000000000000000000000000000000000000;
END;
