-- begin_signature
-- weight_memory(num_weight
-- 30
-- data_width
-- 16
-- address_width
-- 5
-- weight_file
-- "C:/SystemVerilog_NPU/w_3_0.mif")
-- end_signature
WIDTH=16;
DEPTH=30;

ADDRESS_RADIX=UNS;
DATA_RADIX=BIN;

CONTENT BEGIN
	29 :	1111110000110101;
	28 :	0000001101011110;
	27 :	0000011000001111;
	26 :	0001100100110010;
	25 :	0001001110110101;
	24 :	0000010001001100;
	23 :	1110010011010110;
	22 :	1111010011000000;
	21 :	0001001111011101;
	20 :	1111011010100010;
	19 :	0001001001000100;
	18 :	1110111011000111;
	17 :	1110101011011011;
	16 :	0000010001111001;
	15 :	1110100111110110;
	14 :	1111110011110000;
	13 :	0001000001001010;
	12 :	1110111011001100;
	11 :	0000000100001011;
	10 :	0010010001100100;
	9 :	1110011101010110;
	8 :	1110011001010101;
	7 :	1111110110110100;
	6 :	1111000010111101;
	5 :	1110100101110111;
	4 :	1111110110100001;
	3 :	0001001011101001;
	2 :	1111010110010110;
	1 :	0000010101111101;
	0 :	0000100100011001;
END;
