-- begin_signature
-- weight_memory(num_weight
-- 784
-- data_width
-- 16
-- address_width
-- 10
-- weight_file
-- "C:/SystemVerilog_NPU/w_1_1.mif")
-- end_signature
WIDTH=16;
DEPTH=784;

ADDRESS_RADIX=UNS;
DATA_RADIX=BIN;

CONTENT BEGIN
	783 :	0000000000111000;
	782 :	1111111111100100;
	781 :	0000000000000111;
	780 :	1111111111111001;
	779 :	0000000000100011;
	778 :	0000000001101001;
	777 :	1111111110010100;
	776 :	0000000000010101;
	775 :	0000000010010110;
	774 :	1111111110000000;
	773 :	1111111111010101;
	772 :	1111110110010100;
	771 :	1111110101110110;
	770 :	0000000001110010;
	769 :	0000000001110000;
	768 :	1111111011111001;
	767 :	1111111101011111;
	766 :	0000000000001111;
	765 :	0000000000000001;
	764 :	0000000000000010;
	763 :	0000000000101101;
	762 :	0000000001000001;
	761 :	1111111111110010;
	760 :	0000000000110000;
	759 :	0000000000000100;
	758 :	1111111111001000;
	757 :	1111111111111111;
	756 :	0000000000111111;
	755 :	0000000000101010;
	754 :	1111111111010011;
	753 :	1111111111010010;
	752 :	0000000000011010;
	751 :	1111111111101100;
	750 :	0000000000110110;
	749 :	0000000011010100;
	748 :	0000001000000110;
	747 :	0000010111110100;
	746 :	0000010101101110;
	745 :	1111111100100010;
	744 :	0000000100100011;
	743 :	0000000000000111;
	742 :	1111111110000111;
	741 :	1111110100000110;
	740 :	0000000110000001;
	739 :	0000001110000101;
	738 :	0000000011111001;
	737 :	0000000101110111;
	736 :	0000000110010100;
	735 :	1111111011011111;
	734 :	1111111001000011;
	733 :	1111110110110100;
	732 :	1111110111010011;
	731 :	1111111111100011;
	730 :	1111111111111111;
	729 :	0000000000011001;
	728 :	1111111111110000;
	727 :	1111111111001000;
	726 :	1111111111100011;
	725 :	1111111110101100;
	724 :	0000000000001000;
	723 :	1111111101010101;
	722 :	1111111101010110;
	721 :	1111111001000111;
	720 :	1111111110001011;
	719 :	0000011001111110;
	718 :	0000011110110111;
	717 :	0000000011100101;
	716 :	0000001001010001;
	715 :	0000001101111011;
	714 :	0000001011000011;
	713 :	1111111110011101;
	712 :	0000100011011001;
	711 :	0000000101110000;
	710 :	0000000011110001;
	709 :	0000010000000011;
	708 :	0000000001001111;
	707 :	0000000000000000;
	706 :	1111111101010111;
	705 :	1111111110001011;
	704 :	0000000000011010;
	703 :	0000000000000001;
	702 :	0000000000100100;
	701 :	0000000000010111;
	700 :	0000000000010110;
	699 :	1111111111100100;
	698 :	1111111111011001;
	697 :	0000000000011011;
	696 :	1111111101110001;
	695 :	1111111000010110;
	694 :	1111111110000011;
	693 :	0000000111110110;
	692 :	1111111101101110;
	691 :	0000000100101110;
	690 :	0000000101000011;
	689 :	0000001101011000;
	688 :	1111111111000001;
	687 :	0000000000101010;
	686 :	1111101111101011;
	685 :	1111111001001001;
	684 :	0000001011110001;
	683 :	0000000011011011;
	682 :	1111110010000010;
	681 :	0000000001010111;
	680 :	0000001011001100;
	679 :	1111111111010010;
	678 :	0000001011001001;
	677 :	0000001010001101;
	676 :	0000000010100100;
	675 :	1111111110001101;
	674 :	1111111110011010;
	673 :	1111111111100110;
	672 :	1111111111101000;
	671 :	1111111110111000;
	670 :	0000000000010110;
	669 :	0000000000100101;
	668 :	1111111010101011;
	667 :	1111111010110111;
	666 :	1111111001001110;
	665 :	0000000110010110;
	664 :	1111110011111100;
	663 :	1111111110100001;
	662 :	0000000001001111;
	661 :	0000000010110011;
	660 :	0000000000100011;
	659 :	0000010000011110;
	658 :	0000000001011110;
	657 :	0000001000101001;
	656 :	0000000001000101;
	655 :	0000000111110011;
	654 :	0000000010001001;
	653 :	0000010100111001;
	652 :	0000000111011000;
	651 :	0000001001111101;
	650 :	0000001101110111;
	649 :	0000000100000101;
	648 :	1111111101010100;
	647 :	1111111011001110;
	646 :	1111111111111001;
	645 :	1111111111111010;
	644 :	0000000000000010;
	643 :	0000000000011001;
	642 :	1111111111100101;
	641 :	1111111111101010;
	640 :	0000000000011110;
	639 :	0000000010111010;
	638 :	0000000010000111;
	637 :	0000001000111100;
	636 :	1111111000111011;
	635 :	1111110110100111;
	634 :	0000010011000011;
	633 :	0000011011111111;
	632 :	0000010011000101;
	631 :	0000011001100000;
	630 :	0000001000110101;
	629 :	0000000111100101;
	628 :	1111101111110001;
	627 :	1111101101011011;
	626 :	0000001111100100;
	625 :	0000010100000111;
	624 :	0000010000101011;
	623 :	0000000100000101;
	622 :	0000000111100001;
	621 :	1111111110001000;
	620 :	1111111001110010;
	619 :	1111111011010101;
	618 :	1111111111011011;
	617 :	0000000000100011;
	616 :	0000000000000110;
	615 :	1111111111011010;
	614 :	1111111111110100;
	613 :	1111111111011100;
	612 :	0000000000001001;
	611 :	0000001001110100;
	610 :	1111111111001111;
	609 :	0000000000010111;
	608 :	0000000000101001;
	607 :	1111110110001100;
	606 :	1111111101101101;
	605 :	0000000011101000;
	604 :	0000001011000001;
	603 :	0000001011110110;
	602 :	1111110111111010;
	601 :	0000000100111110;
	600 :	1111111100110001;
	599 :	0000010110111100;
	598 :	0000010010010101;
	597 :	0000000001110110;
	596 :	1111111000011110;
	595 :	1111101111001101;
	594 :	1111111000100001;
	593 :	1111110110001001;
	592 :	1111111001101000;
	591 :	1111111011000111;
	590 :	1111111111101001;
	589 :	1111111111011011;
	588 :	0000000000011110;
	587 :	1111111111110111;
	586 :	1111111111111000;
	585 :	1111111000010111;
	584 :	1111111011101001;
	583 :	0000000010100110;
	582 :	0000000001111011;
	581 :	1111111011101000;
	580 :	1111110100011001;
	579 :	1111101101001011;
	578 :	1111100111110011;
	577 :	1111100110001101;
	576 :	1111111000110100;
	575 :	0000001110101111;
	574 :	0000001110001111;
	573 :	0000010010100001;
	572 :	0000000111000001;
	571 :	0000010010011011;
	570 :	1111111011000111;
	569 :	1111110010011110;
	568 :	1111111000101101;
	567 :	1111110010100011;
	566 :	1111110001010010;
	565 :	1111111000101101;
	564 :	1111111101111111;
	563 :	1111111101101011;
	562 :	0000000000001010;
	561 :	1111111111101001;
	560 :	1111111111111110;
	559 :	1111111111001010;
	558 :	1111111111100010;
	557 :	1111111111110100;
	556 :	1111111100000111;
	555 :	1111111011101100;
	554 :	0000000001011010;
	553 :	0000000100010101;
	552 :	0000000111011100;
	551 :	0000001000101110;
	550 :	1111111000000110;
	549 :	0000000010000101;
	548 :	1111111001011101;
	547 :	1111101011001100;
	546 :	0000001110100010;
	545 :	1111101111010101;
	544 :	1111101101100110;
	543 :	1111110100101101;
	542 :	0000000000110000;
	541 :	1111100011001111;
	540 :	1111101100010011;
	539 :	1111101001000100;
	538 :	1111101011011101;
	537 :	1111111110110101;
	536 :	1111111011101011;
	535 :	1111111011010100;
	534 :	0000000000110101;
	533 :	0000000000111011;
	532 :	1111111111011110;
	531 :	1111111111100111;
	530 :	0000000000100100;
	529 :	0000000110001110;
	528 :	1111111110100000;
	527 :	0000001010011100;
	526 :	0000001110100001;
	525 :	0000010100110111;
	524 :	1111111100000110;
	523 :	1111111011011011;
	522 :	0000010010010001;
	521 :	1111110011010011;
	520 :	1111100101101000;
	519 :	1111101111000001;
	518 :	0000000110100110;
	517 :	1111111111011110;
	516 :	1111110010000101;
	515 :	0000000010010100;
	514 :	1111100100110000;
	513 :	1111100010111101;
	512 :	1111101001111100;
	511 :	1111100101011001;
	510 :	1111100011111101;
	509 :	1111101111010000;
	508 :	1111110110001101;
	507 :	1111111000110100;
	506 :	0000000001001100;
	505 :	1111111111001001;
	504 :	1111111111101100;
	503 :	0000000000111000;
	502 :	1111111111111111;
	501 :	0000001010111000;
	500 :	0000001011111010;
	499 :	0000010000000010;
	498 :	0000001010010110;
	497 :	0000001010111111;
	496 :	0000000100011111;
	495 :	1111111110010101;
	494 :	1111111100010010;
	493 :	0000000110111001;
	492 :	1111101110000110;
	491 :	1111111100100010;
	490 :	0000000000100100;
	489 :	0000000001110001;
	488 :	1111100110000110;
	487 :	1111010110010010;
	486 :	1111011101100111;
	485 :	1111011010001100;
	484 :	1111101001100010;
	483 :	1111101000110000;
	482 :	1111101110011000;
	481 :	1111110100101001;
	480 :	1111111001100100;
	479 :	1111111000111010;
	478 :	1111111111000011;
	477 :	0000000000011000;
	476 :	1111111111101010;
	475 :	0000000000001101;
	474 :	0000000010010001;
	473 :	1111111010100101;
	472 :	0000000100011001;
	471 :	0000000101110101;
	470 :	0000000001011000;
	469 :	0000001000101000;
	468 :	1111110101110011;
	467 :	1111111101010011;
	466 :	1111100110101100;
	465 :	1111100110101010;
	464 :	1111111001100101;
	463 :	0000000011111001;
	462 :	1111110001001100;
	461 :	1111100110000111;
	460 :	1110111101100011;
	459 :	1110101010000001;
	458 :	1111101010101111;
	457 :	1111011100101011;
	456 :	1111111001110000;
	455 :	0000001000001001;
	454 :	1111110111110011;
	453 :	1111110001011101;
	452 :	1111111010101011;
	451 :	1111111111111010;
	450 :	0000000011100001;
	449 :	0000000000000010;
	448 :	1111111111111110;
	447 :	0000000000010110;
	446 :	0000000001110000;
	445 :	1111111111000000;
	444 :	0000001110001010;
	443 :	0000000110111101;
	442 :	1111111101101100;
	441 :	1111110010010011;
	440 :	1111101011001101;
	439 :	1111110011101010;
	438 :	1111110101101001;
	437 :	1111100101000110;
	436 :	1111011100101000;
	435 :	1111101111110110;
	434 :	1111101010001110;
	433 :	1111000100000110;
	432 :	1110011110101011;
	431 :	1111010011010000;
	430 :	0000001000100100;
	429 :	1111110110001001;
	428 :	1111111011101000;
	427 :	0000010011001110;
	426 :	0000001001110000;
	425 :	0000000100001111;
	424 :	1111110110001111;
	423 :	0000000110100101;
	422 :	0000000101100110;
	421 :	1111111111011110;
	420 :	0000000000000001;
	419 :	1111111110110010;
	418 :	1111111111000101;
	417 :	1111111110000110;
	416 :	0000001010010101;
	415 :	0000000000001001;
	414 :	1111110111000110;
	413 :	1111111001001110;
	412 :	1111111010101000;
	411 :	1111111010110011;
	410 :	1111111101110000;
	409 :	1111101011011101;
	408 :	1111110100110010;
	407 :	1111100111111001;
	406 :	1111100110010010;
	405 :	1110110110110111;
	404 :	1111000010111101;
	403 :	0000000110010000;
	402 :	0000101010110111;
	401 :	0000001000001010;
	400 :	0000001101000110;
	399 :	0000000111100110;
	398 :	0000000101010011;
	397 :	0000010001001110;
	396 :	1111101000111101;
	395 :	0000000101110100;
	394 :	0000000101111011;
	393 :	0000000000000000;
	392 :	1111111111100010;
	391 :	1111111111111101;
	390 :	1111111110111110;
	389 :	0000000000001010;
	388 :	0000000110001010;
	387 :	1111110010101101;
	386 :	1111110100010010;
	385 :	1111111111100111;
	384 :	0000010010000000;
	383 :	1111101110011110;
	382 :	0000000110111000;
	381 :	0000001011001110;
	380 :	1111110100000011;
	379 :	1111000111010001;
	378 :	1111000110001100;
	377 :	1110110010010010;
	376 :	1111001011011111;
	375 :	0000001010111101;
	374 :	1111101111111000;
	373 :	0000000010001100;
	372 :	0000001100100010;
	371 :	1111110111100101;
	370 :	0000001100011111;
	369 :	1111111000011110;
	368 :	1111100101011111;
	367 :	0000000101001010;
	366 :	0000000011100001;
	365 :	0000000001100011;
	364 :	0000000000000111;
	363 :	1111111111101110;
	362 :	1111111111101111;
	361 :	1111111111111001;
	360 :	0000000000111111;
	359 :	1111110010111111;
	358 :	1111111111110010;
	357 :	1111111011100011;
	356 :	1111111101010111;
	355 :	1111110111001010;
	354 :	0000001111110000;
	353 :	0000000001101110;
	352 :	0000001011011010;
	351 :	1111110001001100;
	350 :	1110101000110000;
	349 :	1111000100011011;
	348 :	1111111110101011;
	347 :	0000010101110111;
	346 :	0000001100010100;
	345 :	0000000000010101;
	344 :	0000010011111010;
	343 :	0000010001111110;
	342 :	1111111110011110;
	341 :	1111110101100111;
	340 :	1111110110011000;
	339 :	1111111110111101;
	338 :	1111111111010111;
	337 :	0000000010110000;
	336 :	0000000000100001;
	335 :	1111111111110010;
	334 :	1111111111111111;
	333 :	1111111100011010;
	332 :	1111110110000101;
	331 :	1111110101111100;
	330 :	1111111100101010;
	329 :	0000001100001001;
	328 :	0000000011111111;
	327 :	0000001101010110;
	326 :	0000010011000010;
	325 :	0000011001001000;
	324 :	0000000101101101;
	323 :	1111111011111101;
	322 :	1110111011010000;
	321 :	1111100001110001;
	320 :	0000010101010000;
	319 :	0000110100000010;
	318 :	0000000111010111;
	317 :	0000011001001010;
	316 :	1111101111111000;
	315 :	1111110001000010;
	314 :	1111111101010001;
	313 :	1111111000111110;
	312 :	1111111110100010;
	311 :	0000000000110000;
	310 :	1111111110101001;
	309 :	0000000000101010;
	308 :	1111111111010001;
	307 :	0000000000000000;
	306 :	1111111010111010;
	305 :	1111110010111000;
	304 :	1111101100000011;
	303 :	0000000011111110;
	302 :	0000000010111101;
	301 :	0000001101010010;
	300 :	0000001001110001;
	299 :	0000000010111000;
	298 :	0000001000101001;
	297 :	0000100100011111;
	296 :	0000001001100100;
	295 :	1111111110100000;
	294 :	1111110011111111;
	293 :	0000110011101010;
	292 :	0000110101110000;
	291 :	0000110000100101;
	290 :	0000100110010011;
	289 :	0000011011101110;
	288 :	1111111011001011;
	287 :	0000000000101001;
	286 :	0000010011111101;
	285 :	0000000110111110;
	284 :	0000000110010000;
	283 :	0000000000001110;
	282 :	0000000001111100;
	281 :	0000000000011000;
	280 :	1111111111100101;
	279 :	0000000000000001;
	278 :	1111110111110011;
	277 :	1111111001010001;
	276 :	1111111111110111;
	275 :	0000010001100100;
	274 :	0000010110011011;
	273 :	0000011001001001;
	272 :	1111111110011010;
	271 :	0000000011101011;
	270 :	1111111011101010;
	269 :	0000000000100000;
	268 :	1111110001110100;
	267 :	1111110110000110;
	266 :	1111101011001010;
	265 :	0000010010011001;
	264 :	0000011010100111;
	263 :	0000001011011001;
	262 :	0000010100011110;
	261 :	0000011101100110;
	260 :	0000000100110011;
	259 :	0000010111011101;
	258 :	0000010110001001;
	257 :	0000010100001101;
	256 :	0000000101111001;
	255 :	1111111100101010;
	254 :	0000000000111100;
	253 :	0000000000110101;
	252 :	0000000000010011;
	251 :	1111111111011111;
	250 :	0000000000001100;
	249 :	1111111110001100;
	248 :	0000000011000010;
	247 :	0000001010100001;
	246 :	0000001100101110;
	245 :	1111111011000101;
	244 :	0000000101010101;
	243 :	1111111100100101;
	242 :	0000000110000010;
	241 :	0000001111000101;
	240 :	1111011101010100;
	239 :	1111111101011110;
	238 :	1111110000100011;
	237 :	1111111010111110;
	236 :	0000100001011101;
	235 :	0000000101100001;
	234 :	0000011101111100;
	233 :	0000101100011101;
	232 :	0000101011110001;
	231 :	0000011010110011;
	230 :	0000000110010111;
	229 :	1111111110110110;
	228 :	0000000001100110;
	227 :	0000000001000101;
	226 :	0000000001001101;
	225 :	0000000000011101;
	224 :	0000000000100101;
	223 :	1111111111100110;
	222 :	1111111111001000;
	221 :	1111111001110011;
	220 :	1111111001000010;
	219 :	1111110101111011;
	218 :	1111111110000100;
	217 :	1111101001101100;
	216 :	1111110001011010;
	215 :	1111111010101010;
	214 :	0000010001101011;
	213 :	1111111011100100;
	212 :	1111101110100010;
	211 :	1111011011101010;
	210 :	1111110110010101;
	209 :	1111111011101110;
	208 :	0000000010111011;
	207 :	0000000010001110;
	206 :	0000001110100110;
	205 :	0000100110011010;
	204 :	0000000101011010;
	203 :	0000011000101010;
	202 :	0000010110000001;
	201 :	1111111110111001;
	200 :	0000000011001010;
	199 :	0000000101011101;
	198 :	0000000000010001;
	197 :	0000000000100010;
	196 :	1111111111010101;
	195 :	1111111111011101;
	194 :	1111111101111101;
	193 :	1111110101100011;
	192 :	1111110000111000;
	191 :	1111110110010010;
	190 :	1111111111010010;
	189 :	0000000000011101;
	188 :	1111100011010101;
	187 :	1111111110110011;
	186 :	0000001001010110;
	185 :	1111111110001111;
	184 :	1111101010000100;
	183 :	1111011100001100;
	182 :	1111111100111101;
	181 :	1111111101000101;
	180 :	0000010010101010;
	179 :	1111111110000101;
	178 :	0000010100110101;
	177 :	0000010011011011;
	176 :	0000010110011101;
	175 :	1111111111010101;
	174 :	0000000011101110;
	173 :	0000001001101010;
	172 :	0000000001001111;
	171 :	0000000000010011;
	170 :	0000000000100010;
	169 :	1111111111010001;
	168 :	0000000000011011;
	167 :	1111111111101111;
	166 :	1111111110111010;
	165 :	1111111101100010;
	164 :	1111111000101011;
	163 :	1111111110011101;
	162 :	1111111111011101;
	161 :	1111110100000100;
	160 :	1111101010000011;
	159 :	1111110110111001;
	158 :	0000001001101100;
	157 :	1111111010111010;
	156 :	1111110100110001;
	155 :	1111101110100010;
	154 :	1111111000000010;
	153 :	1111111001100111;
	152 :	1111111011010111;
	151 :	1111110010010001;
	150 :	1111111110110101;
	149 :	0000000111000000;
	148 :	0000000010010010;
	147 :	1111111010100000;
	146 :	0000000001000010;
	145 :	1111111111001101;
	144 :	0000000000011000;
	143 :	1111111111101101;
	142 :	0000000000011111;
	141 :	0000000000000011;
	140 :	0000000000000100;
	139 :	0000000000000101;
	138 :	1111111111010001;
	137 :	1111111111010000;
	136 :	0000000000000000;
	135 :	0000000010000001;
	134 :	1111111110100111;
	133 :	1111110111010101;
	132 :	1111110010001010;
	131 :	1111110001010010;
	130 :	1111111110001011;
	129 :	1111111111111101;
	128 :	1111110000110000;
	127 :	1111101011111001;
	126 :	1111100101110001;
	125 :	1111101110101011;
	124 :	1111101001011000;
	123 :	1111111010011110;
	122 :	0000000100000101;
	121 :	1111111011111001;
	120 :	1111110011011101;
	119 :	1111111011110110;
	118 :	0000000000000011;
	117 :	1111111110011110;
	116 :	1111111110110011;
	115 :	1111111111011001;
	114 :	1111111111100100;
	113 :	1111111111110110;
	112 :	1111111111110100;
	111 :	1111111111001000;
	110 :	1111111111101010;
	109 :	1111111111100101;
	108 :	0000000000110001;
	107 :	1111111111110100;
	106 :	1111111100110100;
	105 :	1111111101110110;
	104 :	1111111101111000;
	103 :	1111110110001000;
	102 :	1111101101110110;
	101 :	1111110011100000;
	100 :	1111110111000100;
	99 :	1111111000100010;
	98 :	1111110100100010;
	97 :	1111101100000101;
	96 :	1111101101010101;
	95 :	1111110101100010;
	94 :	1111111101010010;
	93 :	1111111010010111;
	92 :	1111111000100001;
	91 :	1111111101000111;
	90 :	1111111110011010;
	89 :	1111111111100001;
	88 :	1111111111100101;
	87 :	1111111111101101;
	86 :	1111111111111111;
	85 :	1111111111100100;
	84 :	0000000000001111;
	83 :	0000000000100001;
	82 :	1111111111110011;
	81 :	0000000000001010;
	80 :	1111111111100101;
	79 :	1111111111101101;
	78 :	1111111111111010;
	77 :	0000000000110000;
	76 :	1111111111110101;
	75 :	1111111111001000;
	74 :	1111111101000011;
	73 :	1111111100011010;
	72 :	1111111011001011;
	71 :	1111111001110100;
	70 :	1111111010001001;
	69 :	1111111001011100;
	68 :	1111111000101101;
	67 :	1111111010010100;
	66 :	1111111101010100;
	65 :	1111111110001110;
	64 :	1111111110101011;
	63 :	1111111111010111;
	62 :	1111111111000101;
	61 :	0000000000101010;
	60 :	1111111111100110;
	59 :	1111111111100000;
	58 :	0000000000000000;
	57 :	0000000000110110;
	56 :	0000000000011110;
	55 :	1111111111101010;
	54 :	0000000000101100;
	53 :	1111111111111100;
	52 :	1111111111110010;
	51 :	0000000000000001;
	50 :	1111111110110101;
	49 :	0000000000110100;
	48 :	1111111111101111;
	47 :	1111111111011111;
	46 :	1111111111111010;
	45 :	1111111111101110;
	44 :	0000000000010111;
	43 :	1111111110011110;
	42 :	0000000000010011;
	41 :	1111111111100001;
	40 :	1111111111111100;
	39 :	0000000000010100;
	38 :	1111111111001111;
	37 :	1111111111011111;
	36 :	0000000000001011;
	35 :	1111111111110010;
	34 :	0000000000010101;
	33 :	0000000000101110;
	32 :	1111111111101110;
	31 :	1111111111101110;
	30 :	0000000000000110;
	29 :	0000000000011000;
	28 :	0000000000010000;
	27 :	1111111111100100;
	26 :	0000000000000110;
	25 :	0000000000011110;
	24 :	1111111111111100;
	23 :	0000000000101000;
	22 :	1111111111110000;
	21 :	1111111111100111;
	20 :	1111111111110011;
	19 :	1111111111101000;
	18 :	1111111111100001;
	17 :	1111111110111010;
	16 :	1111111111010001;
	15 :	0000000000100010;
	14 :	0000000000101010;
	13 :	0000000000000011;
	12 :	1111111111011001;
	11 :	1111111111111001;
	10 :	1111111111101101;
	9 :	1111111111101000;
	8 :	1111111111111010;
	7 :	1111111110011011;
	6 :	1111111111111111;
	5 :	1111111111100001;
	4 :	0000000000101010;
	3 :	0000000000100000;
	2 :	1111111111011011;
	1 :	0000000000000011;
	0 :	0000000000001110;
END;
