-- begin_signature
-- weight_memory(num_weight
-- 30
-- data_width
-- 16
-- address_width
-- 5
-- weight_file
-- "C:/SystemVerilog_NPU/w_2_26.mif")
-- end_signature
WIDTH=16;
DEPTH=30;

ADDRESS_RADIX=UNS;
DATA_RADIX=BIN;

CONTENT BEGIN
	29 :	0000001000100110;
	28 :	0000111100001000;
	27 :	0000011100100011;
	26 :	1101010001100000;
	25 :	1110010100110001;
	24 :	1110100111111110;
	23 :	1110000101010111;
	22 :	0000000011000100;
	21 :	0001011110100000;
	20 :	1111101011110110;
	19 :	0000101110001110;
	18 :	0000010100101101;
	17 :	1111000110101111;
	16 :	1111010111110100;
	15 :	0000011010111100;
	14 :	1111111010010000;
	13 :	0000101110101111;
	12 :	0000001001110111;
	11 :	0000110100111101;
	10 :	1111011001011010;
	9 :	0001011110111011;
	8 :	0001011011000011;
	7 :	0001110110101111;
	6 :	1110011100111000;
	5 :	0000011111001011;
	4 :	1111111001100010;
	3 :	0000001011000011;
	2 :	1110101010100000;
	1 :	1110101100100001;
	0 :	0000100011000111;
END;
