-- begin_signature
-- weight_memory(num_weight
-- 30
-- data_width
-- 16
-- address_width
-- 5
-- weight_file
-- "C:/SystemVerilog_NPU/w_2_10.mif")
-- end_signature
WIDTH=16;
DEPTH=30;

ADDRESS_RADIX=UNS;
DATA_RADIX=BIN;

CONTENT BEGIN
	29 :	0001111100010111;
	28 :	1111000100111100;
	27 :	1110100110000110;
	26 :	1111111000101110;
	25 :	1111001110101000;
	24 :	1111110010101101;
	23 :	1111100101101110;
	22 :	1111100001011100;
	21 :	0000011011100011;
	20 :	0010000011001100;
	19 :	1111011011110010;
	18 :	1110101111100110;
	17 :	0000000001111101;
	16 :	0000110001001100;
	15 :	0001100101111110;
	14 :	1111101011010100;
	13 :	0000000101111100;
	12 :	0001011011000111;
	11 :	0001000010001000;
	10 :	1111011001100011;
	9 :	1111100101011010;
	8 :	1111011110011100;
	7 :	0000000011110101;
	6 :	1111110001101101;
	5 :	1111110000011010;
	4 :	0000101000011010;
	3 :	1111111011011010;
	2 :	1111010011110010;
	1 :	0000000100000111;
	0 :	1111000000101000;
END;
