-- begin_signature
-- weight_memory(num_weight
-- 30
-- data_width
-- 16
-- address_width
-- 5
-- weight_file
-- "C:/SystemVerilog_NPU/w_2_2.mif")
-- end_signature
WIDTH=16;
DEPTH=30;

ADDRESS_RADIX=UNS;
DATA_RADIX=BIN;

CONTENT BEGIN
	29 :	1111001111100101;
	28 :	1111011101110010;
	27 :	1111110101100100;
	26 :	0000100111111000;
	25 :	1111110000001100;
	24 :	0000001011011001;
	23 :	1111110100110000;
	22 :	0000000001010001;
	21 :	1101110101100110;
	20 :	0000000010101011;
	19 :	0000110110100101;
	18 :	0000100110010101;
	17 :	0000101110011011;
	16 :	0001010001011111;
	15 :	0000000111101000;
	14 :	1110001001011100;
	13 :	1111111010111100;
	12 :	0000000010111010;
	11 :	0000011001110010;
	10 :	0010000000101011;
	9 :	0000111011000111;
	8 :	0000111110101101;
	7 :	1111010001000000;
	6 :	0001000100100000;
	5 :	1111001111100001;
	4 :	1111100100000100;
	3 :	1110001111110001;
	2 :	1111101110011100;
	1 :	0001010111011110;
	0 :	0000001101010011;
END;
