-- begin_signature
-- weight_memory(num_weight
-- 30
-- data_width
-- 16
-- address_width
-- 5
-- weight_file
-- "C:/SystemVerilog_NPU/w_2_6.mif")
-- end_signature
WIDTH=16;
DEPTH=30;

ADDRESS_RADIX=UNS;
DATA_RADIX=BIN;

CONTENT BEGIN
	29 :	1110111101011101;
	28 :	0000000100101000;
	27 :	0001001011010000;
	26 :	0000010000000011;
	25 :	0000111101111100;
	24 :	0000001001001110;
	23 :	0000101111101000;
	22 :	0000000100110000;
	21 :	1111010110100001;
	20 :	1111110001101001;
	19 :	1111110111111110;
	18 :	0000001111100111;
	17 :	1111110000010000;
	16 :	0000010111111110;
	15 :	1110101100001111;
	14 :	1111111111110001;
	13 :	1110101110010010;
	12 :	1110010110011010;
	11 :	1110110010100110;
	10 :	0001010010111101;
	9 :	0001001100010011;
	8 :	0000110110110100;
	7 :	0000011101000100;
	6 :	0000110011111101;
	5 :	1111000101101000;
	4 :	1111111111000111;
	3 :	1111001001100111;
	2 :	0000011111100101;
	1 :	0000000000100011;
	0 :	0000000111111011;
END;
