-- begin_signature
-- weight_memory(num_weight
-- 784
-- data_width
-- 16
-- address_width
-- 10
-- weight_file
-- "C:/SystemVerilog_NPU/w_1_19.mif")
-- end_signature
WIDTH=16;
DEPTH=784;

ADDRESS_RADIX=UNS;
DATA_RADIX=BIN;

CONTENT BEGIN
	783 :	1111111111111010;
	782 :	0000000000001101;
	781 :	0000000000011111;
	780 :	0000000000000111;
	779 :	0000000000100001;
	778 :	1111111111100011;
	777 :	1111111111100110;
	776 :	0000000000000100;
	775 :	0000000000001101;
	774 :	1111111101010100;
	773 :	1111111111001100;
	772 :	1111111111110010;
	771 :	1111111111001111;
	770 :	1111111110010000;
	769 :	1111111111001001;
	768 :	1111111110010010;
	767 :	0000000000001000;
	766 :	1111111110010110;
	765 :	0000000000000000;
	764 :	1111111111010000;
	763 :	1111111111000101;
	762 :	1111111111111111;
	761 :	1111111111111101;
	760 :	0000000000001101;
	759 :	0000000000100100;
	758 :	0000000000110001;
	757 :	0000000000010000;
	756 :	1111111111100000;
	755 :	0000000000011101;
	754 :	1111111111110110;
	753 :	1111111111110001;
	752 :	1111111111011001;
	751 :	0000000000100100;
	750 :	1111111110100011;
	749 :	1111111101000011;
	748 :	1111110111111011;
	747 :	1111110111111010;
	746 :	1111110101100111;
	745 :	1111110111101110;
	744 :	1111111000100011;
	743 :	1111111011111010;
	742 :	1111110011110000;
	741 :	1111110110001101;
	740 :	1111110110011011;
	739 :	1111111001100001;
	738 :	1111111000100010;
	737 :	1111110101000001;
	736 :	1111111011100010;
	735 :	1111111010111011;
	734 :	1111111101001001;
	733 :	1111111101101001;
	732 :	1111111110110111;
	731 :	0000000000011010;
	730 :	1111111111011000;
	729 :	0000000000100010;
	728 :	1111111111001000;
	727 :	0000000000001001;
	726 :	0000000001010000;
	725 :	0000000001010110;
	724 :	1111111111000001;
	723 :	1111111100100010;
	722 :	1111111110010101;
	721 :	1111110101000001;
	720 :	1111100111101111;
	719 :	1111011000010000;
	718 :	1111011010001010;
	717 :	1111011101111101;
	716 :	1111010010101100;
	715 :	1111110100010101;
	714 :	1111100100010000;
	713 :	1111011111011000;
	712 :	1111100101110111;
	711 :	1111111000011111;
	710 :	1111111100100001;
	709 :	1111111011010101;
	708 :	1111111100011011;
	707 :	1111111011001110;
	706 :	1111111100111111;
	705 :	1111111100110010;
	704 :	1111111110101001;
	703 :	0000000000000101;
	702 :	1111111111001001;
	701 :	1111111111100010;
	700 :	1111111111101101;
	699 :	0000000000010000;
	698 :	0000000000011100;
	697 :	0000000011010010;
	696 :	0000000011100011;
	695 :	1111110011100110;
	694 :	1111110001111000;
	693 :	1111110100011110;
	692 :	1111100110101110;
	691 :	1111101110001011;
	690 :	1111011101001101;
	689 :	1111010110010111;
	688 :	1111011110110000;
	687 :	1111110001111100;
	686 :	1111100111100111;
	685 :	1111010101100010;
	684 :	1111101001111000;
	683 :	0000001001010111;
	682 :	0000000010010011;
	681 :	0000001011011100;
	680 :	1111111111000101;
	679 :	1111111000011111;
	678 :	1111111110100110;
	677 :	0000000011001001;
	676 :	1111111111111011;
	675 :	0000000000100011;
	674 :	0000000000101111;
	673 :	0000000000110000;
	672 :	1111111111111100;
	671 :	0000000000001111;
	670 :	0000000001001101;
	669 :	0000000001111001;
	668 :	1111111010100111;
	667 :	1111111011110101;
	666 :	1111110000111110;
	665 :	1111111010110011;
	664 :	1111111111010010;
	663 :	1111101111001011;
	662 :	1111101011000000;
	661 :	1111011010101010;
	660 :	1111100001001001;
	659 :	1111100010111100;
	658 :	1111100110110101;
	657 :	1111101000010100;
	656 :	1111110100111011;
	655 :	1111111110010110;
	654 :	1111111010100010;
	653 :	1111111101001011;
	652 :	1111110010010010;
	651 :	1111111001101110;
	650 :	1111111011111101;
	649 :	0000000100001011;
	648 :	0000000010100100;
	647 :	1111111111110111;
	646 :	0000000000100010;
	645 :	0000000000110100;
	644 :	0000000000000111;
	643 :	0000000000000000;
	642 :	0000000000000000;
	641 :	1111111111011100;
	640 :	1111111100111001;
	639 :	1111111011110001;
	638 :	1111110010110001;
	637 :	0000001101111011;
	636 :	0000001100101100;
	635 :	0000010001110011;
	634 :	0000001100100011;
	633 :	0000010001001011;
	632 :	0000000101000000;
	631 :	1111101111101001;
	630 :	1111100101110010;
	629 :	1111110111000010;
	628 :	1111111000000010;
	627 :	1111110000001010;
	626 :	1111110110100001;
	625 :	0000000001010001;
	624 :	0000000010101010;
	623 :	0000000001000101;
	622 :	1111111000001000;
	621 :	0000001110001001;
	620 :	0000001101101110;
	619 :	0000000010111111;
	618 :	0000000010010101;
	617 :	1111111111111110;
	616 :	0000000000001100;
	615 :	1111111111000100;
	614 :	1111111111100001;
	613 :	0000000001111110;
	612 :	0000000011001010;
	611 :	0000010010010011;
	610 :	0000001011001111;
	609 :	0000010100000111;
	608 :	0000001101101010;
	607 :	0000011000100010;
	606 :	0000100111000001;
	605 :	0000010010011100;
	604 :	0000011011010001;
	603 :	1111101110111100;
	602 :	1111111000110000;
	601 :	1111110011010010;
	600 :	1111110100010010;
	599 :	1111110000111001;
	598 :	1111111001111110;
	597 :	1111110001011011;
	596 :	0000001011000011;
	595 :	1111111001001011;
	594 :	1111111011000101;
	593 :	0000001101011111;
	592 :	0000001011100111;
	591 :	0000000011101100;
	590 :	0000000001111011;
	589 :	1111111111111100;
	588 :	0000000000011110;
	587 :	1111111111000011;
	586 :	0000000010101011;
	585 :	0000000100010101;
	584 :	0000001010001111;
	583 :	0000001111000001;
	582 :	0000010011101110;
	581 :	0000100001000101;
	580 :	0000100011110011;
	579 :	0000001100100011;
	578 :	0000011001111111;
	577 :	0000001011000001;
	576 :	0000011100111000;
	575 :	0000000100110001;
	574 :	0000010110000100;
	573 :	1111101000000110;
	572 :	1111110100101001;
	571 :	0000001000001010;
	570 :	1111101011100001;
	569 :	1111110010101110;
	568 :	0000000001111001;
	567 :	0000001001110000;
	566 :	0000001101001111;
	565 :	0000000111110010;
	564 :	0000000110100101;
	563 :	0000000011000010;
	562 :	1111111111011111;
	561 :	1111111111110000;
	560 :	0000000000100100;
	559 :	0000000001100001;
	558 :	0000000010011011;
	557 :	0000001011101011;
	556 :	0000010000001100;
	555 :	0000010110110011;
	554 :	0000010110010011;
	553 :	0000001100111010;
	552 :	0000010100110101;
	551 :	0000011101000010;
	550 :	0000001011111100;
	549 :	1111111010010010;
	548 :	0000001010001111;
	547 :	0000101011111010;
	546 :	0000001110000010;
	545 :	0000010101110101;
	544 :	0000000010111100;
	543 :	0000001011110011;
	542 :	1111101001010111;
	541 :	1111111110011110;
	540 :	1111111000100000;
	539 :	0000000111110110;
	538 :	0000001011101111;
	537 :	0000001101101110;
	536 :	0000000111000000;
	535 :	0000000000010001;
	534 :	1111111110101010;
	533 :	0000000000000010;
	532 :	0000000000011010;
	531 :	0000000010110000;
	530 :	0000000001001000;
	529 :	0000001111000111;
	528 :	0000010100010001;
	527 :	0000010011010101;
	526 :	0000001100001111;
	525 :	0000001101000011;
	524 :	0000010000011000;
	523 :	0000100000101101;
	522 :	0000011001110010;
	521 :	1111110111010111;
	520 :	1111111111110010;
	519 :	0000001011110110;
	518 :	0000100011101110;
	517 :	0000100000111111;
	516 :	0000010101111000;
	515 :	1111111001110100;
	514 :	1111110010011010;
	513 :	1111111111110110;
	512 :	0000001101101011;
	511 :	0000000001010011;
	510 :	0000000101010110;
	509 :	0000011000110001;
	508 :	0000001011111101;
	507 :	1111111110101000;
	506 :	1111111101000011;
	505 :	1111111111001010;
	504 :	1111111111101000;
	503 :	1111111110110111;
	502 :	0000000011110001;
	501 :	0000010000110010;
	500 :	0000000000111100;
	499 :	0000000110111011;
	498 :	0000000010111101;
	497 :	0000000011101000;
	496 :	0000001000011101;
	495 :	0000000010110101;
	494 :	0000010100000101;
	493 :	1111111110001101;
	492 :	0000001111010001;
	491 :	0000001100101001;
	490 :	0000011010100110;
	489 :	0000001010000011;
	488 :	1111110110001111;
	487 :	1111101100010111;
	486 :	1111111000000001;
	485 :	0000000100011101;
	484 :	0000010110011101;
	483 :	1111111001100011;
	482 :	0000000011010001;
	481 :	0000001010100010;
	480 :	0000001010101111;
	479 :	1111111011111101;
	478 :	1111111011010001;
	477 :	1111111110110111;
	476 :	0000000000101010;
	475 :	1111111111100111;
	474 :	0000001001100100;
	473 :	0000010111100001;
	472 :	0000001110000011;
	471 :	0000001101010110;
	470 :	1111111101101001;
	469 :	0000010011100100;
	468 :	0000000001110100;
	467 :	0000001000111010;
	466 :	1111111101001000;
	465 :	0000101011011011;
	464 :	0000011111100010;
	463 :	0000001010001011;
	462 :	0000000101001001;
	461 :	1111110100010001;
	460 :	1111110110000100;
	459 :	1111111101011000;
	458 :	0000001100111100;
	457 :	0000100100111101;
	456 :	0000001010100010;
	455 :	0000010111010001;
	454 :	0000010000011000;
	453 :	1111111111110111;
	452 :	1111111101110001;
	451 :	0000000010110100;
	450 :	1111111011110011;
	449 :	1111111110100001;
	448 :	0000000000000011;
	447 :	0000000000101010;
	446 :	0000000011001100;
	445 :	0000001110001000;
	444 :	1111111001011111;
	443 :	1111110011000011;
	442 :	1111111001000101;
	441 :	1111111111001111;
	440 :	1111110101011001;
	439 :	1111111010001100;
	438 :	1111110010110100;
	437 :	0000010101000000;
	436 :	0000001011000111;
	435 :	0000000100110100;
	434 :	0000010101011010;
	433 :	0000001110101011;
	432 :	0000010001111101;
	431 :	1111111111101010;
	430 :	0000000110010100;
	429 :	0000011110001001;
	428 :	1111111110100011;
	427 :	1111111101011101;
	426 :	0000001011000000;
	425 :	1111110000001010;
	424 :	1111111011000110;
	423 :	0000000101011100;
	422 :	1111111110110100;
	421 :	1111111100111100;
	420 :	0000000000011000;
	419 :	1111111111111010;
	418 :	0000000101011010;
	417 :	0000001000100111;
	416 :	1111111100011100;
	415 :	1111111010110000;
	414 :	1111111011000000;
	413 :	1111111001010000;
	412 :	1111111010101001;
	411 :	1111100111100101;
	410 :	1111111011101101;
	409 :	1111100000111000;
	408 :	1111111001011000;
	407 :	0000000100011000;
	406 :	0000000110101001;
	405 :	1111111101110110;
	404 :	0000010001100011;
	403 :	1111110111101001;
	402 :	1111110010011000;
	401 :	0000000010100111;
	400 :	0000000001110101;
	399 :	0000001000101001;
	398 :	0000001000001100;
	397 :	1111110011100100;
	396 :	1111111011000101;
	395 :	1111111110100011;
	394 :	1111111101110010;
	393 :	1111111110011011;
	392 :	0000000000011010;
	391 :	0000000100010100;
	390 :	0000000100010110;
	389 :	0000000100110000;
	388 :	0000001000100111;
	387 :	1111111001101111;
	386 :	1111100111100000;
	385 :	1111110111100110;
	384 :	1111110010001010;
	383 :	1111110001010110;
	382 :	1111111001000010;
	381 :	1111111001000101;
	380 :	1111101111100101;
	379 :	1111110111000110;
	378 :	0000001001010010;
	377 :	1111111111100110;
	376 :	0000010011000110;
	375 :	0000000100110010;
	374 :	0000001000111010;
	373 :	0000000010000000;
	372 :	0000000110110110;
	371 :	1111110111111010;
	370 :	1111111101110110;
	369 :	1111101111111111;
	368 :	1111101111111101;
	367 :	1111111100110111;
	366 :	1111111110111100;
	365 :	1111111111000111;
	364 :	1111111111010100;
	363 :	0000000000000110;
	362 :	1111111101001110;
	361 :	0000000110011010;
	360 :	1111110011100100;
	359 :	1111101000011111;
	358 :	0000000010011001;
	357 :	1111111110010010;
	356 :	1111101000101110;
	355 :	1111111001110011;
	354 :	1111111000000001;
	353 :	1111100010011011;
	352 :	1111111100001010;
	351 :	1111110001011101;
	350 :	1111111000100010;
	349 :	1111110101111111;
	348 :	0000001011000100;
	347 :	0000001010000001;
	346 :	0000000011000111;
	345 :	0000001010011111;
	344 :	0000010110010111;
	343 :	1111111001000010;
	342 :	1111101101001100;
	341 :	1111111001110010;
	340 :	1111110100000011;
	339 :	1111111101010000;
	338 :	1111111101110100;
	337 :	1111111111000100;
	336 :	0000000000101111;
	335 :	1111111111011100;
	334 :	1111111011101100;
	333 :	1111111101011010;
	332 :	1111100100111001;
	331 :	1111110001101010;
	330 :	0000000001000100;
	329 :	0000000011101111;
	328 :	1111110110111111;
	327 :	0000001011110101;
	326 :	1111110001010001;
	325 :	1111100100101000;
	324 :	1111101101111110;
	323 :	1111100100011111;
	322 :	1111100110001000;
	321 :	1111101100111101;
	320 :	0000000001101110;
	319 :	1111110100000010;
	318 :	1111111000011000;
	317 :	1111111101001111;
	316 :	0000001001011011;
	315 :	1111111111100001;
	314 :	1111111001101111;
	313 :	0000000111111111;
	312 :	1111111100111100;
	311 :	1111111100101000;
	310 :	1111111101011000;
	309 :	1111111111001011;
	308 :	1111111111000111;
	307 :	1111111111111000;
	306 :	1111111111011101;
	305 :	1111110110101000;
	304 :	1111110011100110;
	303 :	1111110101010011;
	302 :	0000000111100001;
	301 :	1111111101111000;
	300 :	0000000111100111;
	299 :	1111111000001000;
	298 :	1111101110010101;
	297 :	1111110011100111;
	296 :	1111100101101010;
	295 :	1111111010011010;
	294 :	0000000001100111;
	293 :	0000011100010010;
	292 :	0000000100001001;
	291 :	1111111011101101;
	290 :	1111110011101101;
	289 :	1111110001010110;
	288 :	1111110111010100;
	287 :	1111110111110111;
	286 :	1111111000100010;
	285 :	1111111111111100;
	284 :	1111111101010011;
	283 :	1111111010101010;
	282 :	1111111101101011;
	281 :	0000000000010001;
	280 :	1111111111110000;
	279 :	0000000000000110;
	278 :	1111111100111101;
	277 :	1111110110111100;
	276 :	1111111001010011;
	275 :	0000000001110111;
	274 :	1111111100111010;
	273 :	1111110010000000;
	272 :	0000001001101111;
	271 :	1111110111010111;
	270 :	1111101010101101;
	269 :	1111110100111011;
	268 :	1111011100111011;
	267 :	1111111001101111;
	266 :	0000011011001101;
	265 :	0000001100111101;
	264 :	1111110111011101;
	263 :	1111100110110010;
	262 :	1111101111100110;
	261 :	1111101010100100;
	260 :	1111101110001011;
	259 :	1111111011101111;
	258 :	1111101100100011;
	257 :	1111111010011010;
	256 :	1111110001110101;
	255 :	1111111001101111;
	254 :	0000000000000111;
	253 :	1111111111110011;
	252 :	0000000000100000;
	251 :	1111111110111111;
	250 :	1111111111111100;
	249 :	1111111111000001;
	248 :	0000000100110110;
	247 :	0000001100101100;
	246 :	1111111000010010;
	245 :	1111100111010011;
	244 :	0000010000100000;
	243 :	1111111010010100;
	242 :	1111100100101111;
	241 :	1111101011100101;
	240 :	1111100111000101;
	239 :	0000100000110000;
	238 :	0000011110000100;
	237 :	0000011000111100;
	236 :	1111100000001010;
	235 :	1111101110000110;
	234 :	0000000000000001;
	233 :	1111100010110000;
	232 :	1111110000100100;
	231 :	1111111101111100;
	230 :	1111111010011000;
	229 :	1111110101011001;
	228 :	1111110000101010;
	227 :	1111111001001000;
	226 :	0000000000100110;
	225 :	0000000000100101;
	224 :	1111111110111101;
	223 :	0000000000101010;
	222 :	1111111111100001;
	221 :	1111111110011001;
	220 :	0000000110000111;
	219 :	1111110110100110;
	218 :	1111111000100010;
	217 :	1111100101010110;
	216 :	1111101110001010;
	215 :	1111010001000111;
	214 :	1111100111100101;
	213 :	1111110111000010;
	212 :	0000000001110011;
	211 :	1111111101001000;
	210 :	0000100001100110;
	209 :	1111111011000001;
	208 :	1111110111110001;
	207 :	0000001110011010;
	206 :	1111110000111000;
	205 :	1111011010101110;
	204 :	1111101011011000;
	203 :	1111111011110001;
	202 :	1111111001110010;
	201 :	1111110101011011;
	200 :	1111111100011011;
	199 :	1111111010111010;
	198 :	0000000000100111;
	197 :	1111111111110101;
	196 :	1111111111111011;
	195 :	1111111111110010;
	194 :	0000000000001111;
	193 :	1111111011011101;
	192 :	1111110110010011;
	191 :	1111110000100110;
	190 :	1111110110101111;
	189 :	1111110110011010;
	188 :	1111010100101111;
	187 :	1111010101100111;
	186 :	1111100110110000;
	185 :	1111101101101001;
	184 :	0000010101011011;
	183 :	0000010101011101;
	182 :	0000010011001101;
	181 :	1111110011011100;
	180 :	0000000000110010;
	179 :	0000001000010111;
	178 :	1111111010110101;
	177 :	1111100110100000;
	176 :	1111101010010000;
	175 :	1111110110011101;
	174 :	1111110010000101;
	173 :	1111110010110000;
	172 :	1111111101110110;
	171 :	1111111011111011;
	170 :	0000000000010101;
	169 :	1111111111101110;
	168 :	0000000000011111;
	167 :	0000000000100010;
	166 :	0000000000000011;
	165 :	1111111011010011;
	164 :	1111111000011000;
	163 :	1111110110011001;
	162 :	1111111000100111;
	161 :	1111110110100010;
	160 :	1111111010110111;
	159 :	1111111110010110;
	158 :	0000010001001110;
	157 :	0000010000110010;
	156 :	0000010001001111;
	155 :	0000001011000011;
	154 :	0000001110101001;
	153 :	0000000111010110;
	152 :	0000010100110001;
	151 :	0000000010000010;
	150 :	1111111010110000;
	149 :	1111110100001100;
	148 :	1111111011000000;
	147 :	1111110011111101;
	146 :	1111110111111111;
	145 :	1111111101010010;
	144 :	1111111111111110;
	143 :	1111111101000001;
	142 :	0000000000011010;
	141 :	1111111111000110;
	140 :	0000000000111110;
	139 :	0000000000011000;
	138 :	1111111111001001;
	137 :	1111111101001110;
	136 :	1111111000110100;
	135 :	1111111000000001;
	134 :	1111111110000010;
	133 :	0000000010100100;
	132 :	1111111011110001;
	131 :	1111111010111111;
	130 :	0000000111010110;
	129 :	0000000001100101;
	128 :	1111111100011111;
	127 :	0000001000001011;
	126 :	0000001111000101;
	125 :	0000000110111100;
	124 :	1111111100101110;
	123 :	1111110010011100;
	122 :	0000000110101000;
	121 :	0000000000001111;
	120 :	1111111011110101;
	119 :	1111111101000001;
	118 :	1111111101000011;
	117 :	1111111101100010;
	116 :	1111111110111111;
	115 :	1111111110011100;
	114 :	1111111111110011;
	113 :	1111111111111100;
	112 :	1111111111110110;
	111 :	0000000000101001;
	110 :	1111111111100100;
	109 :	0000000000101111;
	108 :	0000000001000010;
	107 :	0000000000110110;
	106 :	1111111110000011;
	105 :	1111111100111000;
	104 :	1111111111110101;
	103 :	0000000110000000;
	102 :	1111111110111100;
	101 :	1111110101100010;
	100 :	1111111100000100;
	99 :	1111111110000101;
	98 :	1111111111000100;
	97 :	0000000001011000;
	96 :	1111111101100100;
	95 :	1111111111000111;
	94 :	0000000100000000;
	93 :	0000000111100100;
	92 :	0000000010011010;
	91 :	0000000010000110;
	90 :	0000000000110000;
	89 :	1111111101110101;
	88 :	0000000000000100;
	87 :	1111111111010010;
	86 :	1111111111010100;
	85 :	0000000000100010;
	84 :	0000000000100011;
	83 :	1111111111011101;
	82 :	1111111111010100;
	81 :	1111111111010001;
	80 :	1111111111010111;
	79 :	0000000000011000;
	78 :	1111111111010011;
	77 :	1111111111010111;
	76 :	0000000000100000;
	75 :	1111111111100100;
	74 :	0000000000011100;
	73 :	0000000100000100;
	72 :	0000000101100100;
	71 :	0000000100111001;
	70 :	0000000101011110;
	69 :	0000000110000100;
	68 :	0000000101000101;
	67 :	0000000101001011;
	66 :	0000000101110011;
	65 :	0000000100011100;
	64 :	0000000010001101;
	63 :	0000000001011010;
	62 :	0000000000001111;
	61 :	0000000000000100;
	60 :	1111111111100010;
	59 :	1111111111111001;
	58 :	0000000000000000;
	57 :	0000000000000000;
	56 :	1111111110110100;
	55 :	1111111111101011;
	54 :	0000000000001100;
	53 :	1111111111110110;
	52 :	0000000000001000;
	51 :	1111111111111011;
	50 :	0000000000001110;
	49 :	1111111111100010;
	48 :	0000000000101101;
	47 :	1111111111101111;
	46 :	1111111111111100;
	45 :	1111111110001111;
	44 :	1111111100111001;
	43 :	1111111111000110;
	42 :	0000000000010011;
	41 :	1111111111000101;
	40 :	1111111101011011;
	39 :	1111111111111110;
	38 :	0000000000011100;
	37 :	1111111111110101;
	36 :	0000000000101011;
	35 :	1111111111101111;
	34 :	0000000000011111;
	33 :	0000000000100000;
	32 :	1111111111001111;
	31 :	0000000000010100;
	30 :	1111111111011101;
	29 :	1111111111001111;
	28 :	1111111111101011;
	27 :	0000000000010001;
	26 :	0000000000001010;
	25 :	0000000000110111;
	24 :	0000000000000100;
	23 :	0000000000010100;
	22 :	1111111111100010;
	21 :	1111111111110010;
	20 :	0000000000000011;
	19 :	0000000000000000;
	18 :	0000000000000000;
	17 :	1111111111111100;
	16 :	0000000000010101;
	15 :	1111111111110001;
	14 :	1111111111100000;
	13 :	0000000000010001;
	12 :	1111111111100101;
	11 :	0000000000010010;
	10 :	1111111111111111;
	9 :	1111111111110000;
	8 :	1111111111001100;
	7 :	0000000000000100;
	6 :	0000000000101011;
	5 :	1111111111110101;
	4 :	1111111111111100;
	3 :	1111111111101001;
	2 :	1111111111110111;
	1 :	0000000000101000;
	0 :	1111111111101101;
END;
