-- begin_signature
-- weight_memory(num_weight
-- 30
-- data_width
-- 16
-- address_width
-- 5
-- weight_file
-- "C:/SystemVerilog_NPU/w_3_5.mif")
-- end_signature
WIDTH=16;
DEPTH=30;

ADDRESS_RADIX=UNS;
DATA_RADIX=BIN;

CONTENT BEGIN
	29 :	1110110001110100;
	28 :	0000001011101101;
	27 :	1110101010111100;
	26 :	1110000011001100;
	25 :	1111000110010100;
	24 :	1111000100111110;
	23 :	1111100001001010;
	22 :	1111100011100001;
	21 :	0000001101100000;
	20 :	1111110001100011;
	19 :	0001110000001000;
	18 :	1101110010001010;
	17 :	0001100010010100;
	16 :	0000010101000011;
	15 :	0001000110011101;
	14 :	0000100110100011;
	13 :	0001100110000111;
	12 :	0001111011010101;
	11 :	1110010101001010;
	10 :	0000011110011110;
	9 :	0010010111010110;
	8 :	1110000011011100;
	7 :	1110011101111010;
	6 :	0000101010101001;
	5 :	0000111010111010;
	4 :	1111111011010110;
	3 :	1111011111010001;
	2 :	0001100101111100;
	1 :	1111001011011101;
	0 :	0000010101011001;
END;
