-- begin_signature
-- weight_memory(num_weight
-- 30
-- data_width
-- 16
-- address_width
-- 5
-- weight_file
-- "C:/SystemVerilog_NPU/w_2_22.mif")
-- end_signature
WIDTH=16;
DEPTH=30;

ADDRESS_RADIX=UNS;
DATA_RADIX=BIN;

CONTENT BEGIN
	29 :	1111100100100110;
	28 :	0000010111000111;
	27 :	1111100100101001;
	26 :	0000001010011001;
	25 :	0000000111101111;
	24 :	0000010010110011;
	23 :	1111011001111010;
	22 :	0000000011110111;
	21 :	1111110001010110;
	20 :	1111001110001001;
	19 :	0000001011010000;
	18 :	0000100111100011;
	17 :	0000010000011110;
	16 :	0000000100100100;
	15 :	1111010101011000;
	14 :	1111000111110110;
	13 :	1111111110101111;
	12 :	1111011110011111;
	11 :	0000001011010001;
	10 :	0000100010101011;
	9 :	1111110101010110;
	8 :	1111110101001010;
	7 :	1111100100001100;
	6 :	1111111110111000;
	5 :	0000000111100101;
	4 :	1111011001101100;
	3 :	0000001001011111;
	2 :	1111101101101001;
	1 :	1111110001011100;
	0 :	0000011110010001;
END;
