-- begin_signature
-- weight_memory(num_weight
-- 30
-- data_width
-- 16
-- address_width
-- 5
-- weight_file
-- "C:/SystemVerilog_NPU/w_2_5.mif")
-- end_signature
WIDTH=16;
DEPTH=30;

ADDRESS_RADIX=UNS;
DATA_RADIX=BIN;

CONTENT BEGIN
	29 :	1111111011101111;
	28 :	1111001111110010;
	27 :	0000111011010110;
	26 :	0001001001001100;
	25 :	0010001110101010;
	24 :	0000010111110011;
	23 :	0000000001011010;
	22 :	0000011111110010;
	21 :	1111101010001000;
	20 :	1100111001000101;
	19 :	0000101011000111;
	18 :	0000010101101011;
	17 :	1110101000111011;
	16 :	0000010110010000;
	15 :	1110001000111011;
	14 :	0001001010111000;
	13 :	0000111101101010;
	12 :	1110000001111101;
	11 :	1111100000010110;
	10 :	0000011011000101;
	9 :	1110111100010101;
	8 :	0000101100010011;
	7 :	1111111110100100;
	6 :	1110111110110000;
	5 :	1111001101010011;
	4 :	0000010110010010;
	3 :	0000111001110100;
	2 :	1111111010111100;
	1 :	1111110010101110;
	0 :	0001100111101011;
END;
