-- begin_signature
-- weight_memory(num_weight
-- 30
-- data_width
-- 16
-- address_width
-- 5
-- weight_file
-- "C:/SystemVerilog_NPU/w_2_4.mif")
-- end_signature
WIDTH=16;
DEPTH=30;

ADDRESS_RADIX=UNS;
DATA_RADIX=BIN;

CONTENT BEGIN
	29 :	0000000101011001;
	28 :	1111001001010110;
	27 :	0000010000110101;
	26 :	0000101010100101;
	25 :	1111001001011001;
	24 :	0000100001111111;
	23 :	1111101111101111;
	22 :	1110101011110101;
	21 :	1111011111110111;
	20 :	1111101111001011;
	19 :	1110101110110111;
	18 :	0000110111000010;
	17 :	0000101111011011;
	16 :	0000110011101011;
	15 :	0001010000100110;
	14 :	1111001101100101;
	13 :	1111011111010101;
	12 :	0000011000101111;
	11 :	1111100011100001;
	10 :	0000010110110101;
	9 :	1110101011111000;
	8 :	1111001011100111;
	7 :	0000000001000010;
	6 :	0000111011111110;
	5 :	1101111000100101;
	4 :	0001101101110110;
	3 :	0000101001011010;
	2 :	1111110111010000;
	1 :	1111000011100111;
	0 :	1111101010010001;
END;
