-- begin_signature
-- weight_memory(num_weight
-- 30
-- data_width
-- 16
-- address_width
-- 5
-- weight_file
-- "C:/SystemVerilog_NPU/w_2_23.mif")
-- end_signature
WIDTH=16;
DEPTH=30;

ADDRESS_RADIX=UNS;
DATA_RADIX=BIN;

CONTENT BEGIN
	29 :	1111001101110001;
	28 :	0001000110101101;
	27 :	0000001001100011;
	26 :	1110111111001111;
	25 :	1111101101110000;
	24 :	1110111110010110;
	23 :	0000001000100101;
	22 :	0000101101011001;
	21 :	1111001111110001;
	20 :	1110111000111111;
	19 :	0001100111100111;
	18 :	0001000110010100;
	17 :	1111001001010011;
	16 :	1111100000101101;
	15 :	1111101100011111;
	14 :	1111110110110101;
	13 :	0001010111011000;
	12 :	0000101011010101;
	11 :	0000001010100101;
	10 :	0000100100000111;
	9 :	0001110111100110;
	8 :	0000011011010110;
	7 :	1111011110100001;
	6 :	1111011011011010;
	5 :	0000111110111000;
	4 :	1111011011011000;
	3 :	1110111001011111;
	2 :	0000100111001001;
	1 :	0000011100001010;
	0 :	0000100110000001;
END;
