-- begin_signature
-- weight_memory(num_weight
-- 30
-- data_width
-- 16
-- address_width
-- 5
-- weight_file
-- "C:/SystemVerilog_NPU/w_3_7.mif")
-- end_signature
WIDTH=16;
DEPTH=30;

ADDRESS_RADIX=UNS;
DATA_RADIX=BIN;

CONTENT BEGIN
	29 :	1111110011001010;
	28 :	1111110001100000;
	27 :	1101101000110110;
	26 :	1111110100101101;
	25 :	0000100110011100;
	24 :	1111010000110101;
	23 :	0001000001000110;
	22 :	0000010110110001;
	21 :	1111111001011111;
	20 :	1111111111110101;
	19 :	0000101010100111;
	18 :	1111001100110101;
	17 :	0000010010001011;
	16 :	1111110010101111;
	15 :	0001000100001110;
	14 :	0000000100001000;
	13 :	0000101000110001;
	12 :	0000110111001111;
	11 :	0000111100101100;
	10 :	1111110110101011;
	9 :	0001000001010010;
	8 :	0000001101100000;
	7 :	0000100001000101;
	6 :	0000001000001000;
	5 :	1111111110100110;
	4 :	0001001110000110;
	3 :	1110100110101100;
	2 :	0000110001100111;
	1 :	0000000110011110;
	0 :	0001001101010111;
END;
