-- begin_signature
-- weight_memory(num_weight
-- 784
-- data_width
-- 16
-- address_width
-- 10
-- weight_file
-- "C:/SystemVerilog_NPU/w_1_5.mif")
-- end_signature
WIDTH=16;
DEPTH=784;

ADDRESS_RADIX=UNS;
DATA_RADIX=BIN;

CONTENT BEGIN
	783 :	1111111111101011;
	782 :	1111111111101110;
	781 :	1111111111100011;
	780 :	0000000000001111;
	779 :	1111111111100101;
	778 :	1111111101000101;
	777 :	1111111111011010;
	776 :	1111111111101001;
	775 :	0000000000001100;
	774 :	1111110101100010;
	773 :	1111111011000110;
	772 :	1111111111101011;
	771 :	1111111101100100;
	770 :	1111111011000111;
	769 :	1111111110100100;
	768 :	1111111100111000;
	767 :	1111111101010010;
	766 :	1111111101111110;
	765 :	1111111111101010;
	764 :	1111111111011011;
	763 :	1111111111011011;
	762 :	1111111111100110;
	761 :	0000000000011000;
	760 :	1111111111111110;
	759 :	1111111111111001;
	758 :	0000000000001101;
	757 :	0000000000010001;
	756 :	0000000000001011;
	755 :	0000000000011011;
	754 :	1111111111110001;
	753 :	0000000000001001;
	752 :	0000000000001100;
	751 :	0000000000001101;
	750 :	1111111010011101;
	749 :	1111110010010000;
	748 :	1111110100001001;
	747 :	1111110011101001;
	746 :	1111100100110010;
	745 :	1111110000111100;
	744 :	1111101110011100;
	743 :	0000000001001100;
	742 :	1111101001010101;
	741 :	1111100111111000;
	740 :	1111110000000001;
	739 :	1111111101110001;
	738 :	1111111000010100;
	737 :	1111111010111010;
	736 :	1111111001001101;
	735 :	1111111011110110;
	734 :	1111111101100111;
	733 :	0000000001010111;
	732 :	1111111111011011;
	731 :	0000000000011111;
	730 :	1111111111100000;
	729 :	1111111111110000;
	728 :	0000000000001100;
	727 :	1111111111101101;
	726 :	0000000000101110;
	725 :	1111111111001010;
	724 :	1111111111010010;
	723 :	1111111000100010;
	722 :	1111110011001010;
	721 :	1111110101111011;
	720 :	1111100011111010;
	719 :	1111010011101001;
	718 :	0000000110010010;
	717 :	1111111011011010;
	716 :	1111101000011011;
	715 :	0000000010101100;
	714 :	1111100011011010;
	713 :	1111111010000110;
	712 :	1111101101001110;
	711 :	1111110101001011;
	710 :	1111110100110011;
	709 :	1111111001110000;
	708 :	1111111010000101;
	707 :	1111110100001110;
	706 :	1111111001001001;
	705 :	1111111110010100;
	704 :	1111111110100010;
	703 :	0000000000000001;
	702 :	1111111111001101;
	701 :	1111111111110110;
	700 :	0000000000001000;
	699 :	1111111111000110;
	698 :	0000000000100101;
	697 :	1111111111110100;
	696 :	1111111110000000;
	695 :	1111110101000101;
	694 :	1111111100100100;
	693 :	0000000110000001;
	692 :	1111110010010111;
	691 :	0000000100001001;
	690 :	0000100000000110;
	689 :	0000010001000011;
	688 :	1111111011011110;
	687 :	0000001101001101;
	686 :	0000001010000111;
	685 :	1111111110100110;
	684 :	1111110011010101;
	683 :	1111110110100110;
	682 :	1111110010101111;
	681 :	1111111000001110;
	680 :	1111111000001100;
	679 :	1111111011000101;
	678 :	1111111101100010;
	677 :	1111111110011010;
	676 :	1111111101001110;
	675 :	1111111111010100;
	674 :	0000000000010010;
	673 :	1111111111101101;
	672 :	0000000000001011;
	671 :	1111111111110011;
	670 :	0000000000000000;
	669 :	1111111111110000;
	668 :	1111111001011010;
	667 :	1111111011110010;
	666 :	0000000100000010;
	665 :	0000010100000001;
	664 :	0000001110100011;
	663 :	0000000111101001;
	662 :	0000001100011110;
	661 :	1111100111101110;
	660 :	1111100110001001;
	659 :	0000000110100100;
	658 :	1111111001110110;
	657 :	0000000010111100;
	656 :	1111111100111110;
	655 :	1111111010000001;
	654 :	1111110011000011;
	653 :	1111111100101111;
	652 :	0000000111110111;
	651 :	1111111110111010;
	650 :	0000000110101010;
	649 :	0000000011111011;
	648 :	0000000000110100;
	647 :	1111111111100100;
	646 :	0000000000011000;
	645 :	1111111111101001;
	644 :	0000000000000110;
	643 :	0000000000000001;
	642 :	1111111111011000;
	641 :	0000000001000101;
	640 :	1111111111000101;
	639 :	1111111010001100;
	638 :	0000000101111010;
	637 :	0000001100100101;
	636 :	0000000101000010;
	635 :	1111111100010110;
	634 :	1111110101011101;
	633 :	1111110110001010;
	632 :	0000000000010110;
	631 :	0000001000110001;
	630 :	1111111010101101;
	629 :	0000001110101100;
	628 :	1111110101010000;
	627 :	0000000101011010;
	626 :	1111111010100100;
	625 :	1111111100001101;
	624 :	0000000010100011;
	623 :	1111111010000000;
	622 :	0000000000101010;
	621 :	0000000011011001;
	620 :	0000000001010100;
	619 :	0000000000010100;
	618 :	0000000000000011;
	617 :	1111111111101000;
	616 :	1111111111011101;
	615 :	0000000000011110;
	614 :	1111111110101100;
	613 :	0000000000010100;
	612 :	0000000000111101;
	611 :	0000000011011101;
	610 :	0000000100010010;
	609 :	0000000001000011;
	608 :	1111110100101101;
	607 :	0000000011001101;
	606 :	0000001000001111;
	605 :	1111111111101110;
	604 :	0000001001010101;
	603 :	1111111111000010;
	602 :	0000000111000101;
	601 :	0000000000111111;
	600 :	1111101111110101;
	599 :	0000001010010010;
	598 :	0000010000110101;
	597 :	0000000111110001;
	596 :	0000001101010011;
	595 :	1111111101111001;
	594 :	1111110000010001;
	593 :	1111101111110111;
	592 :	1111111010111110;
	591 :	0000000000110111;
	590 :	1111111101111010;
	589 :	1111111111110100;
	588 :	1111111111011000;
	587 :	1111111111101101;
	586 :	1111111111100001;
	585 :	0000000000100110;
	584 :	1111111111010101;
	583 :	1111111100110100;
	582 :	1111110111011000;
	581 :	1111111101110111;
	580 :	1111101100010110;
	579 :	1111111111001001;
	578 :	0000010010010000;
	577 :	1111111011111110;
	576 :	0000001101101010;
	575 :	0000000010111100;
	574 :	1111110111101011;
	573 :	1111110001001010;
	572 :	0000000001001110;
	571 :	0000000011000001;
	570 :	0000010111000110;
	569 :	1111111001110101;
	568 :	1111111001100010;
	567 :	1111111101110101;
	566 :	1111101011011010;
	565 :	1111100010101000;
	564 :	1111110100111001;
	563 :	0000000001101011;
	562 :	0000000000110101;
	561 :	1111111111001011;
	560 :	1111111111101011;
	559 :	0000000001000101;
	558 :	1111111110111010;
	557 :	0000000001010111;
	556 :	0000000001000010;
	555 :	1111111110011011;
	554 :	1111110100010110;
	553 :	1111111110101100;
	552 :	1111111111100110;
	551 :	1111110111101111;
	550 :	1111111111111000;
	549 :	1111111100110011;
	548 :	0000001010001110;
	547 :	0000001001110000;
	546 :	0000000011011110;
	545 :	1111110101111101;
	544 :	1111101110100010;
	543 :	0000000110001110;
	542 :	1111110101001011;
	541 :	1111111010000011;
	540 :	1111101000100011;
	539 :	1111110111111010;
	538 :	1111110100011110;
	537 :	1111110010001010;
	536 :	1111111010111111;
	535 :	0000000100110111;
	534 :	0000000010000111;
	533 :	0000000000010100;
	532 :	1111111111010100;
	531 :	1111111111011010;
	530 :	1111111100110001;
	529 :	1111111100000011;
	528 :	1111111010100001;
	527 :	1111111001110110;
	526 :	1111110101100101;
	525 :	1111111111000100;
	524 :	0000001101011000;
	523 :	1111110001010001;
	522 :	0000001000100101;
	521 :	1111111000000110;
	520 :	0000000010001010;
	519 :	0000000000010011;
	518 :	0000000000100000;
	517 :	0000000110111101;
	516 :	0000001010100001;
	515 :	1111111001111011;
	514 :	0000000100110111;
	513 :	0000001010100100;
	512 :	1111111000010110;
	511 :	1111110111101110;
	510 :	1111110111101001;
	509 :	1111111100101111;
	508 :	0000000100000100;
	507 :	0000001011011011;
	506 :	0000000011000010;
	505 :	1111111111100001;
	504 :	0000000000111100;
	503 :	1111111110001111;
	502 :	1111111101011111;
	501 :	1111111101010111;
	500 :	1111110110111010;
	499 :	1111110100011100;
	498 :	1111101101111001;
	497 :	0000000011011110;
	496 :	0000000001101011;
	495 :	1111110001000111;
	494 :	0000001100101110;
	493 :	0000000010100011;
	492 :	1111111010110011;
	491 :	0000000011111000;
	490 :	1111110101110110;
	489 :	1111110100011000;
	488 :	1111110110011110;
	487 :	1111110100011001;
	486 :	0000000101000010;
	485 :	0000000101011111;
	484 :	1111111010001001;
	483 :	0000000001010111;
	482 :	1111110010111001;
	481 :	1111111000111011;
	480 :	1111111111000111;
	479 :	0000000000011100;
	478 :	0000000101001000;
	477 :	0000000000011011;
	476 :	1111111111100110;
	475 :	0000000000001100;
	474 :	1111111110010010;
	473 :	0000000000100100;
	472 :	1111111110011110;
	471 :	0000000010000000;
	470 :	1111111010010011;
	469 :	0000010110111101;
	468 :	0000001111101000;
	467 :	0000100000000110;
	466 :	0000001100010100;
	465 :	1111110011100111;
	464 :	1111111110011110;
	463 :	0000001010111100;
	462 :	0000000001101110;
	461 :	0000000010100110;
	460 :	0000001110001101;
	459 :	1111101010111001;
	458 :	1111111001000001;
	457 :	0000000010000011;
	456 :	1111111101000011;
	455 :	0000001100100100;
	454 :	0000000010001000;
	453 :	1111110111111110;
	452 :	1111110111101011;
	451 :	1111111010110010;
	450 :	0000000001110010;
	449 :	1111111111011011;
	448 :	0000000000000011;
	447 :	1111111110111001;
	446 :	1111111001110011;
	445 :	1111111010001100;
	444 :	1111110100010001;
	443 :	1111110110101111;
	442 :	0000001101111111;
	441 :	1111111011111000;
	440 :	1111101001111101;
	439 :	1111111110011010;
	438 :	1111110011110100;
	437 :	1111111101100011;
	436 :	0000000011010000;
	435 :	1111110111000001;
	434 :	1111111110111010;
	433 :	0000001100000110;
	432 :	0000010000101000;
	431 :	1111110011111010;
	430 :	0000001011001001;
	429 :	0000001100110000;
	428 :	0000000001100011;
	427 :	0000010101111110;
	426 :	0000000101000101;
	425 :	1111111010000100;
	424 :	0000001101100111;
	423 :	0000000000011111;
	422 :	0000000010010111;
	421 :	0000000000000000;
	420 :	0000000000010001;
	419 :	0000000000010010;
	418 :	1111111011101011;
	417 :	1111111101101100;
	416 :	1111111101010000;
	415 :	1111110111010100;
	414 :	0000000100001000;
	413 :	1111110000101010;
	412 :	1111110010110001;
	411 :	1111111111000110;
	410 :	1111101110100000;
	409 :	0000010100100100;
	408 :	0000001000010111;
	407 :	1111111011110110;
	406 :	0000000110000010;
	405 :	1111111011110111;
	404 :	0000001000001010;
	403 :	0000000100100101;
	402 :	0000001011010101;
	401 :	0000001010010111;
	400 :	0000000111100011;
	399 :	0000001010101100;
	398 :	1111110111101110;
	397 :	0000010001010011;
	396 :	0000001011010000;
	395 :	1111111110111110;
	394 :	1111111110010001;
	393 :	1111111110101000;
	392 :	1111111111010001;
	391 :	1111111111100000;
	390 :	1111111101010010;
	389 :	1111111001100111;
	388 :	1111111000101010;
	387 :	0000010000010110;
	386 :	0000001110100100;
	385 :	0000000010100111;
	384 :	0000001001010011;
	383 :	0000001000110101;
	382 :	0000000110111100;
	381 :	0000010011001100;
	380 :	0000001000111111;
	379 :	1111101110010001;
	378 :	1111110100111001;
	377 :	0000001100010010;
	376 :	0000000001111110;
	375 :	1111111100101001;
	374 :	0000000110100011;
	373 :	1111111110111000;
	372 :	1111111000000010;
	371 :	1111111101111110;
	370 :	0000001010111100;
	369 :	0000000001101000;
	368 :	1111111111000111;
	367 :	1111111110001100;
	366 :	1111111110100111;
	365 :	1111111111011111;
	364 :	0000000000110011;
	363 :	0000000000100010;
	362 :	1111111100000110;
	361 :	1111111000010111;
	360 :	0000000001111101;
	359 :	0000001001100000;
	358 :	0000000111001101;
	357 :	0000010101000111;
	356 :	0000000111111011;
	355 :	1111111001010101;
	354 :	1111111100111000;
	353 :	1111110111001101;
	352 :	1111110111111101;
	351 :	1111110101110011;
	350 :	1111110101001111;
	349 :	0000001101110100;
	348 :	1111110001101010;
	347 :	1111110011101011;
	346 :	0000010111111000;
	345 :	0000001001000001;
	344 :	1111110001011111;
	343 :	0000000100101011;
	342 :	0000001001001001;
	341 :	0000000101101110;
	340 :	1111111010001010;
	339 :	1111111110110010;
	338 :	1111111110101100;
	337 :	1111111111011000;
	336 :	0000000000110110;
	335 :	1111111111101000;
	334 :	1111111110110011;
	333 :	1111111110110111;
	332 :	1111111100000111;
	331 :	1111111000011110;
	330 :	1111110010010111;
	329 :	1111110010000000;
	328 :	1111101110000010;
	327 :	1111011011100010;
	326 :	1111100111101111;
	325 :	0000000100110111;
	324 :	0000001111000101;
	323 :	0000000101110000;
	322 :	1111110110000110;
	321 :	1111110010110000;
	320 :	1111011010011101;
	319 :	1111100010110001;
	318 :	0000000000111001;
	317 :	0000001001111011;
	316 :	0000000000001110;
	315 :	1111110010000101;
	314 :	1111111000000111;
	313 :	1111111100000101;
	312 :	1111110100110010;
	311 :	1111111011000101;
	310 :	1111111110100000;
	309 :	1111111110010001;
	308 :	1111111111110000;
	307 :	1111111111110101;
	306 :	1111111100010010;
	305 :	1111111010111000;
	304 :	1111111011001011;
	303 :	1111101111101000;
	302 :	1111100011100111;
	301 :	1111100110000110;
	300 :	1111110000111000;
	299 :	1111110010001111;
	298 :	1111110110010100;
	297 :	0000010110110110;
	296 :	0000000101011001;
	295 :	0000010011011011;
	294 :	1111111011100101;
	293 :	1111010011011100;
	292 :	1111100101100010;
	291 :	1111110000110011;
	290 :	1111111100011010;
	289 :	0000000111111001;
	288 :	0000000110000011;
	287 :	1111111110011110;
	286 :	1111011011101000;
	285 :	1111111010110011;
	284 :	0000000001010000;
	283 :	1111111010111011;
	282 :	1111111101101011;
	281 :	1111111101100011;
	280 :	1111111111100001;
	279 :	1111111111011011;
	278 :	1111111001110011;
	277 :	1111110010010010;
	276 :	1111110000000000;
	275 :	1111100110101001;
	274 :	1111100110010010;
	273 :	1111111011101111;
	272 :	0000001010001001;
	271 :	0000000100001100;
	270 :	0000000010001001;
	269 :	0000000011011011;
	268 :	0000011110111111;
	267 :	0000100110011001;
	266 :	1111101110011110;
	265 :	1111001011110011;
	264 :	1110111010100001;
	263 :	1111110011100011;
	262 :	0000000101001001;
	261 :	0000000011110110;
	260 :	1111111100000111;
	259 :	1111110111101011;
	258 :	1111101101010110;
	257 :	0000001000110011;
	256 :	0000000111100100;
	255 :	1111111110011100;
	254 :	1111111110100011;
	253 :	1111111101011100;
	252 :	0000000000001001;
	251 :	1111111111110100;
	250 :	1111111010100111;
	249 :	1111111000001010;
	248 :	1111100111111010;
	247 :	1111100010011010;
	246 :	1111101111001111;
	245 :	1111110001100101;
	244 :	1111101110010001;
	243 :	1111111101000001;
	242 :	1111111011001010;
	241 :	0000100000001111;
	240 :	0000010111111001;
	239 :	0000001010101000;
	238 :	0000000111110100;
	237 :	1111000101100011;
	236 :	1110100001001000;
	235 :	1111101001100100;
	234 :	0000000011011110;
	233 :	0000000110001100;
	232 :	1111111010010000;
	231 :	0000000010011011;
	230 :	0000001100100111;
	229 :	0000011000101000;
	228 :	0000000101110011;
	227 :	1111111100101110;
	226 :	1111111110110110;
	225 :	1111111110011110;
	224 :	1111111111011000;
	223 :	0000000001010001;
	222 :	0000000001100110;
	221 :	0000000010100001;
	220 :	1111110010100010;
	219 :	1111101000000100;
	218 :	1111110110101110;
	217 :	1111111001001110;
	216 :	0000001111000001;
	215 :	0000000101011011;
	214 :	1111111111101011;
	213 :	0000011011101011;
	212 :	0000011111000001;
	211 :	0000010100110110;
	210 :	1111101110100000;
	209 :	1110011101110100;
	208 :	1111001001010101;
	207 :	1111110101010100;
	206 :	0000001011100000;
	205 :	0000000100011110;
	204 :	0000010010100000;
	203 :	0000001110111001;
	202 :	0000001111001000;
	201 :	0000010010000010;
	200 :	1111111100000101;
	199 :	1111110111011100;
	198 :	1111111111111001;
	197 :	1111111111011100;
	196 :	1111111111100001;
	195 :	0000000010100101;
	194 :	0000000001100111;
	193 :	0000001000100101;
	192 :	0000001101110100;
	191 :	1111111111100100;
	190 :	1111111010111000;
	189 :	0000000100011111;
	188 :	0000010011001011;
	187 :	1111110110001000;
	186 :	1111111011101010;
	185 :	0000001010000101;
	184 :	0000000101011100;
	183 :	0000000110010011;
	182 :	1111000101110000;
	181 :	1110100110001100;
	180 :	1111010110011000;
	179 :	1111110010110011;
	178 :	0000010000100101;
	177 :	0000001011011000;
	176 :	0000011101010010;
	175 :	0000011000100011;
	174 :	0000001100110100;
	173 :	0000000001010100;
	172 :	1111111100011110;
	171 :	1111111111100100;
	170 :	1111111111011100;
	169 :	0000000000001001;
	168 :	1111111111011101;
	167 :	0000000001011111;
	166 :	0000000010111110;
	165 :	0000000011010011;
	164 :	0000010001000111;
	163 :	0000001010010001;
	162 :	1111111101100010;
	161 :	0000001011000100;
	160 :	0000010100101001;
	159 :	0000001001001011;
	158 :	0000010101010111;
	157 :	0000010100001111;
	156 :	1111111100011100;
	155 :	1111000111011011;
	154 :	1110111111010100;
	153 :	1110110101010110;
	152 :	1111100000101010;
	151 :	1111111111010010;
	150 :	0000011000000111;
	149 :	0000011110000000;
	148 :	0000011110010101;
	147 :	0000010110111000;
	146 :	0000010011010100;
	145 :	0000001100010010;
	144 :	0000000011000000;
	143 :	0000000000010001;
	142 :	1111111111110111;
	141 :	0000000000111111;
	140 :	1111111111100101;
	139 :	0000000001100101;
	138 :	1111111001110101;
	137 :	1111110110000100;
	136 :	1111111001101001;
	135 :	0000000111101010;
	134 :	0000001010111111;
	133 :	0000000000100001;
	132 :	0000001100111010;
	131 :	0000010001101001;
	130 :	0000000001111010;
	129 :	1111111011000111;
	128 :	1111101001000101;
	127 :	1111000111110011;
	126 :	1111000110000010;
	125 :	1111010011100011;
	124 :	1111110101101101;
	123 :	0000000010101110;
	122 :	0000001110011011;
	121 :	0000010011101010;
	120 :	0000010010110000;
	119 :	0000001010111010;
	118 :	0000000111110110;
	117 :	0000000100010110;
	116 :	0000000000000000;
	115 :	1111111110110011;
	114 :	1111111111001111;
	113 :	0000000000110011;
	112 :	1111111111000111;
	111 :	1111111111110000;
	110 :	0000000000000100;
	109 :	1111111110011111;
	108 :	0000000011001101;
	107 :	0000000011001111;
	106 :	0000000110110110;
	105 :	0000000100001011;
	104 :	0000001100011000;
	103 :	0000010000101011;
	102 :	0000001000101010;
	101 :	1111110111111000;
	100 :	1111011001110011;
	99 :	1111011001011011;
	98 :	1111010110000011;
	97 :	1111100010000110;
	96 :	0000000001010110;
	95 :	0000001101100011;
	94 :	0000001100101100;
	93 :	0000001110110100;
	92 :	0000000111101010;
	91 :	0000000100000101;
	90 :	0000000011011100;
	89 :	0000000000101010;
	88 :	0000000000100100;
	87 :	0000000000001000;
	86 :	1111111111111110;
	85 :	0000000000010101;
	84 :	0000000000000000;
	83 :	0000000000100101;
	82 :	1111111111110111;
	81 :	1111111111110001;
	80 :	0000000000100101;
	79 :	0000000010000000;
	78 :	0000000010111001;
	77 :	0000000100110000;
	76 :	0000000111111111;
	75 :	0000000111111010;
	74 :	0000000001101100;
	73 :	1111111101010100;
	72 :	1111110000100110;
	71 :	1111110001110000;
	70 :	1111110111111100;
	69 :	1111111101001111;
	68 :	0000000100110011;
	67 :	0000000101111111;
	66 :	0000000110111010;
	65 :	0000000100000001;
	64 :	0000000010010000;
	63 :	0000000010000011;
	62 :	0000000001011011;
	61 :	0000000000011110;
	60 :	0000000001000101;
	59 :	0000000000001000;
	58 :	1111111111110010;
	57 :	0000000000110010;
	56 :	1111111111110001;
	55 :	1111111111100001;
	54 :	0000000000111101;
	53 :	0000000000000100;
	52 :	1111111111010110;
	51 :	0000000000011100;
	50 :	0000000000111000;
	49 :	0000000001001001;
	48 :	0000000000001010;
	47 :	1111111111111100;
	46 :	1111111110111100;
	45 :	1111111111000000;
	44 :	1111111000101101;
	43 :	1111111010001100;
	42 :	1111111101110001;
	41 :	0000000001011011;
	40 :	1111111111101110;
	39 :	0000000000001111;
	38 :	1111111111101100;
	37 :	1111111111011011;
	36 :	0000000000001011;
	35 :	0000000000001001;
	34 :	1111111111100111;
	33 :	0000000000001110;
	32 :	0000000000100100;
	31 :	0000000000100001;
	30 :	0000000000000110;
	29 :	0000000000011011;
	28 :	0000000000001010;
	27 :	0000000000001011;
	26 :	1111111111100001;
	25 :	1111111111110010;
	24 :	1111111111101100;
	23 :	1111111111011111;
	22 :	0000000000010101;
	21 :	1111111111010000;
	20 :	0000000000011010;
	19 :	0000000000110010;
	18 :	0000000000101111;
	17 :	0000000000100001;
	16 :	0000000000001101;
	15 :	1111111111111100;
	14 :	0000000000001100;
	13 :	1111111111111001;
	12 :	0000000000100100;
	11 :	1111111111011101;
	10 :	0000000000010100;
	9 :	0000000000011011;
	8 :	1111111111100101;
	7 :	0000000000000100;
	6 :	0000000000110111;
	5 :	1111111111100101;
	4 :	1111111111110111;
	3 :	0000000000000000;
	2 :	1111111111010101;
	1 :	0000000000000001;
	0 :	1111111111111100;
END;
