-- begin_signature
-- weight_memory(num_weight
-- 784
-- data_width
-- 16
-- address_width
-- 10
-- weight_file
-- "C:/SystemVerilog_NPU/w_1_25.mif")
-- end_signature
WIDTH=16;
DEPTH=784;

ADDRESS_RADIX=UNS;
DATA_RADIX=BIN;

CONTENT BEGIN
	783 :	1111111111111000;
	782 :	1111111111111010;
	781 :	1111111111001101;
	780 :	1111111111101011;
	779 :	0000000000011001;
	778 :	1111111111100111;
	777 :	1111111101110110;
	776 :	1111111101011111;
	775 :	1111111101111001;
	774 :	1111111010111100;
	773 :	1111111101011001;
	772 :	1111111101000000;
	771 :	1111111100010000;
	770 :	1111111101010101;
	769 :	1111111111110110;
	768 :	1111111111010000;
	767 :	1111111111101010;
	766 :	0000000000000111;
	765 :	1111111110111001;
	764 :	1111111110010101;
	763 :	1111111111011011;
	762 :	1111111111110010;
	761 :	1111111111000011;
	760 :	0000000000001100;
	759 :	1111111111100100;
	758 :	1111111111110100;
	757 :	1111111111010010;
	756 :	0000000000000000;
	755 :	0000000000000010;
	754 :	0000000000001111;
	753 :	1111111111111001;
	752 :	1111111111111000;
	751 :	0000000000101010;
	750 :	0000000010001101;
	749 :	0000000001101010;
	748 :	1111111101101000;
	747 :	1111111101001001;
	746 :	1111111010100101;
	745 :	1111111001110011;
	744 :	0000000000111100;
	743 :	1111111011111010;
	742 :	1111110001011100;
	741 :	1111110011011000;
	740 :	0000000100010010;
	739 :	0000001000001011;
	738 :	0000000010001011;
	737 :	1111110100011101;
	736 :	1111111010111111;
	735 :	1111111011100000;
	734 :	1111110100101011;
	733 :	1111111010010010;
	732 :	1111111101011000;
	731 :	1111111111011011;
	730 :	0000000000100110;
	729 :	1111111111111101;
	728 :	0000000000110011;
	727 :	0000000000000111;
	726 :	0000000000011111;
	725 :	0000000000000001;
	724 :	0000000101101010;
	723 :	0000001001100000;
	722 :	0000001001001000;
	721 :	0000000010000010;
	720 :	1111111011101000;
	719 :	0000000100110110;
	718 :	1111111100100000;
	717 :	0000000001000010;
	716 :	1111111011110110;
	715 :	1111111011001110;
	714 :	1111101100111010;
	713 :	0000000101001010;
	712 :	1111110000000001;
	711 :	0000000100010001;
	710 :	0000011000100000;
	709 :	0000000100001010;
	708 :	0000000111011001;
	707 :	1111111101111110;
	706 :	1111111010000110;
	705 :	1111111111101000;
	704 :	1111111110111010;
	703 :	0000000000110010;
	702 :	1111111111111100;
	701 :	0000000000110100;
	700 :	1111111111110000;
	699 :	1111111111000001;
	698 :	1111111110111011;
	697 :	1111111111010110;
	696 :	0000000100100011;
	695 :	1111111011001101;
	694 :	1111111100100001;
	693 :	1111111101101101;
	692 :	1111111110110110;
	691 :	0000000011010010;
	690 :	0000001111010110;
	689 :	0000000111111101;
	688 :	0000001100010011;
	687 :	0000001101101010;
	686 :	0000010010111110;
	685 :	0000000110111110;
	684 :	0000001000001010;
	683 :	0000001010100010;
	682 :	1111110001001010;
	681 :	1111101011000110;
	680 :	0000001101101111;
	679 :	0000001101011101;
	678 :	0000000001110110;
	677 :	0000000111100101;
	676 :	0000001000011111;
	675 :	0000000101101011;
	674 :	0000000100011111;
	673 :	0000000000000001;
	672 :	0000000000100101;
	671 :	0000000000001001;
	670 :	0000000000010101;
	669 :	0000000001100011;
	668 :	1111111111111001;
	667 :	1111111110111100;
	666 :	0000000100100010;
	665 :	0000000110100000;
	664 :	0000000110000111;
	663 :	0000001010000000;
	662 :	0000001111111001;
	661 :	0000010010110011;
	660 :	0000100000101000;
	659 :	0000000100110000;
	658 :	0000000000010001;
	657 :	0000000100111101;
	656 :	1111110111110010;
	655 :	0000001001010111;
	654 :	1111111001011100;
	653 :	1111111110110111;
	652 :	1111111111101110;
	651 :	0000000010000010;
	650 :	0000100011001011;
	649 :	0000011111001100;
	648 :	0000001110001110;
	647 :	0000000101010110;
	646 :	0000000101101100;
	645 :	1111111111111000;
	644 :	1111111111111010;
	643 :	1111111111110010;
	642 :	0000000000100010;
	641 :	1111111111010010;
	640 :	1111111111101110;
	639 :	1111111111110001;
	638 :	0000000010011001;
	637 :	0000001000101010;
	636 :	1111111110100111;
	635 :	1111111100111101;
	634 :	0000001100100000;
	633 :	0000000101001101;
	632 :	0000010101101111;
	631 :	0000010000111111;
	630 :	0000100000010111;
	629 :	1111111101000000;
	628 :	1111110000110011;
	627 :	1111111000001110;
	626 :	0000000001111010;
	625 :	0000000011111011;
	624 :	1111101110110101;
	623 :	0000001000101010;
	622 :	0000011010000111;
	621 :	0000010101000000;
	620 :	0000001001010111;
	619 :	0000000100001011;
	618 :	0000000001000110;
	617 :	0000000000000000;
	616 :	0000000000100111;
	615 :	1111111111111000;
	614 :	1111111111010011;
	613 :	1111111101111001;
	612 :	1111110111000001;
	611 :	1111111101011100;
	610 :	0000000000101110;
	609 :	0000000001111010;
	608 :	0000001010010001;
	607 :	1111111111100010;
	606 :	0000010000001101;
	605 :	1111111010001100;
	604 :	1111110100010111;
	603 :	0000011000010010;
	602 :	0000011000111011;
	601 :	0000000011100111;
	600 :	1111110111000000;
	599 :	0000000100011010;
	598 :	1111111110000110;
	597 :	0000000010000011;
	596 :	0000001011010100;
	595 :	0000010001001111;
	594 :	0000001001000110;
	593 :	1111111110001100;
	592 :	0000001100100101;
	591 :	0000000111001000;
	590 :	0000000010001001;
	589 :	1111111111100000;
	588 :	0000000000101000;
	587 :	0000000000001011;
	586 :	0000000000000001;
	585 :	1111110111010100;
	584 :	1111110011111111;
	583 :	1111111111000111;
	582 :	1111111110101100;
	581 :	0000000100111111;
	580 :	0000010010001110;
	579 :	0000000000101111;
	578 :	1111111110100100;
	577 :	1111111001000000;
	576 :	1111111100010001;
	575 :	0000010110000000;
	574 :	0000001110111101;
	573 :	0000000101001101;
	572 :	0000001010100000;
	571 :	1111111101100001;
	570 :	1111111011011010;
	569 :	0000000101010001;
	568 :	0000010111101001;
	567 :	0000010110101100;
	566 :	0000011000001100;
	565 :	0000000011010100;
	564 :	0000010010001111;
	563 :	0000001001000001;
	562 :	1111111111100001;
	561 :	0000000000010101;
	560 :	0000000000010000;
	559 :	0000000000100010;
	558 :	0000000000011001;
	557 :	0000000000011101;
	556 :	1111111011011110;
	555 :	0000000000001000;
	554 :	0000000000010011;
	553 :	1111111110001110;
	552 :	0000001101011010;
	551 :	1111100110111110;
	550 :	0000000101100101;
	549 :	1111110101000100;
	548 :	1111111001010100;
	547 :	1111110100010111;
	546 :	1111111101000011;
	545 :	0000011011000110;
	544 :	0000011100111010;
	543 :	0000001100100001;
	542 :	1111110101111110;
	541 :	1111111000010001;
	540 :	0000000110110001;
	539 :	0000000011111001;
	538 :	0000001000100111;
	537 :	0000001110100000;
	536 :	0000001100111100;
	535 :	0000001111000000;
	534 :	1111111110110000;
	533 :	1111111111011100;
	532 :	1111111111101110;
	531 :	1111111111010101;
	530 :	1111111111111111;
	529 :	0000000011000001;
	528 :	1111111110010100;
	527 :	0000000111100000;
	526 :	1111111100010010;
	525 :	1111111000001100;
	524 :	1111111110011100;
	523 :	1111110000100011;
	522 :	1111101011101010;
	521 :	1111110110001100;
	520 :	1111100010111110;
	519 :	1111101100110101;
	518 :	1111111001111010;
	517 :	0000001011100111;
	516 :	0000001101010100;
	515 :	0000010001110001;
	514 :	1111111110111100;
	513 :	0000000110000110;
	512 :	1111110111111110;
	511 :	1111111100101010;
	510 :	0000000010100111;
	509 :	1111111011111111;
	508 :	0000000111100011;
	507 :	0000001111000001;
	506 :	1111111110011111;
	505 :	0000000000111001;
	504 :	1111111111010110;
	503 :	0000000000011101;
	502 :	1111111111010101;
	501 :	0000000001111000;
	500 :	0000000000111100;
	499 :	0000001101000101;
	498 :	1111111001000100;
	497 :	1111111000110010;
	496 :	0000000000111111;
	495 :	0000000010101011;
	494 :	1111101111110101;
	493 :	0000000100010000;
	492 :	1111010100110001;
	491 :	1111011000100000;
	490 :	0000001111110000;
	489 :	0000100011001111;
	488 :	0000011110110101;
	487 :	0000011101001011;
	486 :	1111111111101101;
	485 :	1111111101111000;
	484 :	1111101111110111;
	483 :	1111111001011111;
	482 :	1111111001011000;
	481 :	1111110110010100;
	480 :	1111111100100001;
	479 :	0000001101110010;
	478 :	0000000000001100;
	477 :	0000000000010010;
	476 :	0000000000000000;
	475 :	0000000000010111;
	474 :	0000000000110100;
	473 :	0000000101000100;
	472 :	0000010101000111;
	471 :	0000010111110110;
	470 :	0000000001100001;
	469 :	1111111010011011;
	468 :	1111101011011110;
	467 :	1111111010111000;
	466 :	1111110010111100;
	465 :	1111101001010111;
	464 :	1111100111001000;
	463 :	1111110011011111;
	462 :	0000100100010101;
	461 :	0000100101000000;
	460 :	0000011100110011;
	459 :	0000001111001011;
	458 :	1111111011111110;
	457 :	0000000101100111;
	456 :	1111111110110101;
	455 :	1111111101001111;
	454 :	1111111111100110;
	453 :	1111110001111100;
	452 :	1111110101111101;
	451 :	0000000101010000;
	450 :	0000000010111110;
	449 :	0000000001010110;
	448 :	1111111111110000;
	447 :	0000000000010100;
	446 :	1111111110110100;
	445 :	0000001000011110;
	444 :	0000011001011001;
	443 :	0000010000010101;
	442 :	1111100110111101;
	441 :	1111110011110110;
	440 :	1111101001111011;
	439 :	1111011100001111;
	438 :	1111100110110010;
	437 :	1111110100011111;
	436 :	1111110011110111;
	435 :	0000001111000111;
	434 :	0000100000101010;
	433 :	0000010111001010;
	432 :	0000010101101111;
	431 :	0000011111111110;
	430 :	1111110110000100;
	429 :	1111100110010001;
	428 :	1111110110000000;
	427 :	1111111011001001;
	426 :	0000000110111011;
	425 :	1111111100001110;
	424 :	1111110011100110;
	423 :	1111111011110101;
	422 :	0000000001000001;
	421 :	0000000011010010;
	420 :	1111111111100101;
	419 :	1111111111000100;
	418 :	1111111111100011;
	417 :	0000000101110110;
	416 :	0000001100110011;
	415 :	0000000000110010;
	414 :	1111100100100110;
	413 :	1111101110100001;
	412 :	1111101011100001;
	411 :	1111011100001011;
	410 :	1111101111111111;
	409 :	1111110000000010;
	408 :	1111010111111010;
	407 :	0000000100101010;
	406 :	0000011001101000;
	405 :	0000100000110110;
	404 :	0000010101101011;
	403 :	0000001100111111;
	402 :	0000000001000110;
	401 :	1111101110010011;
	400 :	1111100101000111;
	399 :	1111110001001011;
	398 :	0000000001101001;
	397 :	1111110010100110;
	396 :	1111101111101001;
	395 :	1111111001111010;
	394 :	0000000001010011;
	393 :	0000000000111010;
	392 :	1111111111010111;
	391 :	0000000000101011;
	390 :	0000000001111010;
	389 :	0000001000011100;
	388 :	0000000101000010;
	387 :	0000000011111100;
	386 :	1111100011000010;
	385 :	1111101101100000;
	384 :	1111111110010111;
	383 :	1111101100100101;
	382 :	0000001011000001;
	381 :	1111011100101000;
	380 :	1111100100101010;
	379 :	0000001111111011;
	378 :	0000111100000000;
	377 :	0001000000001110;
	376 :	0000001111101011;
	375 :	0000000111100100;
	374 :	1111101101111110;
	373 :	1111101010000000;
	372 :	0000000011001011;
	371 :	1111110011100001;
	370 :	0000000010001001;
	369 :	1111111100100101;
	368 :	1111100100100110;
	367 :	1111111001010110;
	366 :	1111111110100001;
	365 :	1111111110111111;
	364 :	1111111111000100;
	363 :	1111111110111101;
	362 :	0000000001000100;
	361 :	0000001011001000;
	360 :	1111111011110100;
	359 :	1111110000100100;
	358 :	1111100111011100;
	357 :	1111110101110001;
	356 :	1111101000010000;
	355 :	1111100111011110;
	354 :	1111101100101100;
	353 :	1111100001110011;
	352 :	1111100101011111;
	351 :	0000010111011111;
	350 :	0001011000100010;
	349 :	0000011100011100;
	348 :	1111101011101110;
	347 :	1111111101011011;
	346 :	1111110100000000;
	345 :	0000000011110010;
	344 :	0000000000010110;
	343 :	1111111111001101;
	342 :	1111111000111010;
	341 :	1111110010110011;
	340 :	1111110110100110;
	339 :	1111111001100000;
	338 :	1111111110000111;
	337 :	0000000000000000;
	336 :	1111111111111110;
	335 :	0000000000001111;
	334 :	0000000110111011;
	333 :	0000001001010001;
	332 :	0000000111000100;
	331 :	1111110111101101;
	330 :	1111110011011100;
	329 :	1111110111010110;
	328 :	1111101010000010;
	327 :	1111110000010101;
	326 :	0000000001000101;
	325 :	1111011110010011;
	324 :	1111101111001010;
	323 :	0000100011011001;
	322 :	0000111111001000;
	321 :	1111111100110100;
	320 :	1111111010100010;
	319 :	1111111011000001;
	318 :	1111101000011101;
	317 :	1111111100111101;
	316 :	0000001100011100;
	315 :	1111110001011111;
	314 :	1111110000010000;
	313 :	1111111001111000;
	312 :	1111111110100101;
	311 :	1111110111100010;
	310 :	1111111101111011;
	309 :	0000000000110010;
	308 :	0000000000100111;
	307 :	1111111111011101;
	306 :	0000000111101011;
	305 :	0000000100111001;
	304 :	0000000111100101;
	303 :	1111111001110001;
	302 :	0000000110011010;
	301 :	1111111010110001;
	300 :	1111111011001000;
	299 :	1111110010010011;
	298 :	1111111001111010;
	297 :	1111011110011010;
	296 :	1111111010100000;
	295 :	0000110011100010;
	294 :	0000110000110101;
	293 :	0000100000100100;
	292 :	0000000011110110;
	291 :	1111101101101101;
	290 :	0000001011000000;
	289 :	1111110010101011;
	288 :	1111111110001100;
	287 :	0000000100100001;
	286 :	0000001000000000;
	285 :	1111110110111011;
	284 :	1111111011101000;
	283 :	1111111010100100;
	282 :	1111111110011101;
	281 :	0000000000000011;
	280 :	0000000000001001;
	279 :	0000000000010101;
	278 :	0000000110011001;
	277 :	0000001100110001;
	276 :	0000000100101101;
	275 :	0000000011110010;
	274 :	0000001010000001;
	273 :	1111110001011010;
	272 :	1111101110100101;
	271 :	1111101001011101;
	270 :	1111101010110110;
	269 :	1111111001111001;
	268 :	1111111101101000;
	267 :	0000010111011110;
	266 :	0000011001101001;
	265 :	0000000100001100;
	264 :	0000001001000010;
	263 :	1111111111001100;
	262 :	1111111111111110;
	261 :	1111101101001010;
	260 :	0000000110011001;
	259 :	0000010110110101;
	258 :	1111111100000000;
	257 :	1111110011110111;
	256 :	1111111010100011;
	255 :	1111111011111101;
	254 :	1111111101111001;
	253 :	1111111111101101;
	252 :	0000000000000111;
	251 :	0000000000001010;
	250 :	0000000100111101;
	249 :	0000001001101001;
	248 :	0000001000111000;
	247 :	0000000110101101;
	246 :	0000010011010110;
	245 :	1111110100111010;
	244 :	1111110010000001;
	243 :	1111110101000110;
	242 :	1111101011110110;
	241 :	0000001000011110;
	240 :	0000000010010000;
	239 :	0000000110110101;
	238 :	0000010011011000;
	237 :	0000011001111011;
	236 :	0000001100000100;
	235 :	1111111000000001;
	234 :	1111111011000111;
	233 :	1111111000000001;
	232 :	0000000111010100;
	231 :	0000010001101101;
	230 :	1111111010001001;
	229 :	1111111111101000;
	228 :	1111110100101110;
	227 :	1111111011011110;
	226 :	1111111011011111;
	225 :	1111111111000011;
	224 :	0000000000110000;
	223 :	0000000000000010;
	222 :	0000000001001010;
	221 :	0000000110101011;
	220 :	0000001101000110;
	219 :	1111111101011011;
	218 :	1111111111010010;
	217 :	1111111111101011;
	216 :	1111111011100000;
	215 :	1111110011000001;
	214 :	1111111110111110;
	213 :	1111111001010110;
	212 :	0000000010110111;
	211 :	0000001110110111;
	210 :	0000010000110000;
	209 :	0000001001111010;
	208 :	1111110101001001;
	207 :	1111111010001001;
	206 :	0000010011100001;
	205 :	0000000001000100;
	204 :	0000000111011100;
	203 :	1111111011101111;
	202 :	1111110100111110;
	201 :	0000000001110100;
	200 :	1111111010001101;
	199 :	1111111111001011;
	198 :	1111111011011001;
	197 :	0000000000010111;
	196 :	1111111111111110;
	195 :	1111111111100101;
	194 :	0000000001101001;
	193 :	0000000110100010;
	192 :	0000001110000001;
	191 :	0000000010011100;
	190 :	0000001001111111;
	189 :	0000001011000101;
	188 :	1111111000100000;
	187 :	0000000000111100;
	186 :	0000001010010100;
	185 :	0000000001000101;
	184 :	1111111111100011;
	183 :	0000010001100000;
	182 :	0000010000100000;
	181 :	0000000111001110;
	180 :	0000000100000010;
	179 :	1111111001011110;
	178 :	0000000100001100;
	177 :	0000001000011111;
	176 :	1111111101010100;
	175 :	0000000000101011;
	174 :	0000000000110111;
	173 :	0000000110000000;
	172 :	0000000001110101;
	171 :	1111111111100001;
	170 :	1111111111010100;
	169 :	0000000001000000;
	168 :	0000000000101101;
	167 :	0000000000000110;
	166 :	0000000000110010;
	165 :	0000000001110010;
	164 :	0000000000100010;
	163 :	0000000011011000;
	162 :	0000001001010101;
	161 :	0000001101001111;
	160 :	1111111111011000;
	159 :	0000000110011111;
	158 :	0000010101110100;
	157 :	0000001110010100;
	156 :	0000000010010111;
	155 :	1111110101110010;
	154 :	1111111000101101;
	153 :	1111110010110010;
	152 :	1111111000100101;
	151 :	1111101100010010;
	150 :	1111110010000101;
	149 :	1111110001000011;
	148 :	1111111000101100;
	147 :	1111111011100011;
	146 :	1111111000111010;
	145 :	1111111111011110;
	144 :	1111111111101101;
	143 :	0000000000100011;
	142 :	0000000000000000;
	141 :	1111111111101010;
	140 :	0000000001001011;
	139 :	1111111111110011;
	138 :	0000000000111101;
	137 :	0000000001001101;
	136 :	1111111010100100;
	135 :	1111111010010111;
	134 :	1111111001110011;
	133 :	1111111111000001;
	132 :	1111110100010011;
	131 :	1111111101010111;
	130 :	0000001010101010;
	129 :	0000000111110000;
	128 :	0000010000001010;
	127 :	0000011001111011;
	126 :	0000001100001111;
	125 :	1111110100000111;
	124 :	1111110111101110;
	123 :	0000000011011101;
	122 :	0000010001101000;
	121 :	0000001100100010;
	120 :	0000000110111110;
	119 :	0000000001010011;
	118 :	0000000001001000;
	117 :	0000000010010111;
	116 :	0000000000001001;
	115 :	0000000000101001;
	114 :	1111111111110000;
	113 :	1111111111011110;
	112 :	0000000000010111;
	111 :	1111111111110010;
	110 :	0000000000010010;
	109 :	1111111111111111;
	108 :	0000000010011010;
	107 :	0000000010110000;
	106 :	0000000010110000;
	105 :	0000000110010100;
	104 :	0000000101010011;
	103 :	0000000011100100;
	102 :	0000001100111100;
	101 :	0000001111000100;
	100 :	0000010001011110;
	99 :	0000010000000011;
	98 :	0000000010010000;
	97 :	0000000101011000;
	96 :	0000000001111110;
	95 :	0000000011001101;
	94 :	0000000110100111;
	93 :	0000000001101000;
	92 :	0000000011100000;
	91 :	0000000000110100;
	90 :	0000000000010000;
	89 :	1111111111101000;
	88 :	0000000000001100;
	87 :	0000000000001001;
	86 :	0000000001000111;
	85 :	1111111111101010;
	84 :	0000000000011001;
	83 :	1111111111100101;
	82 :	0000000000000010;
	81 :	0000000000001001;
	80 :	1111111111110011;
	79 :	0000000001001011;
	78 :	0000000000001101;
	77 :	1111111111111000;
	76 :	0000000000000010;
	75 :	0000000000110010;
	74 :	0000000101000110;
	73 :	0000000111000000;
	72 :	0000000111010000;
	71 :	0000000001000000;
	70 :	0000000000100100;
	69 :	1111111111010100;
	68 :	1111111110001110;
	67 :	1111111111101111;
	66 :	0000000000100001;
	65 :	1111111111001111;
	64 :	0000000000010110;
	63 :	1111111111111011;
	62 :	1111111111101110;
	61 :	1111111111111001;
	60 :	1111111111111011;
	59 :	1111111111001101;
	58 :	1111111111100110;
	57 :	1111111111110111;
	56 :	0000000000010010;
	55 :	1111111110111011;
	54 :	1111111111100011;
	53 :	0000000000101001;
	52 :	1111111111100010;
	51 :	0000000000001110;
	50 :	0000000000010000;
	49 :	1111111111110101;
	48 :	0000000000110111;
	47 :	0000000001000101;
	46 :	1111111111101011;
	45 :	0000000000011101;
	44 :	0000000001010110;
	43 :	0000000000000001;
	42 :	1111111111110010;
	41 :	0000000000001111;
	40 :	0000000001100000;
	39 :	0000000000011010;
	38 :	0000000001101100;
	37 :	0000000000100001;
	36 :	1111111111110011;
	35 :	1111111111111110;
	34 :	0000000000010010;
	33 :	0000000000100110;
	32 :	1111111111100111;
	31 :	0000000000100000;
	30 :	0000000000000011;
	29 :	0000000000001001;
	28 :	1111111111010111;
	27 :	1111111111101101;
	26 :	1111111111111100;
	25 :	0000000000001000;
	24 :	0000000000011100;
	23 :	0000000000000000;
	22 :	1111111111100010;
	21 :	1111111111110010;
	20 :	0000000000011011;
	19 :	0000000000000100;
	18 :	1111111111111100;
	17 :	0000000000001100;
	16 :	0000000000111100;
	15 :	1111111111111011;
	14 :	0000000000001001;
	13 :	0000000000100101;
	12 :	0000000000001010;
	11 :	0000000000010001;
	10 :	0000000000001100;
	9 :	1111111111111000;
	8 :	1111111111010000;
	7 :	0000000000001010;
	6 :	0000000000110001;
	5 :	0000000000000101;
	4 :	0000000000000110;
	3 :	1111111111101000;
	2 :	1111111110111000;
	1 :	0000000000010100;
	0 :	1111111111101011;
END;
