-- begin_signature
-- weight_memory(num_weight
-- 30
-- data_width
-- 16
-- address_width
-- 5
-- weight_file
-- "C:/SystemVerilog_NPU/w_2_13.mif")
-- end_signature
WIDTH=16;
DEPTH=30;

ADDRESS_RADIX=UNS;
DATA_RADIX=BIN;

CONTENT BEGIN
	29 :	0001000010001011;
	28 :	1111010110111010;
	27 :	1110100100010001;
	26 :	0000100110110011;
	25 :	1110110101001110;
	24 :	0000010000101111;
	23 :	0000001010011000;
	22 :	0001010001010001;
	21 :	1111110111110100;
	20 :	0001000100011101;
	19 :	0000010001010111;
	18 :	1110001110110010;
	17 :	0000101000010000;
	16 :	0000000000100000;
	15 :	0000110001111001;
	14 :	1111011110010101;
	13 :	1111011100010111;
	12 :	0000111010100111;
	11 :	0001011101100010;
	10 :	0000000011001110;
	9 :	1111001100100100;
	8 :	1111100111100000;
	7 :	1111101011101010;
	6 :	1111110111110001;
	5 :	0000111100010110;
	4 :	1110110111111011;
	3 :	1111100100101111;
	2 :	1111101000101000;
	1 :	0010000111111100;
	0 :	1111110110101010;
END;
