-- begin_signature
-- weight_memory(num_weight
-- 30
-- data_width
-- 16
-- address_width
-- 5
-- weight_file
-- "C:/SystemVerilog_NPU/w_2_16.mif")
-- end_signature
WIDTH=16;
DEPTH=30;

ADDRESS_RADIX=UNS;
DATA_RADIX=BIN;

CONTENT BEGIN
	29 :	0000101011101001;
	28 :	1111000111000101;
	27 :	0001001010011001;
	26 :	0001000001001100;
	25 :	0000100011101011;
	24 :	1111111010110000;
	23 :	0001000000011110;
	22 :	1110111001010011;
	21 :	1111110110100100;
	20 :	0000010110100100;
	19 :	1110100110001101;
	18 :	0001011101010010;
	17 :	0000010111011010;
	16 :	0001000000000111;
	15 :	1110101100000100;
	14 :	0000010011001000;
	13 :	1111111110000000;
	12 :	1111000011001101;
	11 :	1111000010010010;
	10 :	1111111100111010;
	9 :	0000100001000111;
	8 :	1111110010000100;
	7 :	1111101111001110;
	6 :	0000100001011010;
	5 :	1101111000100000;
	4 :	0010010000000101;
	3 :	1111110101000101;
	2 :	0000011001101110;
	1 :	0000100111111001;
	0 :	1111111111110111;
END;
