-- begin_signature
-- weight_memory(num_weight
-- 30
-- data_width
-- 16
-- address_width
-- 5
-- weight_file
-- "C:/SystemVerilog_NPU/w_3_1.mif")
-- end_signature
WIDTH=16;
DEPTH=30;

ADDRESS_RADIX=UNS;
DATA_RADIX=BIN;

CONTENT BEGIN
	29 :	1111011000001100;
	28 :	0000010011101100;
	27 :	0010001010010100;
	26 :	1110100000011101;
	25 :	0001110011001110;
	24 :	1111110110101101;
	23 :	1101011101111100;
	22 :	1111111100011001;
	21 :	0000111000100000;
	20 :	1111101100001010;
	19 :	1111111011111100;
	18 :	0001110110101011;
	17 :	1111110001101011;
	16 :	0000101111011000;
	15 :	1111110111000100;
	14 :	0000101000001110;
	13 :	0001010010011010;
	12 :	1111001100010111;
	11 :	0000001100011011;
	10 :	0001111100100011;
	9 :	1111001010011010;
	8 :	1110110001100000;
	7 :	1111110100111110;
	6 :	0000100010111100;
	5 :	0000001110110101;
	4 :	0000100011011000;
	3 :	1110110011111011;
	2 :	1111000101111010;
	1 :	0000100010001110;
	0 :	0001000111010010;
END;
