-- begin_signature
-- weight_memory(num_weight
-- 30
-- data_width
-- 16
-- address_width
-- 5
-- weight_file
-- "C:/SystemVerilog_NPU/w_2_19.mif")
-- end_signature
WIDTH=16;
DEPTH=30;

ADDRESS_RADIX=UNS;
DATA_RADIX=BIN;

CONTENT BEGIN
	29 :	0001100010011101;
	28 :	1111000101010011;
	27 :	1111100010001011;
	26 :	1111110101100010;
	25 :	0000011000111110;
	24 :	1110111100000010;
	23 :	1111011111110010;
	22 :	1111100111110101;
	21 :	1111000010011110;
	20 :	1111110000110010;
	19 :	0000001101001100;
	18 :	1111101100100100;
	17 :	1111110110100010;
	16 :	0000110110110000;
	15 :	0000000011010100;
	14 :	1111100001101111;
	13 :	0000110111010110;
	12 :	0000100010001110;
	11 :	0000000111100111;
	10 :	0000100101111011;
	9 :	0000001100100010;
	8 :	0000111010010100;
	7 :	0000011110000001;
	6 :	1111101010010000;
	5 :	1111001100001000;
	4 :	0000011100011111;
	3 :	1111011110011000;
	2 :	1111000110010111;
	1 :	0000111101010110;
	0 :	0000011011100001;
END;
