-- begin_signature
-- weight_memory(num_weight
-- 30
-- data_width
-- 16
-- address_width
-- 5
-- weight_file
-- "C:/SystemVerilog_NPU/w_2_25.mif")
-- end_signature
WIDTH=16;
DEPTH=30;

ADDRESS_RADIX=UNS;
DATA_RADIX=BIN;

CONTENT BEGIN
	29 :	1111111110010111;
	28 :	1111011100100101;
	27 :	0000011100011101;
	26 :	1111111011110001;
	25 :	0000000100010001;
	24 :	0000100110110110;
	23 :	1110100010111011;
	22 :	1111001011111100;
	21 :	1111111011101010;
	20 :	1111111111111011;
	19 :	1110011110010000;
	18 :	0001000000101010;
	17 :	0000101101001111;
	16 :	1111111110000111;
	15 :	1111100011101011;
	14 :	1111011001101101;
	13 :	1110110110011010;
	12 :	1111001001000001;
	11 :	1111011111100110;
	10 :	0000011001110111;
	9 :	1111000101100110;
	8 :	0000010111000000;
	7 :	0001000000000011;
	6 :	1111110010110111;
	5 :	1110110111000101;
	4 :	0000101001000001;
	3 :	0000001101010011;
	2 :	1110111110101100;
	1 :	1110100000011001;
	0 :	1111110000111110;
END;
