-- begin_signature
-- weight_memory(num_weight
-- 30
-- data_width
-- 16
-- address_width
-- 5
-- weight_file
-- "C:/SystemVerilog_NPU/w_2_24.mif")
-- end_signature
WIDTH=16;
DEPTH=30;

ADDRESS_RADIX=UNS;
DATA_RADIX=BIN;

CONTENT BEGIN
	29 :	1110101010100110;
	28 :	0000001110101001;
	27 :	0000101011100100;
	26 :	1111111111101000;
	25 :	1111010010100111;
	24 :	0000011000001100;
	23 :	0001001000001111;
	22 :	0000011100110001;
	21 :	0000101000010000;
	20 :	0001001111101010;
	19 :	0000000000010100;
	18 :	1111101000010110;
	17 :	1111101001010011;
	16 :	1110110100011111;
	15 :	0000010010110100;
	14 :	0000111111011110;
	13 :	1111011101100111;
	12 :	1111111000001011;
	11 :	1111100011000111;
	10 :	1111011101010010;
	9 :	0001010101111010;
	8 :	1111100010100001;
	7 :	1111100011001111;
	6 :	0000010000011010;
	5 :	0000000010101001;
	4 :	1111111101010101;
	3 :	0000000001111110;
	2 :	0001001011111001;
	1 :	1111111101111001;
	0 :	1110100010001101;
END;
