-- begin_signature
-- weight_memory(num_weight
-- 784
-- data_width
-- 16
-- address_width
-- 10
-- weight_file
-- "C:/SystemVerilog_NPU/w_1_12.mif")
-- end_signature
WIDTH=16;
DEPTH=784;

ADDRESS_RADIX=UNS;
DATA_RADIX=BIN;

CONTENT BEGIN
	783 :	0000000000000101;
	782 :	1111111111100011;
	781 :	1111111111000010;
	780 :	0000000000011101;
	779 :	1111111111110001;
	778 :	0000000001000101;
	777 :	0000000001011010;
	776 :	1111111111110111;
	775 :	0000000000010111;
	774 :	0000000000010101;
	773 :	0000000000011001;
	772 :	1111111111111011;
	771 :	0000000000000011;
	770 :	0000000000010101;
	769 :	1111111111111011;
	768 :	0000000000101001;
	767 :	0000000000011011;
	766 :	0000000000110001;
	765 :	0000000000101010;
	764 :	0000000000000001;
	763 :	0000000000010101;
	762 :	1111111111111011;
	761 :	1111111111011000;
	760 :	0000000000101011;
	759 :	0000000000001011;
	758 :	0000000000010101;
	757 :	1111111111001100;
	756 :	0000000000101011;
	755 :	0000000000001001;
	754 :	1111111111111111;
	753 :	0000000000101010;
	752 :	1111111111111001;
	751 :	1111111111011111;
	750 :	1111111100011101;
	749 :	1111110101011100;
	748 :	1111110110110110;
	747 :	1111111000000000;
	746 :	1111110101111010;
	745 :	1111110111001110;
	744 :	1111111010111001;
	743 :	0000000010100110;
	742 :	0000001101000110;
	741 :	0000000100011100;
	740 :	0000000110110001;
	739 :	0000000001100000;
	738 :	0000000001011100;
	737 :	0000000101101010;
	736 :	0000000011000000;
	735 :	0000000000101111;
	734 :	0000000010101100;
	733 :	0000000001100000;
	732 :	0000000000111101;
	731 :	0000000000101001;
	730 :	1111111111101001;
	729 :	1111111111110011;
	728 :	1111111111100010;
	727 :	1111111110111011;
	726 :	0000000000101111;
	725 :	1111111111011011;
	724 :	1111111100010011;
	723 :	1111111000101110;
	722 :	1111110100010001;
	721 :	1111101111100001;
	720 :	1111110111100011;
	719 :	1111101000100111;
	718 :	1111110010000011;
	717 :	0000000100101101;
	716 :	1111110001001110;
	715 :	1111110101011101;
	714 :	0000000110000110;
	713 :	1111111010101111;
	712 :	1111110010111111;
	711 :	1111111010001011;
	710 :	1111110011001111;
	709 :	1111111100010000;
	708 :	1111111110101111;
	707 :	1111110100101011;
	706 :	1111111000001111;
	705 :	1111111100011100;
	704 :	1111111110011011;
	703 :	1111111110111011;
	702 :	1111111111000000;
	701 :	1111111111110100;
	700 :	1111111111111100;
	699 :	0000000000101100;
	698 :	1111111111110010;
	697 :	1111111111111100;
	696 :	1111111100110101;
	695 :	1111111000001100;
	694 :	1111101110101101;
	693 :	1111111011001001;
	692 :	0000000011000101;
	691 :	1111110110101010;
	690 :	1111110101001110;
	689 :	1111111101010100;
	688 :	1111101111101111;
	687 :	0000000111110011;
	686 :	1111111001011010;
	685 :	1111111011100010;
	684 :	1111011100011000;
	683 :	1111110001011000;
	682 :	0000000001100101;
	681 :	0000000000100100;
	680 :	0000000011001100;
	679 :	1111101000100111;
	678 :	1111100011111110;
	677 :	1111101100000011;
	676 :	1111110101111000;
	675 :	1111111110111010;
	674 :	1111111111100011;
	673 :	0000000000010110;
	672 :	0000000000011010;
	671 :	0000000000011010;
	670 :	0000000000010010;
	669 :	0000000000101011;
	668 :	1111111101000100;
	667 :	1111110101111011;
	666 :	1111110001100010;
	665 :	0000000011100001;
	664 :	1111110110000100;
	663 :	1111111000100101;
	662 :	0000000000000001;
	661 :	0000000100000100;
	660 :	1111101100010100;
	659 :	1111110001101010;
	658 :	1111111001111111;
	657 :	1111111100100111;
	656 :	0000001001001111;
	655 :	0000000011101100;
	654 :	0000100000100010;
	653 :	0000000111110000;
	652 :	0000000001000100;
	651 :	1111100111101100;
	650 :	1111011001010101;
	649 :	1111011001011110;
	648 :	1111110000101000;
	647 :	1111111101110111;
	646 :	1111111100110110;
	645 :	1111111111011011;
	644 :	1111111111110000;
	643 :	0000000000001100;
	642 :	0000000000101011;
	641 :	0000000001110010;
	640 :	1111111010100000;
	639 :	1111110111000010;
	638 :	1111110100111111;
	637 :	1111111001101110;
	636 :	1111111000100011;
	635 :	1111111101111101;
	634 :	0000000001010011;
	633 :	0000000100101100;
	632 :	0000000101011000;
	631 :	0000001100111111;
	630 :	0000000000111101;
	629 :	1111111000011010;
	628 :	1111110011010111;
	627 :	1111100100111100;
	626 :	0000010101111001;
	625 :	1111111101111111;
	624 :	1111111111110101;
	623 :	1111100111111111;
	622 :	1111011100011000;
	621 :	1111011011101001;
	620 :	1111110101001100;
	619 :	1111111101001110;
	618 :	0000000000010000;
	617 :	1111111111010110;
	616 :	0000000000001010;
	615 :	1111111111011001;
	614 :	1111111111100010;
	613 :	0000000000111001;
	612 :	1111111001010000;
	611 :	1111110110110110;
	610 :	1111110100100110;
	609 :	1111101111101100;
	608 :	1111110001011001;
	607 :	1111101110011001;
	606 :	1111111001001110;
	605 :	1111101101010010;
	604 :	1111101111010000;
	603 :	1111011110111110;
	602 :	1111101011001111;
	601 :	1111101010010110;
	600 :	0000001100111101;
	599 :	1111111110011110;
	598 :	1111111101011101;
	597 :	1111110111101110;
	596 :	1111101111010101;
	595 :	1111011111010110;
	594 :	1111100010011110;
	593 :	1111100111010011;
	592 :	1111111011001100;
	591 :	1111111010101101;
	590 :	1111111111001110;
	589 :	1111111111111001;
	588 :	1111111111111000;
	587 :	0000000000001010;
	586 :	0000000000010111;
	585 :	0000000000111001;
	584 :	1111111001001111;
	583 :	1111110000011110;
	582 :	1111101101010011;
	581 :	1111100011010111;
	580 :	1111011101101110;
	579 :	1111011010000111;
	578 :	1111101101000101;
	577 :	1111100000101101;
	576 :	1111110010000110;
	575 :	1111101101010010;
	574 :	0000001000110111;
	573 :	1111101111000010;
	572 :	0000000010100001;
	571 :	1111110101011110;
	570 :	1111011010000101;
	569 :	1111011001010010;
	568 :	1111100010000111;
	567 :	1111100000110111;
	566 :	1111101000011011;
	565 :	1111110110011000;
	564 :	1111111011111110;
	563 :	1111111100100100;
	562 :	1111111111001101;
	561 :	0000000000100010;
	560 :	0000000000010010;
	559 :	0000000000100100;
	558 :	0000000001000000;
	557 :	1111111111100101;
	556 :	1111110011110110;
	555 :	1111100100001000;
	554 :	1111011010011101;
	553 :	1111011100101100;
	552 :	1111011011110110;
	551 :	1111100111101010;
	550 :	1111010000001011;
	549 :	1111010011010000;
	548 :	1111010110001001;
	547 :	1111110001011011;
	546 :	0000001100010010;
	545 :	0000000100110100;
	544 :	0000000011010000;
	543 :	1111101101100001;
	542 :	1111010111111111;
	541 :	1111011010100001;
	540 :	1111011011010100;
	539 :	1111100000011000;
	538 :	1111101110010001;
	537 :	1111111100011100;
	536 :	0000000010111110;
	535 :	1111111111010110;
	534 :	1111111111010011;
	533 :	0000000000011110;
	532 :	0000000000000000;
	531 :	0000000001101101;
	530 :	0000000011001011;
	529 :	1111111100111000;
	528 :	1111110101010101;
	527 :	1111101010111001;
	526 :	1111011110111100;
	525 :	1111011100100111;
	524 :	1111011011100000;
	523 :	1111100000100011;
	522 :	1111010110000000;
	521 :	1111110110100110;
	520 :	1111101000000010;
	519 :	0000000100111101;
	518 :	0000010001010010;
	517 :	0000001110011011;
	516 :	1111101001110111;
	515 :	1111111110011100;
	514 :	1111111001101000;
	513 :	1111100011110101;
	512 :	1111100110010010;
	511 :	1111100011011110;
	510 :	1111110001000100;
	509 :	1111110110000001;
	508 :	0000000010011100;
	507 :	1111111101010100;
	506 :	1111111111111111;
	505 :	1111111111010010;
	504 :	1111111111100001;
	503 :	1111111111111100;
	502 :	1111111111001100;
	501 :	1111110111001110;
	500 :	1111110100100100;
	499 :	1111110111101101;
	498 :	1111101001111001;
	497 :	1111100111111111;
	496 :	1111111000100010;
	495 :	1111110010110111;
	494 :	1111111001100000;
	493 :	1111111110011010;
	492 :	0000011010110111;
	491 :	0000001000000011;
	490 :	0000001000110001;
	489 :	0000010011001000;
	488 :	1111110000001001;
	487 :	0000000101001111;
	486 :	0000100101001000;
	485 :	0000000001011001;
	484 :	1111111111100000;
	483 :	1111101011100011;
	482 :	1111110001000111;
	481 :	1111110010000111;
	480 :	0000000000011111;
	479 :	1111111100101000;
	478 :	1111111111001110;
	477 :	0000000000011001;
	476 :	0000000000110101;
	475 :	0000000000011110;
	474 :	1111111001001110;
	473 :	1111110001101101;
	472 :	1111110000011101;
	471 :	1111111100110000;
	470 :	1111110000001100;
	469 :	1111111101100011;
	468 :	0000000010000100;
	467 :	1111110010010111;
	466 :	0000000010011100;
	465 :	0000001111111001;
	464 :	0000011110101011;
	463 :	1111110110000010;
	462 :	1111101111101101;
	461 :	0000001001011011;
	460 :	1111101101101000;
	459 :	0000010010011111;
	458 :	0000001100111110;
	457 :	1111111000100001;
	456 :	0000001011110010;
	455 :	1111110111111111;
	454 :	1111101101110010;
	453 :	1111110010111001;
	452 :	0000000011100110;
	451 :	1111111011011100;
	450 :	1111111111110100;
	449 :	0000000000001000;
	448 :	0000000000101110;
	447 :	0000000000010010;
	446 :	1111111101000100;
	445 :	1111111001000110;
	444 :	1111111101001110;
	443 :	0000001000101101;
	442 :	0000000111100000;
	441 :	0000000011101000;
	440 :	1111101110011000;
	439 :	1111101101000111;
	438 :	0000010111001100;
	437 :	0000101111110000;
	436 :	0000011010111001;
	435 :	0000001111010101;
	434 :	1111110101110100;
	433 :	1111111110011011;
	432 :	1111111111011011;
	431 :	0000001110001110;
	430 :	0000010101010100;
	429 :	1111111111001000;
	428 :	1111111011000101;
	427 :	1111111011000001;
	426 :	1111110001101101;
	425 :	1111110110110010;
	424 :	0000000010001110;
	423 :	1111111100011001;
	422 :	0000000001001100;
	421 :	1111111111101101;
	420 :	1111111111110110;
	419 :	1111111111101001;
	418 :	1111111101011011;
	417 :	0000000010000100;
	416 :	1111111010010110;
	415 :	0000000001111011;
	414 :	0000000100110011;
	413 :	0000000100110001;
	412 :	1111111000110101;
	411 :	0000001010001100;
	410 :	0000011100010100;
	409 :	0000011001110101;
	408 :	0000010100011000;
	407 :	0000001011111111;
	406 :	1111111101110101;
	405 :	0000001000010001;
	404 :	0000010110001000;
	403 :	0000011001100101;
	402 :	0000011010100010;
	401 :	0000001000011100;
	400 :	0000000111101000;
	399 :	0000000110000110;
	398 :	1111111000001101;
	397 :	1111111110111110;
	396 :	0000000001001011;
	395 :	1111111111011111;
	394 :	0000000000010011;
	393 :	1111111111101111;
	392 :	0000000000001100;
	391 :	1111111110100010;
	390 :	1111111101011100;
	389 :	0000000100010110;
	388 :	1111111010001000;
	387 :	1111110001110011;
	386 :	1111101110111111;
	385 :	1111111101100101;
	384 :	1111111101010100;
	383 :	1111111011001000;
	382 :	0000010101100110;
	381 :	0000010101110110;
	380 :	0000011110001011;
	379 :	0000011000101110;
	378 :	0000001111001110;
	377 :	0000001010001001;
	376 :	0000100101111000;
	375 :	0000001000110001;
	374 :	0000001001011110;
	373 :	0000000010111001;
	372 :	0000001111011100;
	371 :	0000011110100010;
	370 :	0000000010110101;
	369 :	1111111001101110;
	368 :	0000000000001110;
	367 :	0000000010100101;
	366 :	0000000001000011;
	365 :	0000000000001000;
	364 :	0000000000010001;
	363 :	0000000001011011;
	362 :	1111111111101100;
	361 :	1111111011111111;
	360 :	1111111001010001;
	359 :	1111101111111000;
	358 :	1111101100110010;
	357 :	1111110010100001;
	356 :	1111110101100010;
	355 :	1111101111101011;
	354 :	0000010010000111;
	353 :	0000010000110100;
	352 :	0000010110001110;
	351 :	0000100000001101;
	350 :	0000000001100001;
	349 :	0000011111010001;
	348 :	0000011100101011;
	347 :	0000001100010010;
	346 :	1111111110000111;
	345 :	1111111100111001;
	344 :	0000000111111011;
	343 :	0000000111011000;
	342 :	1111100110110111;
	341 :	1111110000011000;
	340 :	1111111100111000;
	339 :	0000000010010110;
	338 :	0000000000100001;
	337 :	1111111111110000;
	336 :	1111111111111011;
	335 :	0000000000110000;
	334 :	1111110011001100;
	333 :	1111110100111000;
	332 :	1111110100100110;
	331 :	1111101110111110;
	330 :	1111110100001101;
	329 :	1111111011101000;
	328 :	1111101110111111;
	327 :	1111110100100001;
	326 :	1111110110101000;
	325 :	0000010101001010;
	324 :	0000011100100011;
	323 :	0000011000001011;
	322 :	0000010111101000;
	321 :	0000000000011001;
	320 :	0000000011101100;
	319 :	1111111101100100;
	318 :	0000001111000111;
	317 :	1111111011100011;
	316 :	1111111110100000;
	315 :	0000000000011111;
	314 :	1111101111000000;
	313 :	0000000011110110;
	312 :	0000000001001010;
	311 :	0000000000111110;
	310 :	1111111111011101;
	309 :	0000000000001101;
	308 :	1111111111111000;
	307 :	0000000010011100;
	306 :	1111111110011111;
	305 :	0000001001011011;
	304 :	1111111011101110;
	303 :	1111101111101000;
	302 :	1111110000011100;
	301 :	1111111100101000;
	300 :	1111101010101000;
	299 :	1111101101010111;
	298 :	1111100010010010;
	297 :	1111100110010111;
	296 :	0000001001100010;
	295 :	0000011010000000;
	294 :	0000100000010011;
	293 :	0000001000000001;
	292 :	0000000000000111;
	291 :	1111111111010010;
	290 :	1111110100110100;
	289 :	1111110010111000;
	288 :	1111110110001011;
	287 :	1111110110110100;
	286 :	1111110100100101;
	285 :	0000001000001000;
	284 :	1111111110010010;
	283 :	1111111001000110;
	282 :	1111111111010001;
	281 :	0000000000011110;
	280 :	1111111111101000;
	279 :	0000001000001000;
	278 :	0000000100101111;
	277 :	1111111110001100;
	276 :	1111110010011111;
	275 :	1111110011110011;
	274 :	1111110111101000;
	273 :	1111111100000110;
	272 :	1111110000101010;
	271 :	1111100100001010;
	270 :	1111101110100111;
	269 :	1111101010001001;
	268 :	0000001010100000;
	267 :	0000001100011101;
	266 :	0000001001101000;
	265 :	0000000100011100;
	264 :	0000000101000110;
	263 :	1111110111101110;
	262 :	1111111111111110;
	261 :	1111110011000111;
	260 :	0000000011101110;
	259 :	1111111001100011;
	258 :	0000000110000101;
	257 :	0000001110110110;
	256 :	0000000001101101;
	255 :	1111111100110001;
	254 :	1111111111000011;
	253 :	0000000000000110;
	252 :	0000000000000000;
	251 :	1111111110011000;
	250 :	0000000001000111;
	249 :	1111111011100110;
	248 :	1111111110111001;
	247 :	1111111010000010;
	246 :	1111111011101100;
	245 :	1111101100100000;
	244 :	1111100100000101;
	243 :	1111101001111111;
	242 :	0000000011101001;
	241 :	0000000001111100;
	240 :	1111100011100011;
	239 :	1111111011001100;
	238 :	0000000101000101;
	237 :	1111111001011111;
	236 :	1111111111101000;
	235 :	1111111101111111;
	234 :	0000000010111001;
	233 :	0000000011110011;
	232 :	0000010110000100;
	231 :	0000001001011001;
	230 :	0000010110110000;
	229 :	0000001100010100;
	228 :	0000000010011100;
	227 :	1111111111100110;
	226 :	1111111110111010;
	225 :	1111111111011101;
	224 :	0000000000110011;
	223 :	1111111111011000;
	222 :	0000001000111101;
	221 :	1111111010010001;
	220 :	1111111111101111;
	219 :	0000001010001011;
	218 :	0000000111100000;
	217 :	1111110100100010;
	216 :	1111110010000010;
	215 :	1111110110011011;
	214 :	1111111011011001;
	213 :	0000010111110101;
	212 :	0000001110010011;
	211 :	1111110111100111;
	210 :	0000011100110110;
	209 :	0000010010011100;
	208 :	0000000110101000;
	207 :	1111111100010101;
	206 :	1111110001110001;
	205 :	0000000111110110;
	204 :	1111111001001110;
	203 :	1111111010010110;
	202 :	0000001000110001;
	201 :	1111111000101111;
	200 :	1111111110111010;
	199 :	1111111111101101;
	198 :	1111111110110011;
	197 :	1111111110111010;
	196 :	0000000000110111;
	195 :	1111111111111001;
	194 :	1111111111100110;
	193 :	1111110101101110;
	192 :	1111111100010001;
	191 :	0000000010011110;
	190 :	0000001110011001;
	189 :	1111111110011110;
	188 :	1111100111010010;
	187 :	1111110010001111;
	186 :	0000001001001100;
	185 :	1111110111110110;
	184 :	1111111100001110;
	183 :	1111111100110111;
	182 :	1111111001110101;
	181 :	1111111110010110;
	180 :	0000001000110000;
	179 :	1111111000001010;
	178 :	1111101111001000;
	177 :	1111110001110000;
	176 :	0000000111100110;
	175 :	1111111100101110;
	174 :	1111111010101000;
	173 :	1111111110011011;
	172 :	1111111111010000;
	171 :	1111111110100000;
	170 :	1111111111010110;
	169 :	0000000000100111;
	168 :	0000000000000101;
	167 :	0000000000000000;
	166 :	1111111101000101;
	165 :	1111111011100111;
	164 :	0000000001110001;
	163 :	0000000110001010;
	162 :	1111110100100000;
	161 :	1111100101000011;
	160 :	1111111000100001;
	159 :	1111110110100100;
	158 :	1111111000000100;
	157 :	1111100100101111;
	156 :	1111101110100101;
	155 :	0000001011011110;
	154 :	1111110100101110;
	153 :	1111111000110111;
	152 :	0000000010001100;
	151 :	1111110111110100;
	150 :	1111110000100111;
	149 :	1111110110011110;
	148 :	1111111100110001;
	147 :	1111110011001010;
	146 :	1111110110101001;
	145 :	1111111111101101;
	144 :	1111111111111000;
	143 :	1111111111010101;
	142 :	1111111110111111;
	141 :	0000000001000011;
	140 :	0000000000000001;
	139 :	1111111111101101;
	138 :	1111111100011000;
	137 :	1111111011101011;
	136 :	1111111101101111;
	135 :	0000000000100001;
	134 :	1111111000011101;
	133 :	1111110100000001;
	132 :	1111111110010110;
	131 :	0000001111000111;
	130 :	0000000101001011;
	129 :	0000001010101110;
	128 :	0000000011001010;
	127 :	1111101011110011;
	126 :	1111101001111111;
	125 :	0000000011001011;
	124 :	1111111111011110;
	123 :	1111111100100000;
	122 :	1111111011011001;
	121 :	1111111000101100;
	120 :	1111111101000011;
	119 :	1111111111010001;
	118 :	1111111111001100;
	117 :	1111111111001100;
	116 :	0000000000000100;
	115 :	1111111111100100;
	114 :	1111111111010000;
	113 :	0000000000001010;
	112 :	0000000000001110;
	111 :	0000000000001111;
	110 :	1111111111111000;
	109 :	1111111111110100;
	108 :	0000000000001111;
	107 :	1111111111111010;
	106 :	0000000000110000;
	105 :	0000000010110001;
	104 :	0000001100111111;
	103 :	0000001000110011;
	102 :	0000000111100100;
	101 :	0000010011100100;
	100 :	0000001101111011;
	99 :	0000000011101010;
	98 :	1111111101110010;
	97 :	1111110101111101;
	96 :	1111111010100000;
	95 :	1111111111001010;
	94 :	1111111101010110;
	93 :	1111111110011001;
	92 :	1111111101011110;
	91 :	1111111111010100;
	90 :	1111111111101010;
	89 :	1111111111111101;
	88 :	1111111111010001;
	87 :	0000000000000110;
	86 :	1111111111100001;
	85 :	0000000000101101;
	84 :	0000000000100110;
	83 :	0000000000110000;
	82 :	1111111111110001;
	81 :	1111111111110001;
	80 :	0000000000010100;
	79 :	1111111111011010;
	78 :	0000000000101010;
	77 :	0000000001111100;
	76 :	0000000001100010;
	75 :	0000000001000110;
	74 :	1111111111011001;
	73 :	0000000000110100;
	72 :	1111111100101110;
	71 :	1111111101011100;
	70 :	1111111110011010;
	69 :	1111111101110001;
	68 :	1111111101110011;
	67 :	1111111111100010;
	66 :	1111111111010110;
	65 :	1111111111000000;
	64 :	1111111110111110;
	63 :	1111111110110000;
	62 :	0000000000000111;
	61 :	1111111111010101;
	60 :	0000000000110010;
	59 :	0000000000000001;
	58 :	1111111111101100;
	57 :	1111111111101110;
	56 :	1111111111110010;
	55 :	0000000000001110;
	54 :	1111111111100100;
	53 :	0000000000100011;
	52 :	0000000001011001;
	51 :	0000000000000000;
	50 :	1111111111011100;
	49 :	1111111111001101;
	48 :	0000000000000100;
	47 :	1111111110100110;
	46 :	0000000000011000;
	45 :	1111111111110000;
	44 :	1111111110010111;
	43 :	1111111101101000;
	42 :	1111111110101000;
	41 :	1111111110111100;
	40 :	1111111110010000;
	39 :	0000000000010101;
	38 :	0000000000000000;
	37 :	1111111111001001;
	36 :	1111111111001111;
	35 :	1111111111000000;
	34 :	1111111111111100;
	33 :	1111111111110010;
	32 :	0000000000010110;
	31 :	1111111111011010;
	30 :	0000000000000010;
	29 :	0000000000001100;
	28 :	1111111111000100;
	27 :	0000000000001000;
	26 :	1111111111100000;
	25 :	0000000000111011;
	24 :	0000000000011111;
	23 :	1111111111101110;
	22 :	1111111111011010;
	21 :	0000000000110100;
	20 :	0000000000010100;
	19 :	0000000000101110;
	18 :	1111111111111010;
	17 :	0000000000011100;
	16 :	0000000000100000;
	15 :	0000000000010010;
	14 :	1111111111111101;
	13 :	1111111111111100;
	12 :	1111111111100010;
	11 :	1111111111100100;
	10 :	0000000000011101;
	9 :	1111111111100111;
	8 :	0000000000111111;
	7 :	1111111111110111;
	6 :	1111111110110011;
	5 :	0000000000011011;
	4 :	1111111111011111;
	3 :	1111111111110101;
	2 :	1111111111111111;
	1 :	0000000000001011;
	0 :	0000000000100111;
END;
