-- begin_signature
-- weight_memory(num_weight
-- 30
-- data_width
-- 16
-- address_width
-- 5
-- weight_file
-- "C:/SystemVerilog_NPU/w_2_15.mif")
-- end_signature
WIDTH=16;
DEPTH=30;

ADDRESS_RADIX=UNS;
DATA_RADIX=BIN;

CONTENT BEGIN
	29 :	0000000001000101;
	28 :	0000001010111100;
	27 :	1111100010011010;
	26 :	0001001111111001;
	25 :	0001000000010010;
	24 :	1111101000011000;
	23 :	0001000011100011;
	22 :	0000000010010010;
	21 :	1111111101111110;
	20 :	1110011010011101;
	19 :	0000000011100100;
	18 :	0000000001111100;
	17 :	1111100111010110;
	16 :	1111101101101101;
	15 :	1111010101011011;
	14 :	0000000000100110;
	13 :	0000101100100011;
	12 :	0000011000000001;
	11 :	1111101010100001;
	10 :	0000001100001101;
	9 :	1111000100110010;
	8 :	1111011001111111;
	7 :	1111000101100110;
	6 :	1111011101010010;
	5 :	0000100000100110;
	4 :	1111001110100011;
	3 :	0000010100000101;
	2 :	0000110000111111;
	1 :	0000000000111001;
	0 :	1111110011010111;
END;
