-- begin_signature
-- weight_memory(num_weight
-- 30
-- data_width
-- 16
-- address_width
-- 5
-- weight_file
-- "C:/SystemVerilog_NPU/w_3_3.mif")
-- end_signature
WIDTH=16;
DEPTH=30;

ADDRESS_RADIX=UNS;
DATA_RADIX=BIN;

CONTENT BEGIN
	29 :	0001000011011011;
	28 :	0000011100000100;
	27 :	0001001111111011;
	26 :	1111000111111111;
	25 :	1110011110101110;
	24 :	0001101101101111;
	23 :	0001000100111110;
	22 :	1111101101101111;
	21 :	1111100111011011;
	20 :	0001000100001100;
	19 :	1110100001100110;
	18 :	0000101011101001;
	17 :	1111111011100110;
	16 :	1101010000010111;
	15 :	0000110001001100;
	14 :	0010001010011000;
	13 :	0000101101110111;
	12 :	0000000010111000;
	11 :	1111111100000111;
	10 :	1110110100011001;
	9 :	0000011100011111;
	8 :	0010100100011001;
	7 :	0000010100011110;
	6 :	0000100110110101;
	5 :	1111001010100101;
	4 :	1101111111101110;
	3 :	1110101100101100;
	2 :	1111110010011010;
	1 :	1111110010000001;
	0 :	1111111011101101;
END;
