-- begin_signature
-- weight_memory(num_weight
-- 30
-- data_width
-- 16
-- address_width
-- 5
-- weight_file
-- "C:/SystemVerilog_NPU/w_2_3.mif")
-- end_signature
WIDTH=16;
DEPTH=30;

ADDRESS_RADIX=UNS;
DATA_RADIX=BIN;

CONTENT BEGIN
	29 :	0000010011111111;
	28 :	0000000000011011;
	27 :	1111110111101101;
	26 :	1110110010011111;
	25 :	1110011100100101;
	24 :	1111101100110010;
	23 :	1110111000010001;
	22 :	0000001100110100;
	21 :	0000001110001000;
	20 :	0000100011111011;
	19 :	0000100100000001;
	18 :	0000001001111110;
	17 :	1111101100011001;
	16 :	0000001011110101;
	15 :	0001000101101101;
	14 :	1111100111011001;
	13 :	0000000110000111;
	12 :	0000100100000010;
	11 :	0001000011011100;
	10 :	1111101111101110;
	9 :	0001011000000111;
	8 :	0000001101001110;
	7 :	0000011000000111;
	6 :	0000001111111110;
	5 :	1111101100111000;
	4 :	1111111000111010;
	3 :	1111100101001000;
	2 :	1111001011011011;
	1 :	0000001100001111;
	0 :	1111111011010001;
END;
