-- begin_signature
-- weight_memory(num_weight
-- 784
-- data_width
-- 16
-- address_width
-- 10
-- weight_file
-- "C:/SystemVerilog_NPU/w_1_26.mif")
-- end_signature
WIDTH=16;
DEPTH=784;

ADDRESS_RADIX=UNS;
DATA_RADIX=BIN;

CONTENT BEGIN
	783 :	1111111111001100;
	782 :	0000000000100000;
	781 :	0000000000000101;
	780 :	1111111111011001;
	779 :	0000000000101010;
	778 :	0000000001011101;
	777 :	1111111111100010;
	776 :	0000000000000101;
	775 :	0000000000001101;
	774 :	0000000000110001;
	773 :	0000000000000100;
	772 :	1111111101001001;
	771 :	1111111011110110;
	770 :	0000000000110001;
	769 :	0000000001010001;
	768 :	1111111111100110;
	767 :	1111111111101000;
	766 :	0000000011000011;
	765 :	0000000000011010;
	764 :	1111111111111111;
	763 :	1111111111001000;
	762 :	0000000000100001;
	761 :	0000000000001111;
	760 :	0000000000000111;
	759 :	0000000000000111;
	758 :	0000000000111001;
	757 :	0000000001000101;
	756 :	1111111111011010;
	755 :	0000000000000101;
	754 :	0000000000100000;
	753 :	1111111111100010;
	752 :	0000000000000110;
	751 :	0000000000000111;
	750 :	0000000001000111;
	749 :	1111111111111110;
	748 :	0000000000001101;
	747 :	0000000001101000;
	746 :	0000000000000111;
	745 :	0000000000100010;
	744 :	1111111100010001;
	743 :	1111110110000010;
	742 :	1111111010100001;
	741 :	0000001010101110;
	740 :	0000001101110101;
	739 :	0000001011100001;
	738 :	1111111101110000;
	737 :	0000000010010110;
	736 :	0000000001101101;
	735 :	1111111111101001;
	734 :	1111111111010111;
	733 :	0000000001010010;
	732 :	1111111111001000;
	731 :	0000000000110100;
	730 :	1111111111101110;
	729 :	1111111111010100;
	728 :	0000000000000001;
	727 :	0000000000010111;
	726 :	1111111111111001;
	725 :	1111111111110101;
	724 :	1111111111011110;
	723 :	1111111100101101;
	722 :	0000000000100101;
	721 :	1111111111000001;
	720 :	1111111110010111;
	719 :	0000000001001000;
	718 :	0000000010010111;
	717 :	0000000000010101;
	716 :	1111111100010110;
	715 :	1111110011100011;
	714 :	0000000101111011;
	713 :	1111111101101100;
	712 :	1111111101011111;
	711 :	0000000010010100;
	710 :	1111110111000010;
	709 :	1111110111100110;
	708 :	1111110100101100;
	707 :	1111111110101000;
	706 :	1111111110001001;
	705 :	0000000000101101;
	704 :	0000000000101111;
	703 :	0000000000011000;
	702 :	0000000000000010;
	701 :	1111111111001000;
	700 :	1111111111100100;
	699 :	1111111111001000;
	698 :	1111111111010110;
	697 :	0000000000011110;
	696 :	1111111111111100;
	695 :	1111111110101101;
	694 :	1111111100010001;
	693 :	1111111011101011;
	692 :	1111111010001010;
	691 :	1111111001100111;
	690 :	1111111010000101;
	689 :	1111111101001101;
	688 :	1111110100110011;
	687 :	1111110101001000;
	686 :	0000001110110101;
	685 :	1111110101011000;
	684 :	1111101101011111;
	683 :	1111110101101101;
	682 :	1111011111101000;
	681 :	1111101000110111;
	680 :	1111111001100110;
	679 :	1111111010101010;
	678 :	1111111111001011;
	677 :	0000001000101101;
	676 :	0000000001110111;
	675 :	0000000101011001;
	674 :	0000000000001111;
	673 :	0000000000011001;
	672 :	0000000000110000;
	671 :	1111111111110001;
	670 :	1111111111000111;
	669 :	0000000000000011;
	668 :	1111111101101101;
	667 :	1111111101101101;
	666 :	1111111000111010;
	665 :	1111110101110111;
	664 :	1111111000110011;
	663 :	1111110001011010;
	662 :	1111101111100101;
	661 :	1111101111010000;
	660 :	1111110011010110;
	659 :	1111111011010000;
	658 :	1111111101001001;
	657 :	1111100101100101;
	656 :	1111111010110000;
	655 :	0000010001110000;
	654 :	0000001111101011;
	653 :	0000000111010100;
	652 :	0000000011101111;
	651 :	1111111001010011;
	650 :	1111111001011011;
	649 :	0000000110000100;
	648 :	0000000110010010;
	647 :	0000000100111111;
	646 :	0000000000000000;
	645 :	1111111111111100;
	644 :	1111111110110100;
	643 :	0000000000000000;
	642 :	1111111111100110;
	641 :	1111111111100011;
	640 :	1111111101100111;
	639 :	1111111011111101;
	638 :	1111110111010001;
	637 :	1111110000001011;
	636 :	1111110010011111;
	635 :	1111110001010110;
	634 :	1111100011110000;
	633 :	1111101100100110;
	632 :	1111101110110111;
	631 :	0000001110001010;
	630 :	0000000001111100;
	629 :	0000000011011100;
	628 :	0000010111011101;
	627 :	0000000101010000;
	626 :	0000000011101001;
	625 :	0000010101010101;
	624 :	0000000001100010;
	623 :	1111111101011101;
	622 :	1111101100100011;
	621 :	1111101110011111;
	620 :	1111111110100110;
	619 :	1111111100011010;
	618 :	1111111111001010;
	617 :	1111111111011111;
	616 :	0000000000110010;
	615 :	0000000000001001;
	614 :	0000000000010000;
	613 :	1111111111100101;
	612 :	1111111010000101;
	611 :	1111110101000011;
	610 :	1111101101010101;
	609 :	1111101011010100;
	608 :	1111101100000010;
	607 :	1111110010111100;
	606 :	1111111110010100;
	605 :	0000000010010011;
	604 :	1111101110000101;
	603 :	1111110100100000;
	602 :	1111101001110101;
	601 :	0000000000001100;
	600 :	1111110001010001;
	599 :	0000001000010010;
	598 :	1111110111010011;
	597 :	0000000010001001;
	596 :	0000011010001000;
	595 :	0000000011101001;
	594 :	1111110010000001;
	593 :	1111110001001000;
	592 :	1111110111001001;
	591 :	1111111101001011;
	590 :	1111111111010001;
	589 :	0000000000000001;
	588 :	1111111111111010;
	587 :	0000000000000000;
	586 :	1111111111001100;
	585 :	1111111101011000;
	584 :	1111111001101101;
	583 :	1111110100100010;
	582 :	1111101110000011;
	581 :	1111100010110000;
	580 :	1111101010101010;
	579 :	1111111100101000;
	578 :	0000000101010010;
	577 :	1111111111010110;
	576 :	1111101011001100;
	575 :	1111111110000010;
	574 :	0000001101001111;
	573 :	0000100101101010;
	572 :	0000010011111011;
	571 :	0000010101101001;
	570 :	0000010001110110;
	569 :	0000010101001011;
	568 :	0000010100110110;
	567 :	1111111110011011;
	566 :	0000001001011110;
	565 :	0000000100111010;
	564 :	0000000111111001;
	563 :	0000001000111111;
	562 :	0000000000010010;
	561 :	0000000000110111;
	560 :	1111111111101100;
	559 :	0000000000000111;
	558 :	1111111111010110;
	557 :	1111111110110011;
	556 :	1111111011010011;
	555 :	1111110011110011;
	554 :	1111110000110111;
	553 :	1111100111010011;
	552 :	1111111101110001;
	551 :	1111110110110001;
	550 :	1111111100111110;
	549 :	1111111110001111;
	548 :	1111110111100110;
	547 :	0000001101111000;
	546 :	0000000101011001;
	545 :	0000011101101011;
	544 :	0000010100110001;
	543 :	0000000101010000;
	542 :	0000001000001011;
	541 :	0000001101110010;
	540 :	0000011000101010;
	539 :	0000010001100101;
	538 :	0000011000101100;
	537 :	0000010100000010;
	536 :	0000011001110001;
	535 :	0000010111101111;
	534 :	0000000000011111;
	533 :	0000000000011011;
	532 :	1111111111001101;
	531 :	0000000000000011;
	530 :	0000000000100111;
	529 :	1111111100001000;
	528 :	1111111001100011;
	527 :	1111110110001100;
	526 :	1111111011101101;
	525 :	1111111110000001;
	524 :	0000000001011010;
	523 :	1111101101100100;
	522 :	0000000001101100;
	521 :	0000001111011110;
	520 :	0000001101111001;
	519 :	0000100000001011;
	518 :	0000000110100110;
	517 :	0000010001010000;
	516 :	0000001010101111;
	515 :	0000010110000000;
	514 :	0000001100101010;
	513 :	0000011001111100;
	512 :	0000100000101110;
	511 :	1111111001011100;
	510 :	0000000100110011;
	509 :	0000010001110010;
	508 :	0000001111000010;
	507 :	0000010011101101;
	506 :	0000000000000001;
	505 :	1111111111010011;
	504 :	1111111111100110;
	503 :	0000000000111110;
	502 :	1111111111000110;
	501 :	1111111000001010;
	500 :	1111110110100011;
	499 :	1111110100000000;
	498 :	1111111011000110;
	497 :	1111111011000010;
	496 :	1111111100100100;
	495 :	1111111000011110;
	494 :	0000000000001010;
	493 :	0000000111011010;
	492 :	0000010000010111;
	491 :	1111111101011001;
	490 :	1111111010011000;
	489 :	1111011001101100;
	488 :	1111100010111111;
	487 :	1111101011100010;
	486 :	1111011110001101;
	485 :	1111100101001111;
	484 :	1111110100100101;
	483 :	1111110111110100;
	482 :	1111111010010101;
	481 :	1111111101100000;
	480 :	0000000011111101;
	479 :	0000001001110101;
	478 :	1111111101111010;
	477 :	0000000000111011;
	476 :	0000000000010010;
	475 :	1111111111110100;
	474 :	0000000000000100;
	473 :	1111110111111101;
	472 :	1111101101101100;
	471 :	1111111000101000;
	470 :	0000000000001111;
	469 :	1111111101100000;
	468 :	0000010001101100;
	467 :	0000001001101101;
	466 :	0000001011010111;
	465 :	1111110111100011;
	464 :	1111101001111101;
	463 :	1111110111100100;
	462 :	1111100101000000;
	461 :	1111100101011100;
	460 :	1111100001010010;
	459 :	1111011001101100;
	458 :	1111001010001011;
	457 :	1111001100110001;
	456 :	1111101101001110;
	455 :	1111110001001000;
	454 :	1111110101101011;
	453 :	1111110000110010;
	452 :	0000000010011111;
	451 :	0000000100001100;
	450 :	1111111111110011;
	449 :	1111111111001110;
	448 :	1111111111101100;
	447 :	0000000001000010;
	446 :	0000000010100101;
	445 :	1111111110011111;
	444 :	0000000000011010;
	443 :	0000000010001101;
	442 :	1111111000111000;
	441 :	1111111011110000;
	440 :	0000001000010011;
	439 :	0000011011010101;
	438 :	0000000100011010;
	437 :	1111110011011001;
	436 :	1111100001100111;
	435 :	1111110001111110;
	434 :	1111100111001111;
	433 :	1111101101111011;
	432 :	1111101111111111;
	431 :	1111101010111011;
	430 :	1111100010001111;
	429 :	0000001010101101;
	428 :	1111111010011011;
	427 :	0000000101010001;
	426 :	0000001011010000;
	425 :	0000000011011001;
	424 :	1111111111110101;
	423 :	0000000011110101;
	422 :	0000000001010000;
	421 :	0000000000010100;
	420 :	1111111111101100;
	419 :	0000000000010001;
	418 :	1111111111001000;
	417 :	1111111011011011;
	416 :	0000000101110000;
	415 :	0000000000001010;
	414 :	1111111000010111;
	413 :	1111110101001100;
	412 :	1111101011111001;
	411 :	1111110111001000;
	410 :	0000000011100111;
	409 :	1111111111111010;
	408 :	1111110110000111;
	407 :	1111011111010001;
	406 :	1111100110001111;
	405 :	1111101110111110;
	404 :	0000000101101101;
	403 :	1111111110011100;
	402 :	1111111001101001;
	401 :	0000000100110110;
	400 :	1111110100000100;
	399 :	1111111100010100;
	398 :	0000010001000011;
	397 :	0000001110100000;
	396 :	0000001101010111;
	395 :	0000001010001010;
	394 :	0000000001001010;
	393 :	0000000000011100;
	392 :	1111111111110000;
	391 :	1111111011111110;
	390 :	1111111110110000;
	389 :	0000000001001010;
	388 :	1111111010011100;
	387 :	1111111001000000;
	386 :	1111101100111101;
	385 :	1111101100100000;
	384 :	1111101000101111;
	383 :	1111110111100000;
	382 :	0000001000110011;
	381 :	1111110100111010;
	380 :	0000001010010100;
	379 :	1111111101111000;
	378 :	0000000110000001;
	377 :	0000000000000011;
	376 :	0000011101100100;
	375 :	0000001001011101;
	374 :	0000000001101110;
	373 :	1111110101101110;
	372 :	1111111100100111;
	371 :	1111110111110010;
	370 :	0000000111111111;
	369 :	0000011001100101;
	368 :	0000010111101101;
	367 :	0000001000111001;
	366 :	0000000010011100;
	365 :	0000000001001010;
	364 :	0000000000001010;
	363 :	0000000000000010;
	362 :	0000000010010000;
	361 :	0000000000111111;
	360 :	1111101111011100;
	359 :	1111110001010101;
	358 :	1111110101101011;
	357 :	1111110101010011;
	356 :	1111111000110100;
	355 :	1111111011010001;
	354 :	0000000110000110;
	353 :	0000001001100100;
	352 :	0000010001010101;
	351 :	0000010001001100;
	350 :	0000001010011000;
	349 :	0000001111111000;
	348 :	0000100000010000;
	347 :	0000001001001000;
	346 :	0000001001011100;
	345 :	0000001011100110;
	344 :	0000010001001110;
	343 :	0000001100100001;
	342 :	1111110000110011;
	341 :	0000001001010110;
	340 :	0000000110000011;
	339 :	0000000110101110;
	338 :	0000000011011001;
	337 :	0000000000100000;
	336 :	0000000000000000;
	335 :	0000000000110000;
	334 :	0000000001011011;
	333 :	0000001100001101;
	332 :	0000000101111110;
	331 :	0000001011001010;
	330 :	0000000010111001;
	329 :	0000000100000110;
	328 :	0000001010101001;
	327 :	0000001010000110;
	326 :	1111111011111010;
	325 :	0000000111101100;
	324 :	1111111010110111;
	323 :	0000011111000111;
	322 :	0000001011110011;
	321 :	0000011011010101;
	320 :	0000010000001100;
	319 :	0000001111101010;
	318 :	0000000011101100;
	317 :	0000001110100001;
	316 :	0000010001101011;
	315 :	0000000101010000;
	314 :	1111111001010011;
	313 :	0000001101010101;
	312 :	0000001110111110;
	311 :	0000001100111011;
	310 :	0000000110111011;
	309 :	0000000001000000;
	308 :	1111111111100001;
	307 :	1111111111101111;
	306 :	0000000101011011;
	305 :	0000011011000101;
	304 :	0000010001000101;
	303 :	0000001000101001;
	302 :	0000000000011000;
	301 :	1111110110110111;
	300 :	0000000011111101;
	299 :	1111110001001011;
	298 :	1111101110001011;
	297 :	1111101100111100;
	296 :	0000011000100101;
	295 :	0000011001111100;
	294 :	0000010001100100;
	293 :	0000011100001111;
	292 :	0000000000100010;
	291 :	0000001000110101;
	290 :	0000001011111000;
	289 :	1111111110010111;
	288 :	1111101101100111;
	287 :	1111111010001111;
	286 :	0000000010001100;
	285 :	0000000101110011;
	284 :	0000000010010000;
	283 :	0000001010000101;
	282 :	0000000011100010;
	281 :	0000000010110111;
	280 :	0000000000011100;
	279 :	0000000010100111;
	278 :	0000001010101000;
	277 :	0000010110001110;
	276 :	0000010001000010;
	275 :	1111110111110010;
	274 :	1111111101011010;
	273 :	0000000010101101;
	272 :	1111111000101011;
	271 :	1111110101001000;
	270 :	1111110111110011;
	269 :	0000001001011010;
	268 :	1111111100101111;
	267 :	1111110111011011;
	266 :	1111110111100000;
	265 :	1111101001100101;
	264 :	1111111011100010;
	263 :	1111101010011001;
	262 :	1111011000110110;
	261 :	1111011111011011;
	260 :	1111101110100110;
	259 :	1111110110000111;
	258 :	0000000101000000;
	257 :	1111111011100000;
	256 :	1111111101000111;
	255 :	0000000101010000;
	254 :	0000000010001101;
	253 :	0000000100001100;
	252 :	1111111111001100;
	251 :	0000000000111101;
	250 :	0000000111011001;
	249 :	0000001111011110;
	248 :	0000001100110111;
	247 :	0000000110010100;
	246 :	0000000110100100;
	245 :	0000001001011101;
	244 :	0000010110000101;
	243 :	0000001010001011;
	242 :	0000001100010100;
	241 :	1111110000000100;
	240 :	1111110110010110;
	239 :	1111101100000101;
	238 :	1111100111001111;
	237 :	1111011110100000;
	236 :	1111101011001001;
	235 :	1111011000010011;
	234 :	1111100100101101;
	233 :	1111011100100100;
	232 :	1111101110101010;
	231 :	1111110010001110;
	230 :	1111111011110100;
	229 :	1111110011111111;
	228 :	1111111101001011;
	227 :	0000000001011100;
	226 :	0000000000101100;
	225 :	0000000010001101;
	224 :	1111111111111010;
	223 :	1111111111011010;
	222 :	0000001000000010;
	221 :	0000000111101101;
	220 :	0000001100110100;
	219 :	0000001010100100;
	218 :	0000000010111010;
	217 :	1111100111000110;
	216 :	0000000010001111;
	215 :	1111111100101100;
	214 :	1111111001010010;
	213 :	1111110010100100;
	212 :	1111111000111001;
	211 :	1111101101101100;
	210 :	1111111001011001;
	209 :	1111101110010111;
	208 :	1111111011100010;
	207 :	1111110100000010;
	206 :	1111101110000001;
	205 :	1111100011100001;
	204 :	1111101000100111;
	203 :	1111101010100110;
	202 :	1111110100111100;
	201 :	1111110110001010;
	200 :	1111111111000100;
	199 :	0000000000110110;
	198 :	1111111111001111;
	197 :	0000000000100011;
	196 :	1111111111100010;
	195 :	1111111101101110;
	194 :	0000000010000011;
	193 :	0000000001100111;
	192 :	0000001011101010;
	191 :	0000000101100101;
	190 :	0000001110010101;
	189 :	0000010000011100;
	188 :	0000001000111101;
	187 :	0000001010111100;
	186 :	0000001111001110;
	185 :	0000000010101100;
	184 :	0000000100000000;
	183 :	1111100000110011;
	182 :	1111111000011101;
	181 :	0000000001000110;
	180 :	0000001111101011;
	179 :	0000000001001010;
	178 :	1111111001100010;
	177 :	1111110110010100;
	176 :	1111110110111011;
	175 :	1111101011111000;
	174 :	1111110101101010;
	173 :	1111111110001001;
	172 :	1111111110110110;
	171 :	0000000000000011;
	170 :	1111111111110011;
	169 :	0000000000001110;
	168 :	0000000000000000;
	167 :	1111111111000000;
	166 :	1111111100111101;
	165 :	1111111101100010;
	164 :	0000000110111000;
	163 :	0000000111011111;
	162 :	0000001000101110;
	161 :	0000000001111100;
	160 :	1111110000110011;
	159 :	1111110101111000;
	158 :	0000000101000110;
	157 :	1111111011100111;
	156 :	0000000111010001;
	155 :	0000001000010101;
	154 :	1111111011110001;
	153 :	0000010100001110;
	152 :	0000000100001001;
	151 :	0000000011101000;
	150 :	1111110010011111;
	149 :	1111111011011100;
	148 :	0000000010001111;
	147 :	1111111100101111;
	146 :	1111111101010000;
	145 :	0000000001101100;
	144 :	1111111111010101;
	143 :	0000000000000000;
	142 :	1111111111100110;
	141 :	0000000000110000;
	140 :	1111111111000100;
	139 :	1111111110101100;
	138 :	0000000000000000;
	137 :	0000000001001010;
	136 :	0000001000010101;
	135 :	1111111110001010;
	134 :	1111110110010000;
	133 :	1111110011000101;
	132 :	1111111001011110;
	131 :	0000000011110101;
	130 :	0000001101001100;
	129 :	1111101101101000;
	128 :	1111100111110010;
	127 :	1111110011100100;
	126 :	1111111010100110;
	125 :	0000001000110000;
	124 :	0000000110000001;
	123 :	1111111110001111;
	122 :	0000000011000100;
	121 :	0000000111110100;
	120 :	0000000001101010;
	119 :	1111111101010011;
	118 :	1111111111000100;
	117 :	0000000001011100;
	116 :	0000000000100010;
	115 :	0000000000101111;
	114 :	1111111111011110;
	113 :	0000000000000010;
	112 :	1111111111111001;
	111 :	1111111111110000;
	110 :	0000000000001001;
	109 :	0000000011110011;
	108 :	0000000011001010;
	107 :	1111111100101010;
	106 :	1111110100000000;
	105 :	1111110001011101;
	104 :	1111111010001100;
	103 :	1111101110111011;
	102 :	0000000001100010;
	101 :	0000000101010011;
	100 :	0000000100001000;
	99 :	0000000101000010;
	98 :	0000000001000111;
	97 :	1111111110110101;
	96 :	1111111011110111;
	95 :	1111111010010110;
	94 :	0000000010100111;
	93 :	1111111101110100;
	92 :	1111111110100000;
	91 :	0000000000011101;
	90 :	0000000001100101;
	89 :	0000000010011101;
	88 :	1111111111011011;
	87 :	0000000000010011;
	86 :	1111111111101111;
	85 :	1111111111110000;
	84 :	0000000000011011;
	83 :	0000000000110111;
	82 :	0000000000011010;
	81 :	0000000000001010;
	80 :	1111111111101011;
	79 :	1111111111000110;
	78 :	1111111101111001;
	77 :	1111111011010010;
	76 :	1111111010101001;
	75 :	1111110110100100;
	74 :	1111111000100010;
	73 :	1111111011110111;
	72 :	1111111110011101;
	71 :	1111110111011001;
	70 :	1111111001010001;
	69 :	1111111011000010;
	68 :	1111111100010101;
	67 :	1111111111000100;
	66 :	0000000000010000;
	65 :	1111111101000101;
	64 :	1111111110010010;
	63 :	1111111110000100;
	62 :	1111111111100110;
	61 :	1111111111111111;
	60 :	1111111111100111;
	59 :	1111111111101011;
	58 :	0000000000010100;
	57 :	0000000000010101;
	56 :	0000000000000010;
	55 :	0000000000010110;
	54 :	0000000000101100;
	53 :	1111111111000000;
	52 :	1111111111110001;
	51 :	0000000000011011;
	50 :	0000000000010001;
	49 :	1111111110111100;
	48 :	1111111111000000;
	47 :	1111111111110111;
	46 :	1111111111001011;
	45 :	0000000010100110;
	44 :	0000000011010101;
	43 :	1111111110001001;
	42 :	1111111110000101;
	41 :	0000000000001111;
	40 :	1111111111111001;
	39 :	1111111111101111;
	38 :	0000000000011111;
	37 :	0000000000011111;
	36 :	0000000000100111;
	35 :	1111111111001011;
	34 :	1111111111101101;
	33 :	1111111111101100;
	32 :	1111111111011111;
	31 :	0000000000011111;
	30 :	0000000000011100;
	29 :	0000000000011001;
	28 :	1111111111110011;
	27 :	1111111111101000;
	26 :	1111111111110000;
	25 :	0000000000001001;
	24 :	0000000000100011;
	23 :	0000000001000011;
	22 :	0000000000010111;
	21 :	0000000000011111;
	20 :	1111111111110110;
	19 :	1111111111100111;
	18 :	0000000000001110;
	17 :	1111111111111000;
	16 :	0000000000000000;
	15 :	0000000000111110;
	14 :	0000000000010001;
	13 :	1111111111101010;
	12 :	1111111111011001;
	11 :	1111111111110011;
	10 :	0000000000001111;
	9 :	1111111111101001;
	8 :	0000000000101110;
	7 :	0000000000001111;
	6 :	0000000000111100;
	5 :	0000000000000000;
	4 :	1111111111110110;
	3 :	0000000000010001;
	2 :	0000000000010111;
	1 :	0000000000000101;
	0 :	1111111111111001;
END;
