-- begin_signature
-- weight_memory(num_weight
-- 30
-- data_width
-- 16
-- address_width
-- 5
-- weight_file
-- "C:/SystemVerilog_NPU/w_2_14.mif")
-- end_signature
WIDTH=16;
DEPTH=30;

ADDRESS_RADIX=UNS;
DATA_RADIX=BIN;

CONTENT BEGIN
	29 :	0000000101101001;
	28 :	0000001011011100;
	27 :	1111010110001001;
	26 :	0000010110001011;
	25 :	0000010000000011;
	24 :	1111100110110010;
	23 :	0001111011010111;
	22 :	0000100001100011;
	21 :	0001000100111100;
	20 :	0000001011011000;
	19 :	0000001110001111;
	18 :	1110110001101111;
	17 :	1111010111100000;
	16 :	1110100011101101;
	15 :	0000011001101110;
	14 :	0010010001110000;
	13 :	0000101000101010;
	12 :	0000101011100100;
	11 :	0000000000100100;
	10 :	1110010110010100;
	9 :	1110011111100101;
	8 :	1110011001100001;
	7 :	1111000010100011;
	6 :	1111110100000010;
	5 :	0001011110101000;
	4 :	1111100110010111;
	3 :	0001001010001101;
	2 :	0001010000000001;
	1 :	0000000000010001;
	0 :	1111010001001011;
END;
