-- begin_signature
-- weight_memory(num_weight
-- 30
-- data_width
-- 16
-- address_width
-- 5
-- weight_file
-- "C:/SystemVerilog_NPU/w_2_18.mif")
-- end_signature
WIDTH=16;
DEPTH=30;

ADDRESS_RADIX=UNS;
DATA_RADIX=BIN;

CONTENT BEGIN
	29 :	1110110011100010;
	28 :	0000111101010001;
	27 :	0000101101010101;
	26 :	0000001101000010;
	25 :	0001011100000000;
	24 :	0001100111100111;
	23 :	0000100001010101;
	22 :	1111101010100001;
	21 :	0000111011000011;
	20 :	1111111001011011;
	19 :	1111011010100010;
	18 :	0001001001111101;
	17 :	0001000001010011;
	16 :	1111000000010101;
	15 :	1110011000111001;
	14 :	0000010001011011;
	13 :	1110100100100111;
	12 :	1110111100001011;
	11 :	1110100011011010;
	10 :	1111100100001001;
	9 :	1110110100100011;
	8 :	1111111110101100;
	7 :	1111010100000001;
	6 :	1111011100110111;
	5 :	0000001111101111;
	4 :	0000011101111100;
	3 :	0000110000100110;
	2 :	0000101110110001;
	1 :	1110100110111000;
	0 :	1111101000110011;
END;
