-- begin_signature
-- weight_memory(num_weight
-- 30
-- data_width
-- 16
-- address_width
-- 5
-- weight_file
-- "C:/SystemVerilog_NPU/w_3_6.mif")
-- end_signature
WIDTH=16;
DEPTH=30;

ADDRESS_RADIX=UNS;
DATA_RADIX=BIN;

CONTENT BEGIN
	29 :	0000101101011100;
	28 :	0000000000100100;
	27 :	0000101010011001;
	26 :	0001000000110011;
	25 :	1110101100000110;
	24 :	0001010000000011;
	23 :	0001100011011100;
	22 :	1111111000010011;
	21 :	0000011010000100;
	20 :	0000001001110100;
	19 :	0000111001110011;
	18 :	1110010111110100;
	17 :	1110001001011000;
	16 :	1111010011110111;
	15 :	1110101101000111;
	14 :	1111010010010000;
	13 :	0001001000110110;
	12 :	0000100000100111;
	11 :	1110110001010111;
	10 :	0000100100011111;
	9 :	0000101001101001;
	8 :	0000100101101101;
	7 :	1111010011011010;
	6 :	0000000110110001;
	5 :	1101000011110111;
	4 :	1110101000011011;
	3 :	0001101101100001;
	2 :	0001111011100110;
	1 :	1110100110010010;
	0 :	1111101011100100;
END;
