-- begin_signature
-- weight_memory(num_weight
-- 30
-- data_width
-- 16
-- address_width
-- 5
-- weight_file
-- "C:/SystemVerilog_NPU/w_2_7.mif")
-- end_signature
WIDTH=16;
DEPTH=30;

ADDRESS_RADIX=UNS;
DATA_RADIX=BIN;

CONTENT BEGIN
	29 :	1111101100011101;
	28 :	0000011000110110;
	27 :	0000101000000010;
	26 :	1110100110100100;
	25 :	1111111000110010;
	24 :	1111101101000001;
	23 :	1111000001001001;
	22 :	0000100000000010;
	21 :	0000011110011101;
	20 :	1110111000000101;
	19 :	1111001010001110;
	18 :	1111110110100100;
	17 :	1111101001110100;
	16 :	1111011000000001;
	15 :	1110101101000101;
	14 :	0000101100110110;
	13 :	1111110010010101;
	12 :	1110100101001010;
	11 :	0000111011101100;
	10 :	1110111011110101;
	9 :	0000100010011010;
	8 :	0000100111111010;
	7 :	0001011101011000;
	6 :	1110110110000110;
	5 :	0000100011101110;
	4 :	1111000000100111;
	3 :	0000000010110110;
	2 :	1111001101010111;
	1 :	0000000101101010;
	0 :	0000111011111110;
END;
