-- begin_signature
-- weight_memory(num_weight
-- 784
-- data_width
-- 16
-- address_width
-- 10
-- weight_file
-- "C:/SystemVerilog_NPU/w_1_28.mif")
-- end_signature
WIDTH=16;
DEPTH=784;

ADDRESS_RADIX=UNS;
DATA_RADIX=BIN;

CONTENT BEGIN
	783 :	1111111111111000;
	782 :	1111111111100111;
	781 :	0000000000000100;
	780 :	1111111111011111;
	779 :	0000000000000000;
	778 :	0000000001010010;
	777 :	0000000000001110;
	776 :	1111111111110101;
	775 :	1111111111000000;
	774 :	1111111110000000;
	773 :	1111111111000111;
	772 :	1111111101111010;
	771 :	1111111111100110;
	770 :	1111111111011111;
	769 :	1111111111100011;
	768 :	0000000000110010;
	767 :	0000000000110001;
	766 :	1111111111101100;
	765 :	1111111110110011;
	764 :	0000000000110100;
	763 :	1111111111111000;
	762 :	0000000001010001;
	761 :	1111111111011000;
	760 :	1111111111010000;
	759 :	0000000000011101;
	758 :	1111111111111100;
	757 :	0000000000010001;
	756 :	0000000000000011;
	755 :	0000000001000110;
	754 :	0000000000100111;
	753 :	1111111111111000;
	752 :	1111111111100101;
	751 :	0000000000001110;
	750 :	0000000001111010;
	749 :	0000000010011011;
	748 :	0000000000110011;
	747 :	1111111101000010;
	746 :	1111110111110110;
	745 :	1111111110101000;
	744 :	1111111001001110;
	743 :	1111111111101111;
	742 :	0000000001111000;
	741 :	0000000001011011;
	740 :	0000000011111101;
	739 :	1111111101011001;
	738 :	1111110010000100;
	737 :	1111110010010100;
	736 :	1111110010001110;
	735 :	1111111100000100;
	734 :	0000000011111010;
	733 :	0000000110110000;
	732 :	0000000011101111;
	731 :	1111111111111110;
	730 :	0000000000000101;
	729 :	1111111111100010;
	728 :	1111111111101110;
	727 :	0000000000001001;
	726 :	1111111110110001;
	725 :	0000000000111110;
	724 :	0000000000010100;
	723 :	1111111111111011;
	722 :	0000000011110101;
	721 :	0000001000111100;
	720 :	0000001001001111;
	719 :	0000000000000101;
	718 :	1111111001001101;
	717 :	1111111111001100;
	716 :	0000000010100010;
	715 :	1111111001001011;
	714 :	0000000011110110;
	713 :	0000000001001010;
	712 :	1111111011101000;
	711 :	1111111000110100;
	710 :	1111101100100100;
	709 :	1111101110101111;
	708 :	1111110100110001;
	707 :	1111111101001111;
	706 :	1111111101001011;
	705 :	1111111011101000;
	704 :	1111111100011010;
	703 :	1111111111110110;
	702 :	0000000000000100;
	701 :	1111111111010110;
	700 :	1111111111101010;
	699 :	0000000000001011;
	698 :	1111111111100111;
	697 :	1111111111110001;
	696 :	0000000001010111;
	695 :	0000000100101100;
	694 :	0000000111010110;
	693 :	0000001000010010;
	692 :	0000001110111010;
	691 :	0000010101010100;
	690 :	0000000001111100;
	689 :	1111111110110111;
	688 :	0000000101011000;
	687 :	1111111110111010;
	686 :	1111111011101011;
	685 :	1111110100000100;
	684 :	0000000111001011;
	683 :	0000000000100100;
	682 :	0000010000101101;
	681 :	0000010101100111;
	680 :	1111111111110010;
	679 :	1111110101111011;
	678 :	1111110100101100;
	677 :	1111110011111100;
	676 :	1111111100010011;
	675 :	1111111111010010;
	674 :	1111111111110001;
	673 :	0000000000001100;
	672 :	0000000000000000;
	671 :	1111111111100111;
	670 :	0000000001001010;
	669 :	1111111111101110;
	668 :	1111111111101001;
	667 :	0000000101100110;
	666 :	0000000111000111;
	665 :	1111111111101111;
	664 :	0000010001010010;
	663 :	0000001101111001;
	662 :	0000001111100100;
	661 :	0000001000000111;
	660 :	1111110111011110;
	659 :	0000000000111001;
	658 :	0000000000100000;
	657 :	1111111010001011;
	656 :	1111110110000010;
	655 :	1111011011000100;
	654 :	1111111001000011;
	653 :	0000001100111001;
	652 :	0000000110010101;
	651 :	1111110001111000;
	650 :	1111110111100010;
	649 :	0000000000100010;
	648 :	1111111110111100;
	647 :	1111111111010100;
	646 :	0000000000111001;
	645 :	1111111110111110;
	644 :	1111111111111111;
	643 :	0000000000001110;
	642 :	1111111111110111;
	641 :	0000000000111101;
	640 :	1111111111111110;
	639 :	0000000110101010;
	638 :	1111111110111001;
	637 :	0000000011011011;
	636 :	0000001100110010;
	635 :	0000000011101001;
	634 :	0000001110000000;
	633 :	1111111000000010;
	632 :	0000000111100100;
	631 :	1111111000100100;
	630 :	1111110111100011;
	629 :	0000000000011011;
	628 :	1111111000010101;
	627 :	0000001010000000;
	626 :	1111111110101001;
	625 :	1111101110001110;
	624 :	1111011111110110;
	623 :	1111100100101001;
	622 :	1111101010111111;
	621 :	1111111011101100;
	620 :	0000000010101110;
	619 :	1111111110010011;
	618 :	0000000000001011;
	617 :	0000000000111100;
	616 :	0000000000010110;
	615 :	0000000000000000;
	614 :	1111111111101111;
	613 :	0000000001010001;
	612 :	0000000011101101;
	611 :	0000000100011101;
	610 :	0000000001001110;
	609 :	0000000001001101;
	608 :	1111111011000101;
	607 :	1111110100000011;
	606 :	1111111011111110;
	605 :	1111111000010010;
	604 :	1111110101101101;
	603 :	1111110010101110;
	602 :	0000001000100011;
	601 :	1111111000110000;
	600 :	1111101100100101;
	599 :	1111110101000011;
	598 :	1111110100111011;
	597 :	1111110010001000;
	596 :	1111100000110101;
	595 :	1111100101110100;
	594 :	1111110011110010;
	593 :	0000000001110100;
	592 :	0000000001101000;
	591 :	1111111101000111;
	590 :	1111111111100010;
	589 :	0000000000001100;
	588 :	0000000000000111;
	587 :	1111111111110101;
	586 :	0000000001000110;
	585 :	0000000000111101;
	584 :	0000000100111110;
	583 :	0000000100001100;
	582 :	1111111111111111;
	581 :	1111111011111110;
	580 :	0000000101011001;
	579 :	1111110100001100;
	578 :	1111111000100100;
	577 :	1111111010101100;
	576 :	1111100101000110;
	575 :	1111111111011010;
	574 :	0000001101110000;
	573 :	1111110000001011;
	572 :	0000000101011111;
	571 :	0000000011011001;
	570 :	1111110110101000;
	569 :	1111111111110100;
	568 :	1111110101000100;
	567 :	1111100111110101;
	566 :	1111110100011110;
	565 :	1111111010100111;
	564 :	0000000101100001;
	563 :	1111111010011011;
	562 :	0000000000001111;
	561 :	1111111111000001;
	560 :	0000000000100010;
	559 :	0000000000101011;
	558 :	0000000001110011;
	557 :	0000000000110000;
	556 :	0000000110110111;
	555 :	0000000101010111;
	554 :	1111111101111111;
	553 :	0000000001101111;
	552 :	0000000010011001;
	551 :	0000000011111111;
	550 :	1111110111001010;
	549 :	1111110010101110;
	548 :	1111111000110000;
	547 :	0000001000111011;
	546 :	1111111100010010;
	545 :	0000001110100011;
	544 :	1111110001110010;
	543 :	0000010011100100;
	542 :	1111110011001011;
	541 :	0000010000110011;
	540 :	0000000110111101;
	539 :	1111111100010101;
	538 :	1111111001001011;
	537 :	0000000001010110;
	536 :	0000000011101110;
	535 :	1111111110010111;
	534 :	1111111111000010;
	533 :	1111111111100001;
	532 :	0000000000001100;
	531 :	0000000001011100;
	530 :	1111111101100011;
	529 :	1111111101100111;
	528 :	0000000000100100;
	527 :	0000000101110100;
	526 :	0000000100111110;
	525 :	0000000011101110;
	524 :	0000011011011111;
	523 :	0000001011111110;
	522 :	1111111111111011;
	521 :	1111111100100100;
	520 :	1111101100100000;
	519 :	1111111000101010;
	518 :	0000001011111111;
	517 :	0000011101000010;
	516 :	0000010100110101;
	515 :	0000001100101110;
	514 :	0000000000110000;
	513 :	0000010011101110;
	512 :	0000000011110101;
	511 :	1111111010010100;
	510 :	0000001000100110;
	509 :	0000000111111001;
	508 :	1111111001001100;
	507 :	1111111011011101;
	506 :	0000000000010010;
	505 :	1111111111111000;
	504 :	0000000000001011;
	503 :	0000000000011000;
	502 :	1111111110100111;
	501 :	1111111100010001;
	500 :	1111111100001001;
	499 :	0000001100001011;
	498 :	0000001011100000;
	497 :	1111111010010101;
	496 :	0000001110000011;
	495 :	0000010000100100;
	494 :	0000001100110100;
	493 :	1111110011011100;
	492 :	0000000111011001;
	491 :	0000010110000110;
	490 :	0000011001000111;
	489 :	0000011110101100;
	488 :	0000010100101011;
	487 :	0000011001001101;
	486 :	0000010100100000;
	485 :	0000000011110101;
	484 :	0000010101011011;
	483 :	1111111101110100;
	482 :	0000001100100101;
	481 :	0000000110001111;
	480 :	1111110010100001;
	479 :	1111111000110100;
	478 :	1111111111000111;
	477 :	1111111111100111;
	476 :	0000000000100011;
	475 :	0000000000100011;
	474 :	0000000000000101;
	473 :	0000000001100001;
	472 :	0000000000011101;
	471 :	0000001000010100;
	470 :	1111111100101111;
	469 :	1111110011010010;
	468 :	1111110111100010;
	467 :	0000000101110100;
	466 :	0000000101010100;
	465 :	0000001000111101;
	464 :	0000001001010000;
	463 :	0000000100101000;
	462 :	0000000101001111;
	461 :	0000011001110011;
	460 :	0000010010011100;
	459 :	0000010010000101;
	458 :	1111110101110100;
	457 :	1111111111001011;
	456 :	0000010011000001;
	455 :	0000000101100101;
	454 :	0000010000011011;
	453 :	0000000011101111;
	452 :	1111110101100011;
	451 :	1111111110010101;
	450 :	1111111111000101;
	449 :	1111111111011011;
	448 :	0000000000110111;
	447 :	0000000000000011;
	446 :	1111111110001001;
	445 :	1111111110110111;
	444 :	0000000001100111;
	443 :	0000000101100000;
	442 :	1111111100101010;
	441 :	1111111000100011;
	440 :	0000000100111100;
	439 :	0000010101100101;
	438 :	0000001001000110;
	437 :	0000000001000011;
	436 :	1111110101000101;
	435 :	1111111000110001;
	434 :	0000010001010100;
	433 :	0000011001010000;
	432 :	0000011000111001;
	431 :	0000011011000000;
	430 :	0000000010000010;
	429 :	0000000101010111;
	428 :	0000010010100110;
	427 :	0000000101011100;
	426 :	0000001001001010;
	425 :	1111111010111011;
	424 :	1111111001111101;
	423 :	0000000100001101;
	422 :	1111111110001001;
	421 :	0000000000011010;
	420 :	1111111111011100;
	419 :	0000000000111000;
	418 :	1111111111111000;
	417 :	1111111111110001;
	416 :	1111111111110011;
	415 :	0000001001011010;
	414 :	0000010111101100;
	413 :	0000000100111010;
	412 :	0000001110111110;
	411 :	0000000110011000;
	410 :	0000001110101100;
	409 :	0000000010011010;
	408 :	0000010100111001;
	407 :	0000010101010100;
	406 :	0000011010011110;
	405 :	0000001100111010;
	404 :	0000001001001100;
	403 :	0000001110010100;
	402 :	0000001000101111;
	401 :	0000010101010010;
	400 :	0000000101010000;
	399 :	1111110011101111;
	398 :	0000010010111001;
	397 :	1111111110001010;
	396 :	0000000111110011;
	395 :	0000000100001100;
	394 :	1111111110100110;
	393 :	0000000000110011;
	392 :	1111111111110010;
	391 :	1111111111101110;
	390 :	0000000000011000;
	389 :	1111111100101011;
	388 :	0000000010100111;
	387 :	0000011100101111;
	386 :	0000010001111110;
	385 :	0000000000001001;
	384 :	0000000011101100;
	383 :	1111111111000101;
	382 :	1111111000011010;
	381 :	1111111101011111;
	380 :	0000000010000100;
	379 :	0000001111110001;
	378 :	0000100011000101;
	377 :	0000001000101111;
	376 :	0000000001111110;
	375 :	0000001000001110;
	374 :	0000000100000111;
	373 :	0000001001001000;
	372 :	1111111001100100;
	371 :	0000001100001111;
	370 :	0000011000110000;
	369 :	0000001010101010;
	368 :	0000001111101011;
	367 :	0000000101110011;
	366 :	1111111110100001;
	365 :	1111111111011010;
	364 :	0000000000110101;
	363 :	1111111111110001;
	362 :	0000000000010101;
	361 :	1111111011110110;
	360 :	1111111111000010;
	359 :	0000011010010101;
	358 :	1111111110001110;
	357 :	0000000010101011;
	356 :	1111111001011111;
	355 :	1111111001110001;
	354 :	1111110101111011;
	353 :	0000001101000111;
	352 :	0000000010011001;
	351 :	0000010011111100;
	350 :	0000111010011111;
	349 :	0000001101100010;
	348 :	0000000100000001;
	347 :	0000100001001000;
	346 :	0000011110000100;
	345 :	0000100101111110;
	344 :	0000011010101000;
	343 :	0000011101011100;
	342 :	0000011010100111;
	341 :	0000011101010011;
	340 :	0000011000001100;
	339 :	0000000111011010;
	338 :	0000000000001100;
	337 :	1111111111011011;
	336 :	0000000001000101;
	335 :	1111111111111101;
	334 :	1111111110001101;
	333 :	1111111100000000;
	332 :	1111111111111000;
	331 :	0000001000001010;
	330 :	1111110111010101;
	329 :	0000000101111010;
	328 :	1111111010101000;
	327 :	0000000101111000;
	326 :	1111111011111011;
	325 :	1111111010100000;
	324 :	0000001111011010;
	323 :	0000000111101100;
	322 :	0000100111011111;
	321 :	0000110000001011;
	320 :	0000011110100011;
	319 :	0000011011011001;
	318 :	0000100101000111;
	317 :	0000100011110111;
	316 :	0000100001111001;
	315 :	0000100101011111;
	314 :	0000100001111110;
	313 :	0000100001001001;
	312 :	0000010101011011;
	311 :	0000000010000010;
	310 :	1111111111110000;
	309 :	0000000000010110;
	308 :	1111111111110110;
	307 :	0000000000110110;
	306 :	0000000000011011;
	305 :	1111111100101110;
	304 :	0000000101101110;
	303 :	0000000101011011;
	302 :	1111101111100110;
	301 :	1111111001000100;
	300 :	1111111000001101;
	299 :	0000000100010110;
	298 :	1111111011101101;
	297 :	1111101100110110;
	296 :	1111101001101100;
	295 :	1111001101010011;
	294 :	1111101001010011;
	293 :	0000001001101101;
	292 :	0000000100101101;
	291 :	0000000110011111;
	290 :	0000011110011100;
	289 :	0000101000011101;
	288 :	0000011010101101;
	287 :	0000100001001111;
	286 :	0000010111100000;
	285 :	0000010010011100;
	284 :	0000001011001110;
	283 :	1111111101011100;
	282 :	1111111110101111;
	281 :	0000000000100000;
	280 :	0000000000011001;
	279 :	1111111111110101;
	278 :	0000000000101000;
	277 :	0000000000111001;
	276 :	0000000111100101;
	275 :	0000000101000011;
	274 :	1111110111011000;
	273 :	1111111110011010;
	272 :	1111100011111101;
	271 :	1111101100111010;
	270 :	1111010011111110;
	269 :	1111011111001100;
	268 :	1111110101001111;
	267 :	1111000111110100;
	266 :	1111010110100011;
	265 :	1111101101000011;
	264 :	1111011110000111;
	263 :	1111110100101101;
	262 :	0000001110110111;
	261 :	0000001100011101;
	260 :	0000000101100001;
	259 :	0000000111101111;
	258 :	0000001010011011;
	257 :	0000000101101101;
	256 :	1111111110011101;
	255 :	1111111001010101;
	254 :	1111111111001011;
	253 :	1111111110111101;
	252 :	0000000000011110;
	251 :	1111111111110011;
	250 :	1111111111110100;
	249 :	0000000100010111;
	248 :	0000001010101010;
	247 :	0000000101100000;
	246 :	1111111011100100;
	245 :	1111110011100010;
	244 :	1111100100101001;
	243 :	1111110011111010;
	242 :	1111011000111000;
	241 :	1111111111001100;
	240 :	0000000010110000;
	239 :	1111010001000111;
	238 :	1111011111111110;
	237 :	1111110010000100;
	236 :	1111001110001011;
	235 :	1111010010101011;
	234 :	1111110001101010;
	233 :	1111110110000111;
	232 :	1111101111011100;
	231 :	1111110010111011;
	230 :	1111111100111010;
	229 :	1111111100001011;
	228 :	1111111010010010;
	227 :	1111111011001101;
	226 :	1111111110100111;
	225 :	1111111111010110;
	224 :	0000000000000110;
	223 :	1111111111111100;
	222 :	1111111111000001;
	221 :	1111111101110101;
	220 :	0000000001011001;
	219 :	0000000000100000;
	218 :	0000000011001001;
	217 :	0000000100001011;
	216 :	0000000011101100;
	215 :	1111110111011110;
	214 :	1111111011010001;
	213 :	0000000011011011;
	212 :	0000000011101101;
	211 :	1111101011010000;
	210 :	1111111101011011;
	209 :	1111011011000111;
	208 :	1111011000110110;
	207 :	1111011100010100;
	206 :	1111100011110110;
	205 :	1111101011111011;
	204 :	1111100000101111;
	203 :	1111100101101011;
	202 :	1111101000010011;
	201 :	1111111010110100;
	200 :	1111111101011011;
	199 :	1111111011100100;
	198 :	1111111111110001;
	197 :	1111111111010110;
	196 :	1111111111000110;
	195 :	0000000000110100;
	194 :	0000000000011001;
	193 :	0000000011010100;
	192 :	0000000001011111;
	191 :	1111111011111101;
	190 :	1111111000111001;
	189 :	0000000100011000;
	188 :	0000000000111100;
	187 :	1111111101010110;
	186 :	1111101111001010;
	185 :	1111111011001101;
	184 :	1111101010111110;
	183 :	1111110100111111;
	182 :	1111101100000111;
	181 :	1111011110000011;
	180 :	1111100100110010;
	179 :	1111010111001110;
	178 :	1111100110100101;
	177 :	1111100000100011;
	176 :	1111011111110010;
	175 :	1111101011001111;
	174 :	1111100111010101;
	173 :	1111101100010111;
	172 :	1111111010111011;
	171 :	1111111111000101;
	170 :	0000000000110011;
	169 :	1111111111010101;
	168 :	1111111111011101;
	167 :	1111111111011101;
	166 :	0000000000100010;
	165 :	1111111010110011;
	164 :	1111111100110010;
	163 :	1111111010001101;
	162 :	1111110100010100;
	161 :	1111111000100010;
	160 :	1111111000100000;
	159 :	1111111001101101;
	158 :	1111100101010111;
	157 :	1111100111001100;
	156 :	1111101101110010;
	155 :	1111111011000011;
	154 :	1111100101010011;
	153 :	1111100101101010;
	152 :	1111101110000011;
	151 :	1111100111111001;
	150 :	1111101100011000;
	149 :	1111101101110110;
	148 :	1111111001100100;
	147 :	1111110010110011;
	146 :	1111110000011000;
	145 :	1111110011101110;
	144 :	1111111101000000;
	143 :	1111111111101011;
	142 :	1111111111100100;
	141 :	1111111111110100;
	140 :	0000000000010001;
	139 :	0000000000001011;
	138 :	1111111110001111;
	137 :	1111111011111000;
	136 :	1111111010111111;
	135 :	1111111101000111;
	134 :	1111110111011110;
	133 :	1111110111011010;
	132 :	1111111100011111;
	131 :	0000000111000110;
	130 :	1111110101111000;
	129 :	1111111010110011;
	128 :	0000001010100111;
	127 :	1111101000111010;
	126 :	1111110010101101;
	125 :	1111111000111110;
	124 :	1111110001001001;
	123 :	1111100010110000;
	122 :	1111100001110111;
	121 :	1111101101101011;
	120 :	1111110111101011;
	119 :	1111111000110010;
	118 :	1111111011010110;
	117 :	1111111100111111;
	116 :	1111111111101001;
	115 :	0000000000001000;
	114 :	0000000000000101;
	113 :	1111111111100010;
	112 :	0000000000010001;
	111 :	1111111111010111;
	110 :	1111111111101110;
	109 :	0000000000101000;
	108 :	0000000101010111;
	107 :	0000000110100101;
	106 :	0000000100000010;
	105 :	1111111111001010;
	104 :	1111111111000111;
	103 :	0000010010001101;
	102 :	0000011001001000;
	101 :	1111111010101000;
	100 :	0000000000001010;
	99 :	1111111001010110;
	98 :	1111110011011111;
	97 :	1111110100101011;
	96 :	1111110011010010;
	95 :	1111101101010110;
	94 :	1111110001001101;
	93 :	0000000000110001;
	92 :	0000000000011111;
	91 :	1111111111011011;
	90 :	0000000000011010;
	89 :	1111111111110101;
	88 :	1111111111110011;
	87 :	0000000000000100;
	86 :	1111111111000110;
	85 :	0000000000000110;
	84 :	1111111111111101;
	83 :	0000000000010010;
	82 :	1111111111100001;
	81 :	0000000000101101;
	80 :	1111111111110100;
	79 :	0000000000101100;
	78 :	0000000001101101;
	77 :	0000000010001100;
	76 :	0000000100001101;
	75 :	0000000100100100;
	74 :	0000000100100011;
	73 :	0000000110001101;
	72 :	0000001111010000;
	71 :	0000010001001101;
	70 :	0000000110101000;
	69 :	0000000011000000;
	68 :	1111111111001010;
	67 :	1111111111100000;
	66 :	0000000000000100;
	65 :	1111111111111110;
	64 :	0000000000000101;
	63 :	0000000000011111;
	62 :	0000000000001111;
	61 :	1111111111110110;
	60 :	0000000000001001;
	59 :	1111111111001100;
	58 :	1111111111111001;
	57 :	0000000000000011;
	56 :	0000000000010011;
	55 :	0000000000100101;
	54 :	0000000000010000;
	53 :	1111111111100100;
	52 :	0000000000000001;
	51 :	1111111111000011;
	50 :	0000000000001000;
	49 :	1111111111110001;
	48 :	0000000000101000;
	47 :	1111111111111011;
	46 :	0000000000100011;
	45 :	0000000000010001;
	44 :	1111111110110110;
	43 :	0000000010000001;
	42 :	0000000000101101;
	41 :	0000000000001110;
	40 :	0000000000001110;
	39 :	1111111111100100;
	38 :	1111111111100110;
	37 :	1111111111110101;
	36 :	1111111111010000;
	35 :	1111111111111101;
	34 :	0000000000101010;
	33 :	1111111111101110;
	32 :	1111111111010100;
	31 :	1111111111010101;
	30 :	0000000000001110;
	29 :	1111111111000101;
	28 :	0000000000100011;
	27 :	1111111111110000;
	26 :	1111111111110000;
	25 :	1111111111101001;
	24 :	1111111110111110;
	23 :	1111111111111110;
	22 :	0000000000010110;
	21 :	0000000000001101;
	20 :	1111111111011110;
	19 :	1111111111010011;
	18 :	0000000000001100;
	17 :	0000000000000101;
	16 :	0000000000101000;
	15 :	0000000000000000;
	14 :	0000000000001101;
	13 :	0000000000001100;
	12 :	1111111111001001;
	11 :	0000000000101000;
	10 :	1111111111110101;
	9 :	1111111111110100;
	8 :	0000000000111101;
	7 :	1111111111110111;
	6 :	0000000000110010;
	5 :	0000000000001110;
	4 :	1111111111101101;
	3 :	1111111111011101;
	2 :	0000000000000110;
	1 :	1111111111110101;
	0 :	1111111111100000;
END;
