-- begin_signature
-- weight_memory(num_weight
-- 784
-- data_width
-- 16
-- address_width
-- 10
-- weight_file
-- "C:/SystemVerilog_NPU/w_1_24.mif")
-- end_signature
WIDTH=16;
DEPTH=784;

ADDRESS_RADIX=UNS;
DATA_RADIX=BIN;

CONTENT BEGIN
	783 :	0000000000101101;
	782 :	1111111111111101;
	781 :	0000000000000000;
	780 :	1111111111101001;
	779 :	1111111111101001;
	778 :	0000000000110010;
	777 :	0000000000100101;
	776 :	1111111111001010;
	775 :	1111111111011100;
	774 :	1111111111110011;
	773 :	1111111111111000;
	772 :	1111111111000001;
	771 :	1111111111111011;
	770 :	1111111110111011;
	769 :	1111111110101010;
	768 :	1111111110110100;
	767 :	0000000000011101;
	766 :	0000000000011100;
	765 :	1111111111111000;
	764 :	1111111111011000;
	763 :	0000000000011011;
	762 :	0000000000000100;
	761 :	1111111110100010;
	760 :	1111111111101011;
	759 :	1111111111100100;
	758 :	1111111111101111;
	757 :	0000000000011100;
	756 :	0000000000100011;
	755 :	0000000000000000;
	754 :	0000000000010010;
	753 :	0000000000010100;
	752 :	1111111111011011;
	751 :	1111111111111110;
	750 :	0000000000101110;
	749 :	0000000010001100;
	748 :	0000000011011100;
	747 :	0000000010110110;
	746 :	0000000110111010;
	745 :	0000001111000111;
	744 :	0000010010001101;
	743 :	0000000111001110;
	742 :	0000000110010010;
	741 :	0000000100001001;
	740 :	0000000001100011;
	739 :	0000000101111100;
	738 :	0000000110011010;
	737 :	0000000010111011;
	736 :	0000000000011000;
	735 :	0000000010011110;
	734 :	0000000000101100;
	733 :	1111111111010111;
	732 :	1111111111001010;
	731 :	1111111110101001;
	730 :	0000000000010001;
	729 :	1111111111110100;
	728 :	1111111111110011;
	727 :	0000000000110010;
	726 :	0000000000001100;
	725 :	0000000000000101;
	724 :	0000000000010110;
	723 :	1111111110111001;
	722 :	0000000000101110;
	721 :	0000000101001111;
	720 :	0000001000101011;
	719 :	0000001110100001;
	718 :	0000001011001111;
	717 :	0000001010011010;
	716 :	0000001000011110;
	715 :	1111111010111110;
	714 :	0000000000111110;
	713 :	0000001110001110;
	712 :	0000010001001001;
	711 :	0000001000111111;
	710 :	0000001001011011;
	709 :	0000001011001010;
	708 :	0000001111001000;
	707 :	0000001100000001;
	706 :	0000000100101000;
	705 :	0000000010110011;
	704 :	0000000000011100;
	703 :	1111111111100110;
	702 :	0000000000010001;
	701 :	0000000000011010;
	700 :	0000000000010101;
	699 :	0000000000000101;
	698 :	1111111111011110;
	697 :	1111111101101111;
	696 :	1111111010011110;
	695 :	1111111011110011;
	694 :	1111110101011100;
	693 :	1111110100011011;
	692 :	1111111000000101;
	691 :	1111101111011101;
	690 :	0000000000111100;
	689 :	0000011011000110;
	688 :	0000000111110011;
	687 :	1111110101101011;
	686 :	1111111111110000;
	685 :	0000001011110111;
	684 :	1111111111011000;
	683 :	1111111010010010;
	682 :	1111101001101101;
	681 :	1111101101010101;
	680 :	1111110111011000;
	679 :	0000001100101101;
	678 :	0000000111101101;
	677 :	0000000110001010;
	676 :	0000000111101110;
	675 :	0000000100110000;
	674 :	0000000001101010;
	673 :	1111111111110100;
	672 :	0000000000100111;
	671 :	1111111111111010;
	670 :	1111111111110010;
	669 :	1111111011011111;
	668 :	1111111010001100;
	667 :	1111110010011101;
	666 :	1111101111010101;
	665 :	1111110001101101;
	664 :	1111110101100000;
	663 :	1111111001101011;
	662 :	0000001111011101;
	661 :	0000001011111001;
	660 :	1111110111001000;
	659 :	0000001001101011;
	658 :	0000001010110011;
	657 :	1111111010000100;
	656 :	1111011101111011;
	655 :	1111110010110100;
	654 :	1111101000010001;
	653 :	1111100111000010;
	652 :	1111100011100110;
	651 :	1111110001110110;
	650 :	1111110001110011;
	649 :	0000000001001111;
	648 :	0000001010100001;
	647 :	0000000110011111;
	646 :	0000000001111011;
	645 :	1111111111111010;
	644 :	0000000000010110;
	643 :	0000000001000100;
	642 :	0000000000110011;
	641 :	1111111100010111;
	640 :	1111110111111110;
	639 :	1111101110101110;
	638 :	1111110000110101;
	637 :	1111110001010010;
	636 :	1111110001101101;
	635 :	0000000110110011;
	634 :	0000001100110100;
	633 :	0000001010111011;
	632 :	1111111010001100;
	631 :	0000000111111010;
	630 :	0000010001111101;
	629 :	0000000101010000;
	628 :	1111100100010011;
	627 :	1111101110101110;
	626 :	1111110101111000;
	625 :	1111110011101000;
	624 :	1111111010101100;
	623 :	1111110010100000;
	622 :	1111110001000001;
	621 :	1111110000010001;
	620 :	1111111000110110;
	619 :	1111111000111111;
	618 :	1111111001000110;
	617 :	1111111111110110;
	616 :	0000000000001010;
	615 :	0000000000101010;
	614 :	1111111111000100;
	613 :	1111111100110101;
	612 :	1111110110111011;
	611 :	1111101000011011;
	610 :	1111101110100101;
	609 :	1111110100010100;
	608 :	0000000111110101;
	607 :	1111111000100010;
	606 :	0000001011111011;
	605 :	1111111010001100;
	604 :	1111110110001110;
	603 :	0000000111010010;
	602 :	0000011000100111;
	601 :	0000000011000000;
	600 :	1111100011010001;
	599 :	1111110001011011;
	598 :	0000000000100110;
	597 :	0000000000000000;
	596 :	0000001011100101;
	595 :	0000001110101111;
	594 :	1111111100111111;
	593 :	1111111100110011;
	592 :	1111111011001011;
	591 :	1111110011011000;
	590 :	1111111000011001;
	589 :	1111111111001001;
	588 :	1111111111100100;
	587 :	1111111110011100;
	586 :	0000000000010001;
	585 :	1111111100101000;
	584 :	1111111010001000;
	583 :	1111111010100000;
	582 :	1111111111010110;
	581 :	1111110100010000;
	580 :	0000001010001111;
	579 :	0000000100001001;
	578 :	0000001000100011;
	577 :	0000001101101100;
	576 :	1111111111100110;
	575 :	0000000010100000;
	574 :	0000010111110111;
	573 :	1111110001101010;
	572 :	1111011001010101;
	571 :	1111110001101010;
	570 :	1111111010111101;
	569 :	0000000010011101;
	568 :	1111111010100110;
	567 :	1111111111111111;
	566 :	0000001000111000;
	565 :	0000001100110010;
	564 :	0000000010110101;
	563 :	1111111011101100;
	562 :	1111111011110011;
	561 :	0000000000000111;
	560 :	1111111111110110;
	559 :	1111111111010010;
	558 :	1111111111011010;
	557 :	1111111100110011;
	556 :	1111111101100101;
	555 :	1111110110100011;
	554 :	0000000111101101;
	553 :	0000000010111111;
	552 :	0000001100011000;
	551 :	0000000100100011;
	550 :	0000000001111000;
	549 :	0000010100011000;
	548 :	0000001101100100;
	547 :	0000010101010100;
	546 :	0000010011010010;
	545 :	1111110001100011;
	544 :	1111100110000001;
	543 :	1111100111101010;
	542 :	1111110100010110;
	541 :	1111111111111001;
	540 :	0000000011011010;
	539 :	0000000010000100;
	538 :	0000001100000100;
	537 :	0000001001110110;
	536 :	0000000001111101;
	535 :	0000001010100101;
	534 :	0000000000011001;
	533 :	0000000000011011;
	532 :	1111111111110100;
	531 :	0000000000001101;
	530 :	0000000000101110;
	529 :	1111110111101100;
	528 :	1111101110110000;
	527 :	1111111110011010;
	526 :	1111111110101011;
	525 :	1111110101110010;
	524 :	0000001000111010;
	523 :	1111111110111000;
	522 :	1111101110100101;
	521 :	0000000000110101;
	520 :	1111111110101101;
	519 :	0000011110100000;
	518 :	0000000101001011;
	517 :	1111101000100101;
	516 :	1111001100110001;
	515 :	1111011011101110;
	514 :	1111101001111010;
	513 :	0000010011111011;
	512 :	0000000111111100;
	511 :	0000000101011101;
	510 :	0000001110101011;
	509 :	0000000011100011;
	508 :	0000000101011100;
	507 :	0000010100000101;
	506 :	0000000001101011;
	505 :	0000000000010101;
	504 :	0000000000111000;
	503 :	0000000000010001;
	502 :	1111111110011101;
	501 :	1111101111110010;
	500 :	1111101110100110;
	499 :	0000010001001000;
	498 :	0000000001011101;
	497 :	0000000101101001;
	496 :	1111111000010001;
	495 :	0000001100000110;
	494 :	0000000001110000;
	493 :	1111111101100110;
	492 :	1111110010011100;
	491 :	1111110101001100;
	490 :	1111101110011110;
	489 :	1111101000000111;
	488 :	1111001100100011;
	487 :	1111001001000001;
	486 :	1111010100111111;
	485 :	1111011100110010;
	484 :	1111100111101111;
	483 :	0000001100100001;
	482 :	0000000111100110;
	481 :	0000000101011010;
	480 :	0000000011011001;
	479 :	0000001011010000;
	478 :	0000000001010010;
	477 :	1111111111101000;
	476 :	0000000000000111;
	475 :	1111111111111000;
	474 :	1111111100100101;
	473 :	1111110100000000;
	472 :	1111111100110010;
	471 :	0000010010101001;
	470 :	0000001111110111;
	469 :	0000001000100111;
	468 :	0000001010010000;
	467 :	0000001011111110;
	466 :	0000010011100000;
	465 :	0000000001000001;
	464 :	1111101110001011;
	463 :	0000001010001100;
	462 :	1111111101111010;
	461 :	1111100110000011;
	460 :	1111100001101010;
	459 :	1111000011101001;
	458 :	1111001011111010;
	457 :	1111100000110110;
	456 :	1111100111000100;
	455 :	1111110000001010;
	454 :	1111110100110101;
	453 :	1111110011010000;
	452 :	0000001000010000;
	451 :	0000000011000011;
	450 :	0000000001011111;
	449 :	0000000000001011;
	448 :	1111111111000001;
	447 :	0000000000001101;
	446 :	1111111110010101;
	445 :	1111111100001010;
	444 :	0000000101110000;
	443 :	0000010100011110;
	442 :	0000001000010000;
	441 :	0000001101111110;
	440 :	0000000101101010;
	439 :	0000000001000101;
	438 :	0000001111111100;
	437 :	1111111110111110;
	436 :	0000010100101101;
	435 :	0000011101010101;
	434 :	0000010001011010;
	433 :	0000000011000000;
	432 :	0000000111110010;
	431 :	1111100000000110;
	430 :	1111010101000010;
	429 :	1111010110011001;
	428 :	1111001110000000;
	427 :	1111010001110011;
	426 :	1111010100010111;
	425 :	1111100000101010;
	424 :	1111111100011010;
	423 :	1111111111001010;
	422 :	0000000001100100;
	421 :	0000000000111111;
	420 :	1111111111101110;
	419 :	0000000000100101;
	418 :	1111111110101100;
	417 :	1111111011100111;
	416 :	1111111001010100;
	415 :	1111111001101111;
	414 :	1111111110111101;
	413 :	0000000001001010;
	412 :	1111111001011001;
	411 :	1111111011010001;
	410 :	1111111001101001;
	409 :	0000001100111110;
	408 :	0000001111010111;
	407 :	0000001001010100;
	406 :	0000100010001010;
	405 :	0000001000111110;
	404 :	0000000001111111;
	403 :	1111110000010010;
	402 :	1111111001100011;
	401 :	1111111101101001;
	400 :	1111100111000001;
	399 :	1111010011111100;
	398 :	1111010011000111;
	397 :	1111011111010101;
	396 :	1111111010010001;
	395 :	0000000000100001;
	394 :	1111111111111010;
	393 :	0000000001100110;
	392 :	1111111111011000;
	391 :	1111111100111110;
	390 :	1111111101000110;
	389 :	1111111000101011;
	388 :	1111101111111110;
	387 :	1111101100101011;
	386 :	1111110010110111;
	385 :	0000000011100010;
	384 :	0000000011000010;
	383 :	0000010100010011;
	382 :	0000000000111111;
	381 :	0000100000101111;
	380 :	0000100011101100;
	379 :	0000001010111010;
	378 :	0000010001111000;
	377 :	1111110110101000;
	376 :	0000000010110000;
	375 :	0000000000101011;
	374 :	1111111100010110;
	373 :	1111110111110011;
	372 :	1111111101011101;
	371 :	1111100110000001;
	370 :	1111100001110011;
	369 :	1111100110100100;
	368 :	1111111110001111;
	367 :	0000000010101000;
	366 :	1111111111110101;
	365 :	1111111111010001;
	364 :	1111111111110011;
	363 :	1111111111011011;
	362 :	1111111111101111;
	361 :	1111111000111001;
	360 :	1111100111110101;
	359 :	1111110011011010;
	358 :	1111111001100100;
	357 :	1111110000000100;
	356 :	0000001011011111;
	355 :	1111110110001010;
	354 :	0000010100010100;
	353 :	0000011011010010;
	352 :	0000011101000010;
	351 :	0000010011100000;
	350 :	0000010010010001;
	349 :	1111110000011100;
	348 :	0000000010110111;
	347 :	0000001001000101;
	346 :	0000000001110011;
	345 :	1111111000101101;
	344 :	1111110100010010;
	343 :	1111101011000111;
	342 :	1111100111111011;
	341 :	1111110010010011;
	340 :	1111111111000100;
	339 :	1111111111110100;
	338 :	1111111110110000;
	337 :	0000000000100000;
	336 :	1111111111011101;
	335 :	1111111111110110;
	334 :	0000000010010111;
	333 :	0000000001110000;
	332 :	1111111111000010;
	331 :	1111110111111100;
	330 :	1111111010010001;
	329 :	1111110001000010;
	328 :	0000000111111001;
	327 :	1111111111100001;
	326 :	0000000001011111;
	325 :	0000110101011110;
	324 :	0000100100110111;
	323 :	0000010110111011;
	322 :	0000010001101110;
	321 :	1111111011011110;
	320 :	1111101010111000;
	319 :	1111111110000101;
	318 :	1111111000000010;
	317 :	1111101000111001;
	316 :	0000000000101100;
	315 :	1111100010100001;
	314 :	1111101111010000;
	313 :	1111111000111101;
	312 :	0000000000000110;
	311 :	0000000010001110;
	310 :	0000000001000101;
	309 :	1111111110101110;
	308 :	0000000000000000;
	307 :	0000000000011100;
	306 :	0000000010100101;
	305 :	0000001000000101;
	304 :	1111111110100111;
	303 :	1111111110010010;
	302 :	0000000100010100;
	301 :	1111110001001000;
	300 :	0000000110100001;
	299 :	1111110111011011;
	298 :	1111100010010100;
	297 :	0000001010000101;
	296 :	0000010111001011;
	295 :	0000010011001110;
	294 :	0000101100010011;
	293 :	0000100100010100;
	292 :	1111111111001011;
	291 :	1111111001000100;
	290 :	0000000000101111;
	289 :	1111111111100110;
	288 :	0000001100001010;
	287 :	1111110011011010;
	286 :	1111101101100000;
	285 :	1111110000111100;
	284 :	1111110100110101;
	283 :	1111111111011100;
	282 :	1111111110011011;
	281 :	0000000000011100;
	280 :	1111111111111011;
	279 :	0000000000011001;
	278 :	0000000010011111;
	277 :	0000001001011010;
	276 :	1111111110110110;
	275 :	1111110100100111;
	274 :	0000001111001011;
	273 :	1111110100111111;
	272 :	1111111000000010;
	271 :	1111101111110110;
	270 :	1111110010110110;
	269 :	1111110010101110;
	268 :	1111111000000001;
	267 :	0000001011111000;
	266 :	0000100101110111;
	265 :	0000010001100110;
	264 :	0000000101101000;
	263 :	0000000100110011;
	262 :	1111111110101101;
	261 :	1111110101101100;
	260 :	1111111110100000;
	259 :	0000000100100011;
	258 :	1111111111100001;
	257 :	1111111010011111;
	256 :	1111111110000110;
	255 :	1111111111001101;
	254 :	1111111101101010;
	253 :	0000000000001000;
	252 :	1111111111010010;
	251 :	0000000000110100;
	250 :	0000000010011011;
	249 :	0000001000001111;
	248 :	0000001000001011;
	247 :	0000000000100000;
	246 :	0000001000101101;
	245 :	0000001010101111;
	244 :	0000001000010000;
	243 :	0000000011000010;
	242 :	0000000011101101;
	241 :	1111101000111010;
	240 :	1111100101001011;
	239 :	1111111110011000;
	238 :	0000001010011111;
	237 :	1111111111110111;
	236 :	1111111011100111;
	235 :	0000000110111000;
	234 :	0000001010001011;
	233 :	1111111001100101;
	232 :	0000000101000001;
	231 :	0000000011111011;
	230 :	0000000110100100;
	229 :	0000001100111101;
	228 :	0000000110100110;
	227 :	0000000011000111;
	226 :	1111111110101000;
	225 :	0000000000001011;
	224 :	0000000000100010;
	223 :	0000000000001111;
	222 :	0000000011000101;
	221 :	1111111111111000;
	220 :	0000000100100010;
	219 :	0000000100110110;
	218 :	0000000010001000;
	217 :	1111101100010100;
	216 :	1111111100111001;
	215 :	0000000101000111;
	214 :	1111110100110001;
	213 :	0000000110010101;
	212 :	1111110111000111;
	211 :	0000010110000011;
	210 :	0000000111000100;
	209 :	1111110010000110;
	208 :	1111101111011110;
	207 :	1111101001110101;
	206 :	0000000111111111;
	205 :	0000000100101100;
	204 :	0000001000100111;
	203 :	0000001111101000;
	202 :	0000001010100110;
	201 :	0000001010110110;
	200 :	0000001010001101;
	199 :	0000000101110100;
	198 :	0000000001001010;
	197 :	0000000000000101;
	196 :	1111111111011001;
	195 :	1111111111111010;
	194 :	0000000001101010;
	193 :	0000000110100010;
	192 :	0000010010000000;
	191 :	0000001101100000;
	190 :	0000000100110011;
	189 :	1111111101101101;
	188 :	1111111011110010;
	187 :	1111110000110100;
	186 :	0000000111110000;
	185 :	0000000000101100;
	184 :	1111101111110010;
	183 :	1111110111010100;
	182 :	1111111110000001;
	181 :	0000000101101111;
	180 :	0000000010100110;
	179 :	1111110001000110;
	178 :	1111110001000000;
	177 :	0000001000111110;
	176 :	0000000100010000;
	175 :	0000000101101100;
	174 :	0000010011000000;
	173 :	0000010001000111;
	172 :	0000000111011000;
	171 :	0000000101000011;
	170 :	0000000000000001;
	169 :	1111111111111000;
	168 :	0000000000100000;
	167 :	0000000000101100;
	166 :	0000000001100000;
	165 :	0000000111010001;
	164 :	0000010000000101;
	163 :	0000001010010101;
	162 :	0000000110010010;
	161 :	0000000001111101;
	160 :	0000000011001010;
	159 :	0000000010010000;
	158 :	0000001011110111;
	157 :	0000000110110100;
	156 :	0000001010000010;
	155 :	0000001110011000;
	154 :	0000001010010101;
	153 :	0000001101010000;
	152 :	1111110101101001;
	151 :	0000000100010011;
	150 :	0000000101101101;
	149 :	1111111011100111;
	148 :	0000000011100110;
	147 :	0000001101100100;
	146 :	0000000110001000;
	145 :	0000001001110100;
	144 :	0000000001100111;
	143 :	0000000011011000;
	142 :	1111111111011001;
	141 :	1111111111110110;
	140 :	0000000000000111;
	139 :	1111111111101101;
	138 :	0000000000100101;
	137 :	0000000111100111;
	136 :	0000010000010011;
	135 :	0000000100010011;
	134 :	0000001010110110;
	133 :	0000011011010110;
	132 :	0000001110010100;
	131 :	0000000000000010;
	130 :	0000001010011110;
	129 :	1111110111111000;
	128 :	0000000010110010;
	127 :	0000001011011111;
	126 :	1111111111100111;
	125 :	1111110111011000;
	124 :	1111111011000011;
	123 :	1111111100011010;
	122 :	0000001000110111;
	121 :	0000001100110110;
	120 :	0000010010111111;
	119 :	0000001000100101;
	118 :	0000000001111001;
	117 :	0000000010110111;
	116 :	1111111111111111;
	115 :	0000000000010011;
	114 :	1111111111000001;
	113 :	0000000000111011;
	112 :	0000000000000011;
	111 :	0000000000001001;
	110 :	0000000000100110;
	109 :	0000000010100010;
	108 :	0000000001011000;
	107 :	1111111111000110;
	106 :	1111111111000101;
	105 :	0000000111001010;
	104 :	0000001110011111;
	103 :	0000000011011000;
	102 :	1111111100000100;
	101 :	1111111001100000;
	100 :	0000000110000000;
	99 :	0000001000010111;
	98 :	0000000110100110;
	97 :	0000001110001011;
	96 :	1111111111110101;
	95 :	1111110100101101;
	94 :	0000000000101011;
	93 :	1111111101001110;
	92 :	0000001010111111;
	91 :	0000000110011101;
	90 :	0000000001110011;
	89 :	0000000000110011;
	88 :	1111111111100011;
	87 :	1111111111101010;
	86 :	1111111111101011;
	85 :	0000000000100100;
	84 :	0000000000000001;
	83 :	0000000000000001;
	82 :	0000000000110011;
	81 :	0000000000011111;
	80 :	0000000000010110;
	79 :	0000000000010011;
	78 :	1111111111010111;
	77 :	1111111101001001;
	76 :	1111111100111110;
	75 :	1111111111001111;
	74 :	1111111110110110;
	73 :	1111111101111001;
	72 :	0000000001001111;
	71 :	1111111110111001;
	70 :	1111111000101110;
	69 :	0000000010001111;
	68 :	1111111000011100;
	67 :	1111110111110011;
	66 :	1111111010011100;
	65 :	1111111010111100;
	64 :	1111111101011110;
	63 :	1111111110010001;
	62 :	1111111110111111;
	61 :	0000000000000010;
	60 :	1111111111110001;
	59 :	0000000000011010;
	58 :	0000000000001001;
	57 :	1111111111011011;
	56 :	0000000000000011;
	55 :	1111111111111010;
	54 :	1111111111111010;
	53 :	1111111111101111;
	52 :	0000000000111110;
	51 :	0000000000000000;
	50 :	1111111111101111;
	49 :	0000000000101010;
	48 :	1111111111010001;
	47 :	1111111111101010;
	46 :	1111111111000111;
	45 :	0000000000100011;
	44 :	0000000000111010;
	43 :	0000000001110101;
	42 :	0000000000001101;
	41 :	1111111111100010;
	40 :	0000000000001000;
	39 :	0000000000001010;
	38 :	0000000000001011;
	37 :	0000000000010100;
	36 :	1111111111110010;
	35 :	1111111111110110;
	34 :	1111111111110000;
	33 :	1111111111000011;
	32 :	1111111111101000;
	31 :	0000000000011100;
	30 :	1111111111010101;
	29 :	0000000000000010;
	28 :	0000000000010000;
	27 :	0000000001001010;
	26 :	1111111111100100;
	25 :	0000000000100010;
	24 :	0000000000010101;
	23 :	1111111111101010;
	22 :	1111111111111110;
	21 :	1111111111111101;
	20 :	0000000000001110;
	19 :	0000000000100010;
	18 :	0000000000011111;
	17 :	0000000001011010;
	16 :	1111111111111011;
	15 :	1111111111110000;
	14 :	1111111111011111;
	13 :	1111111111111001;
	12 :	0000000000011101;
	11 :	0000000000001111;
	10 :	1111111111010100;
	9 :	0000000000010110;
	8 :	0000000000101110;
	7 :	1111111111111010;
	6 :	1111111111111001;
	5 :	1111111111011110;
	4 :	0000000000100111;
	3 :	0000000000110101;
	2 :	0000000000010010;
	1 :	1111111111010010;
	0 :	0000000001010111;
END;
