-- begin_signature
-- weight_memory(num_weight
-- 30
-- data_width
-- 16
-- address_width
-- 5
-- weight_file
-- "C:/SystemVerilog_NPU/w_2_11.mif")
-- end_signature
WIDTH=16;
DEPTH=30;

ADDRESS_RADIX=UNS;
DATA_RADIX=BIN;

CONTENT BEGIN
	29 :	1111111001101111;
	28 :	0000111001010000;
	27 :	1111110000000100;
	26 :	1110111000010001;
	25 :	1111011011011111;
	24 :	1111110001011110;
	23 :	1111000111101111;
	22 :	1111000101101011;
	21 :	0001010010001000;
	20 :	1111000101101011;
	19 :	1111100010011100;
	18 :	0000100100110101;
	17 :	1111101110111010;
	16 :	1111010010101001;
	15 :	1111111011010110;
	14 :	0000101010000011;
	13 :	1111110101011001;
	12 :	1111111000111011;
	11 :	0000011011010000;
	10 :	1110100110111101;
	9 :	1111011011001010;
	8 :	1111101001001110;
	7 :	0000101011110110;
	6 :	1111000110000111;
	5 :	0000011001111101;
	4 :	0000000110011110;
	3 :	0001000001011010;
	2 :	1111100010111001;
	1 :	1110010100011000;
	0 :	0000000110001001;
END;
