-- begin_signature
-- weight_memory(num_weight
-- 30
-- data_width
-- 16
-- address_width
-- 5
-- weight_file
-- "C:/SystemVerilog_NPU/w_2_12.mif")
-- end_signature
WIDTH=16;
DEPTH=30;

ADDRESS_RADIX=UNS;
DATA_RADIX=BIN;

CONTENT BEGIN
	29 :	1111010000111001;
	28 :	1111110100100110;
	27 :	0000101101010110;
	26 :	0000010110011110;
	25 :	0000000110011000;
	24 :	1111111100111110;
	23 :	0001000001000111;
	22 :	1111101111100101;
	21 :	1110010110010001;
	20 :	1111001000101101;
	19 :	0000010111010001;
	18 :	1111101011001000;
	17 :	0000001110000000;
	16 :	0000100010110110;
	15 :	0000000100100001;
	14 :	1111101111111001;
	13 :	1111100101100110;
	12 :	0000000110010100;
	11 :	1111100000111011;
	10 :	0001010010010010;
	9 :	0000001111100110;
	8 :	0000011010000101;
	7 :	1111100110101010;
	6 :	0000101011010001;
	5 :	1111011010011010;
	4 :	1111110111111010;
	3 :	1110110101111001;
	2 :	0000011001010000;
	1 :	0001010100010001;
	0 :	0000100011010110;
END;
