-- begin_signature
-- weight_memory(num_weight
-- 30
-- data_width
-- 16
-- address_width
-- 5
-- weight_file
-- "C:/SystemVerilog_NPU/w_2_28.mif")
-- end_signature
WIDTH=16;
DEPTH=30;

ADDRESS_RADIX=UNS;
DATA_RADIX=BIN;

CONTENT BEGIN
	29 :	0000010111001010;
	28 :	1111111110010101;
	27 :	1111010110001011;
	26 :	1111110110001000;
	25 :	0000000101110010;
	24 :	1111110111011111;
	23 :	1111011100000110;
	22 :	0000101001000100;
	21 :	0000010110000011;
	20 :	1111110100110010;
	19 :	0000000110000010;
	18 :	1111010000000110;
	17 :	1111111001011000;
	16 :	1111111111010011;
	15 :	1111100001111011;
	14 :	1111101010101101;
	13 :	1111101001100000;
	12 :	1111101110100101;
	11 :	0000010000011100;
	10 :	0000001000100001;
	9 :	1111101000000100;
	8 :	0000010101111010;
	7 :	0000010010101100;
	6 :	1111011010111110;
	5 :	0000100000010011;
	4 :	1111001011100010;
	3 :	1111111101011001;
	2 :	1111001001010110;
	1 :	0000001100010100;
	0 :	0000100001001011;
END;
