-- begin_signature
-- weight_memory(num_weight
-- 30
-- data_width
-- 16
-- address_width
-- 5
-- weight_file
-- "C:/SystemVerilog_NPU/w_2_21.mif")
-- end_signature
WIDTH=16;
DEPTH=30;

ADDRESS_RADIX=UNS;
DATA_RADIX=BIN;

CONTENT BEGIN
	29 :	0000110011001010;
	28 :	1111100001001010;
	27 :	1111110010111011;
	26 :	1111110100110111;
	25 :	1111111110011001;
	24 :	0000000111111011;
	23 :	1111010000101101;
	22 :	0000100101110111;
	21 :	0000000111111110;
	20 :	0000101001000101;
	19 :	1111110111111110;
	18 :	1111100111011000;
	17 :	0000001011000100;
	16 :	0000001101110100;
	15 :	1111110001100111;
	14 :	1111110110101000;
	13 :	1111100111111010;
	12 :	1111010100100001;
	11 :	0000000111100101;
	10 :	0000001110011111;
	9 :	1111111100010100;
	8 :	0000100111110101;
	7 :	0000011011110110;
	6 :	1111011101001101;
	5 :	1111011110001010;
	4 :	0000001011011111;
	3 :	0000000010010100;
	2 :	1110111110111010;
	1 :	0000010001011101;
	0 :	0000010111001101;
END;
