-- begin_signature
-- weight_memory(num_weight
-- 30
-- data_width
-- 16
-- address_width
-- 5
-- weight_file
-- "C:/SystemVerilog_NPU/w_3_2.mif")
-- end_signature
WIDTH=16;
DEPTH=30;

ADDRESS_RADIX=UNS;
DATA_RADIX=BIN;

CONTENT BEGIN
	29 :	0000000010011000;
	28 :	1110110100100111;
	27 :	0010100000000011;
	26 :	1101001001000000;
	25 :	1111110011001101;
	24 :	0001011100100110;
	23 :	0000010111101001;
	22 :	0000001111011110;
	21 :	1111000000001101;
	20 :	0000101000011011;
	19 :	1110101001010101;
	18 :	0001010110001100;
	17 :	1110001101010011;
	16 :	0010101010110110;
	15 :	0000110110001101;
	14 :	1111100111001011;
	13 :	1101111000111000;
	12 :	0000011110100000;
	11 :	1111010110100000;
	10 :	1111110010110100;
	9 :	0000111110011100;
	8 :	1111111001111001;
	7 :	1101101000111010;
	6 :	0000011001010011;
	5 :	1100110111100100;
	4 :	0010101000101000;
	3 :	1111001110100111;
	2 :	0001001101111010;
	1 :	1111101011111000;
	0 :	0001010100001001;
END;
