-- begin_signature
-- weight_memory(num_weight
-- 30
-- data_width
-- 16
-- address_width
-- 5
-- weight_file
-- "C:/SystemVerilog_NPU/w_2_8.mif")
-- end_signature
WIDTH=16;
DEPTH=30;

ADDRESS_RADIX=UNS;
DATA_RADIX=BIN;

CONTENT BEGIN
	29 :	1111000110100101;
	28 :	0001100100000100;
	27 :	1110111101000110;
	26 :	1111001011100000;
	25 :	1111110101111101;
	24 :	1111100111010001;
	23 :	1111111100101111;
	22 :	0000110111001101;
	21 :	0000111001000010;
	20 :	0000010101001111;
	19 :	0000111111110010;
	18 :	1111111100011001;
	17 :	1111110001110100;
	16 :	1110111011000111;
	15 :	1111111100110100;
	14 :	1111101001011011;
	13 :	0000110000101100;
	12 :	0000110110110010;
	11 :	0001011011110111;
	10 :	1111110101011011;
	9 :	0000101011101010;
	8 :	1111011010110101;
	7 :	1111100011000111;
	6 :	1111010010010100;
	5 :	0010001100111011;
	4 :	1110010011111010;
	3 :	1111101100101010;
	2 :	0000101000100011;
	1 :	1111101101101010;
	0 :	1111001100111101;
END;
