-- begin_signature
-- weight_memory(num_weight
-- 784
-- data_width
-- 16
-- address_width
-- 10
-- weight_file
-- "C:/SystemVerilog_NPU/w_1_6.mif")
-- end_signature
WIDTH=16;
DEPTH=784;

ADDRESS_RADIX=UNS;
DATA_RADIX=BIN;

CONTENT BEGIN
	783 :	1111111111111011;
	782 :	1111111111110110;
	781 :	1111111111101110;
	780 :	0000000000000011;
	779 :	1111111111101010;
	778 :	0000000001110110;
	777 :	0000000001111011;
	776 :	0000000000101010;
	775 :	1111111111000010;
	774 :	0000000001101101;
	773 :	0000000000101011;
	772 :	1111111011100001;
	771 :	1111111010101011;
	770 :	0000000000100000;
	769 :	0000000000010100;
	768 :	1111111110110001;
	767 :	1111111111110010;
	766 :	0000000010101010;
	765 :	0000000001101100;
	764 :	0000000000010110;
	763 :	0000000000001000;
	762 :	1111111111101111;
	761 :	1111111111000011;
	760 :	0000000000110001;
	759 :	1111111111100010;
	758 :	1111111111110101;
	757 :	1111111111011101;
	756 :	1111111111111010;
	755 :	1111111111110000;
	754 :	0000000000010000;
	753 :	1111111111111100;
	752 :	1111111111101000;
	751 :	1111111111010001;
	750 :	0000000010111010;
	749 :	0000000110001011;
	748 :	0000000010011101;
	747 :	0000000101101011;
	746 :	0000000111110110;
	745 :	0000000010101001;
	744 :	0000010111100001;
	743 :	0000001100000011;
	742 :	0000000111000100;
	741 :	1111111010101011;
	740 :	1111111101010001;
	739 :	0000000011000001;
	738 :	1111111101110111;
	737 :	0000001001000111;
	736 :	0000001011101011;
	735 :	0000001010111111;
	734 :	0000000100011101;
	733 :	1111111111110111;
	732 :	1111111011000010;
	731 :	0000000000000000;
	730 :	1111111111000101;
	729 :	0000000000110111;
	728 :	0000000000011110;
	727 :	1111111111111011;
	726 :	0000000000000000;
	725 :	0000000000010100;
	724 :	0000000010101100;
	723 :	0000000110011100;
	722 :	0000000100001001;
	721 :	0000000010000110;
	720 :	0000000000011010;
	719 :	0000000100011001;
	718 :	0000010001011001;
	717 :	0000000010000001;
	716 :	0000010000101001;
	715 :	0000000101111101;
	714 :	0000000011001010;
	713 :	0000001100100110;
	712 :	0000011011110101;
	711 :	0000001111100111;
	710 :	0000000101101111;
	709 :	0000011000110010;
	708 :	0000001111011100;
	707 :	0000010000101000;
	706 :	0000001000111010;
	705 :	0000001001011010;
	704 :	0000001000010100;
	703 :	0000000000100011;
	702 :	0000000000001111;
	701 :	1111111111111011;
	700 :	1111111111111010;
	699 :	0000000000001100;
	698 :	0000000000001111;
	697 :	0000000000001010;
	696 :	0000000010001110;
	695 :	0000000111110111;
	694 :	0000000101011111;
	693 :	0000001000010101;
	692 :	0000001000100001;
	691 :	0000000010110111;
	690 :	0000000001111011;
	689 :	0000001110001001;
	688 :	1111110110101111;
	687 :	0000001010001110;
	686 :	0000000011010010;
	685 :	0000000100100001;
	684 :	1111110011011001;
	683 :	1111110111000101;
	682 :	1111111101101010;
	681 :	1111111011111110;
	680 :	0000000001101001;
	679 :	0000000100101111;
	678 :	0000000001101001;
	677 :	0000000011001010;
	676 :	0000000101111011;
	675 :	1111111111100011;
	674 :	1111111110111111;
	673 :	1111111111011110;
	672 :	0000000000001100;
	671 :	1111111111110000;
	670 :	0000000000011010;
	669 :	0000000000001100;
	668 :	0000000100001100;
	667 :	0000000110010011;
	666 :	1111111110000010;
	665 :	1111110110001011;
	664 :	1111110110110000;
	663 :	1111110011001100;
	662 :	1111111011011010;
	661 :	0000000100010000;
	660 :	1111101110100110;
	659 :	1111111101000001;
	658 :	0000001011010000;
	657 :	1111110001000011;
	656 :	1111100111100111;
	655 :	1111100011100111;
	654 :	1111110001001001;
	653 :	0000000110110111;
	652 :	1111110011101100;
	651 :	1111111100000011;
	650 :	1111111000101011;
	649 :	1111111100011010;
	648 :	1111111110111001;
	647 :	1111111110111010;
	646 :	1111111111000000;
	645 :	1111111111100010;
	644 :	1111111111101110;
	643 :	0000000001100000;
	642 :	1111111111100101;
	641 :	0000000001001010;
	640 :	0000000100010011;
	639 :	0000000010110011;
	638 :	1111111011011111;
	637 :	1111110110000110;
	636 :	1111101110010101;
	635 :	1111100001111010;
	634 :	1111111111001010;
	633 :	0000000001000100;
	632 :	1111110101010101;
	631 :	1111111010111111;
	630 :	1111111010000101;
	629 :	1111111110011110;
	628 :	1111111111001110;
	627 :	1111100010110001;
	626 :	1111111000111000;
	625 :	1111111011011110;
	624 :	1111111101000101;
	623 :	1111111110101111;
	622 :	1111101010101010;
	621 :	1111101110011111;
	620 :	1111110010000011;
	619 :	1111111010111110;
	618 :	1111111111000010;
	617 :	0000000000100101;
	616 :	1111111111011110;
	615 :	1111111111001100;
	614 :	1111111110011000;
	613 :	0000000000011010;
	612 :	0000000101010000;
	611 :	1111111001010101;
	610 :	1111111100101110;
	609 :	1111111111010111;
	608 :	1111111010100010;
	607 :	1111111000001000;
	606 :	0000000101000101;
	605 :	0000000111000011;
	604 :	1111111101010001;
	603 :	1111111101100110;
	602 :	0000000100100111;
	601 :	1111101010010100;
	600 :	1111100010100010;
	599 :	1111010100111101;
	598 :	1111110010011110;
	597 :	1111101110000000;
	596 :	1111100101000000;
	595 :	1111011001111111;
	594 :	1111100101110101;
	593 :	1111101011111110;
	592 :	1111101011011010;
	591 :	1111110101010001;
	590 :	1111111101110011;
	589 :	1111111111000011;
	588 :	1111111111010100;
	587 :	1111111111110001;
	586 :	0000000000001011;
	585 :	0000000001010010;
	584 :	1111111110101101;
	583 :	1111111001110100;
	582 :	1111111001110010;
	581 :	1111111101100100;
	580 :	1111111011101110;
	579 :	1111110101011100;
	578 :	1111101111001000;
	577 :	1111110101011010;
	576 :	1111110011100111;
	575 :	1111101101100111;
	574 :	1111100011101001;
	573 :	1111100010000110;
	572 :	1111011000001110;
	571 :	1111011110100111;
	570 :	1111011000100110;
	569 :	1111110011001011;
	568 :	1111100101000010;
	567 :	1111100111000010;
	566 :	1111101101101011;
	565 :	1111101111110001;
	564 :	1111101011000101;
	563 :	1111110100000101;
	562 :	1111111110010001;
	561 :	1111111111100001;
	560 :	1111111111111010;
	559 :	1111111111010001;
	558 :	1111111111010100;
	557 :	0000000010001001;
	556 :	1111111010101111;
	555 :	1111101101011111;
	554 :	1111101111001110;
	553 :	1111111000110111;
	552 :	0000000010111100;
	551 :	1111101111101001;
	550 :	1111110101100010;
	549 :	1111111001100110;
	548 :	0000000100111100;
	547 :	1111100101010111;
	546 :	1111101100111110;
	545 :	1111101110110001;
	544 :	1111111011110010;
	543 :	1111110001010100;
	542 :	1111101001100011;
	541 :	1111100011001111;
	540 :	1111101110101100;
	539 :	0000010001000001;
	538 :	1111110001110100;
	537 :	1111111010110110;
	536 :	1111110110100010;
	535 :	1111111000111011;
	534 :	0000000010000101;
	533 :	1111111111110001;
	532 :	0000000000100110;
	531 :	0000000000110111;
	530 :	1111111111000111;
	529 :	1111111111001101;
	528 :	1111101101111110;
	527 :	1111101011000110;
	526 :	1111101011010101;
	525 :	1111110100101111;
	524 :	0000010001110111;
	523 :	0000001000111000;
	522 :	0000000000010010;
	521 :	0000001010000011;
	520 :	0000000100010010;
	519 :	0000000100110011;
	518 :	0000010011010001;
	517 :	0000011100011110;
	516 :	0000100001010110;
	515 :	0000111110100000;
	514 :	0000101100000010;
	513 :	0000000101011001;
	512 :	0000001110111110;
	511 :	0000001110001010;
	510 :	0000001000011111;
	509 :	0000001110001001;
	508 :	0000000110101011;
	507 :	0000000001011000;
	506 :	0000000001101011;
	505 :	0000000000001010;
	504 :	0000000000011000;
	503 :	0000000000100111;
	502 :	0000000000100100;
	501 :	1111111110100000;
	500 :	1111101101001110;
	499 :	1111110000000100;
	498 :	1111110111010100;
	497 :	0000000010011011;
	496 :	0000000111101001;
	495 :	0000001000001100;
	494 :	0000010010101101;
	493 :	0000001110101001;
	492 :	1111111001100110;
	491 :	0000000100001110;
	490 :	1111111000111000;
	489 :	0000001110000011;
	488 :	0000100000110000;
	487 :	0000100100110010;
	486 :	0000101001110101;
	485 :	0001001001111111;
	484 :	0000110000001000;
	483 :	0000100000010001;
	482 :	0000100010001110;
	481 :	0000011110011010;
	480 :	0000001111001111;
	479 :	0000000001011001;
	478 :	0000000000100000;
	477 :	1111111111011100;
	476 :	1111111111110100;
	475 :	1111111111011001;
	474 :	0000000101010110;
	473 :	1111110110110110;
	472 :	1111110100100010;
	471 :	0000000001010101;
	470 :	1111111001011110;
	469 :	1111111111110000;
	468 :	0000001001010010;
	467 :	0000011111001010;
	466 :	0000001101011111;
	465 :	1111111010111110;
	464 :	1111011111110001;
	463 :	1111110011101111;
	462 :	1111101011100011;
	461 :	1111110101101010;
	460 :	0000000101010100;
	459 :	1111100101000010;
	458 :	0000000011100010;
	457 :	0000101111100110;
	456 :	0000110110111100;
	455 :	0000100111000000;
	454 :	0000000111011111;
	453 :	0000010100100111;
	452 :	0000010110101000;
	451 :	0000000100100001;
	450 :	0000000000001010;
	449 :	1111111111111111;
	448 :	0000000000011010;
	447 :	0000000000100000;
	446 :	0000000101111001;
	445 :	1111110101010101;
	444 :	1111110101100111;
	443 :	1111111100000111;
	442 :	1111101111011010;
	441 :	1111101010010111;
	440 :	0000000100111110;
	439 :	0000010010100010;
	438 :	0000001110111100;
	437 :	0000010011010111;
	436 :	1111110000111011;
	435 :	0000001110000111;
	434 :	1111101111101010;
	433 :	1111101110000110;
	432 :	1111110101011010;
	431 :	1111101001010010;
	430 :	1111011101011100;
	429 :	1111110010010000;
	428 :	1111101100111010;
	427 :	1111110101010011;
	426 :	0000000111010111;
	425 :	0000010001010001;
	424 :	0000001011100011;
	423 :	0000000100011000;
	422 :	1111111111011011;
	421 :	1111111111010100;
	420 :	0000000000000101;
	419 :	1111111111000111;
	418 :	0000000010000000;
	417 :	1111111010000101;
	416 :	1111110110100010;
	415 :	1111111000111111;
	414 :	1111110010001110;
	413 :	1111101111010010;
	412 :	0000001110110000;
	411 :	1111111100111011;
	410 :	1111101011101110;
	409 :	0000000000111010;
	408 :	0000000001001010;
	407 :	1111110000110011;
	406 :	1111110100110010;
	405 :	1111101010011000;
	404 :	1111111001110001;
	403 :	1111011101011010;
	402 :	1111101111110011;
	401 :	1111011011010110;
	400 :	1111011100111110;
	399 :	1111101000111110;
	398 :	1111101011110111;
	397 :	1111100110110100;
	396 :	0000001001110010;
	395 :	0000000010111010;
	394 :	0000000001010000;
	393 :	0000000000010111;
	392 :	0000000000011100;
	391 :	1111111111000101;
	390 :	0000000000010011;
	389 :	0000000001001101;
	388 :	1111111001101000;
	387 :	1111101101000100;
	386 :	1111111000101111;
	385 :	1111110110001111;
	384 :	0000000100100011;
	383 :	1111110011110100;
	382 :	1111111011001110;
	381 :	0000000111000111;
	380 :	0000000100011110;
	379 :	1111110100110000;
	378 :	0000001011011101;
	377 :	0000000001011101;
	376 :	1111110010110011;
	375 :	1111100011011000;
	374 :	1111100100011111;
	373 :	1111110000000100;
	372 :	1111101100110001;
	371 :	1111111101101001;
	370 :	0000000001111010;
	369 :	1111110110110011;
	368 :	0000000100010111;
	367 :	0000000100010110;
	366 :	0000000011001100;
	365 :	1111111111101100;
	364 :	0000000000010011;
	363 :	0000000001001011;
	362 :	0000000101010010;
	361 :	0000001001100100;
	360 :	1111111000000110;
	359 :	1111110110011110;
	358 :	0000001000100000;
	357 :	1111110110110100;
	356 :	1111111101101010;
	355 :	0000000111010110;
	354 :	1111111100000110;
	353 :	1111111011000000;
	352 :	0000000010010010;
	351 :	0000000001011011;
	350 :	1111111100010101;
	349 :	1111111100111111;
	348 :	1111011110010010;
	347 :	1111101110101010;
	346 :	0000001100001111;
	345 :	0000001011011100;
	344 :	0000100001000010;
	343 :	0000010110000110;
	342 :	0000000011110110;
	341 :	0000001000000110;
	340 :	0000000101011010;
	339 :	0000000111101100;
	338 :	0000000010011011;
	337 :	1111111111101110;
	336 :	0000000000110001;
	335 :	0000000000000100;
	334 :	0000000000010000;
	333 :	0000000110100111;
	332 :	0000000000010100;
	331 :	0000001000110111;
	330 :	0000000100111111;
	329 :	1111111101101000;
	328 :	0000001000100010;
	327 :	0000000001111010;
	326 :	0000000001010001;
	325 :	0000011001011011;
	324 :	1111110010010111;
	323 :	0000001101101010;
	322 :	0000000110011110;
	321 :	1111111111010111;
	320 :	1111101011001001;
	319 :	0000010101100001;
	318 :	0000000111110100;
	317 :	0000001110010000;
	316 :	0000000010100111;
	315 :	1111111101111101;
	314 :	0000010010101010;
	313 :	0000011001010001;
	312 :	0000001110010010;
	311 :	0000001100101010;
	310 :	0000000100010100;
	309 :	0000000001110010;
	308 :	1111111111100000;
	307 :	0000000010111000;
	306 :	0000000101010101;
	305 :	0000010000001010;
	304 :	0000000011001111;
	303 :	0000000000110111;
	302 :	0000000000101100;
	301 :	0000010101110010;
	300 :	0000001101001100;
	299 :	0000000100010100;
	298 :	0000001111101010;
	297 :	0000001110000100;
	296 :	0000010010010001;
	295 :	0000000110000001;
	294 :	1111101111111100;
	293 :	0000011111111110;
	292 :	1111111011011000;
	291 :	0000001111111000;
	290 :	0000010011000100;
	289 :	0000010011101111;
	288 :	1111110111010111;
	287 :	1111111000011101;
	286 :	0000001110100100;
	285 :	0000000101010001;
	284 :	1111111111101110;
	283 :	0000000110110010;
	282 :	0000000000001010;
	281 :	0000000011011110;
	280 :	0000000000010001;
	279 :	0000001010110110;
	278 :	0000000010000011;
	277 :	0000000001011001;
	276 :	1111111000011010;
	275 :	1111101011000001;
	274 :	0000000100011001;
	273 :	0000010000011111;
	272 :	0000010001011001;
	271 :	1111110100010111;
	270 :	0000000101011010;
	269 :	0000001110111010;
	268 :	0000000011100000;
	267 :	1111110111010110;
	266 :	0000000000110001;
	265 :	0000000100111001;
	264 :	0000000011000001;
	263 :	0000001101101011;
	262 :	0000000001001111;
	261 :	0000000111001000;
	260 :	0000001011000111;
	259 :	1111111000000000;
	258 :	0000000001110111;
	257 :	1111111000011000;
	256 :	1111111001110110;
	255 :	1111111101101101;
	254 :	0000000010011111;
	253 :	0000000100010010;
	252 :	1111111111111001;
	251 :	0000000000110001;
	250 :	0000000011101011;
	249 :	1111111000010110;
	248 :	1111111111010011;
	247 :	1111111110000010;
	246 :	0000000001110110;
	245 :	1111111110000100;
	244 :	0000001111111100;
	243 :	1111111010111010;
	242 :	0000001000101100;
	241 :	0000001001000011;
	240 :	0000000001110101;
	239 :	1111111000011000;
	238 :	1111110010010101;
	237 :	1111111011111011;
	236 :	0000010000111000;
	235 :	0000000010110101;
	234 :	1111110010101100;
	233 :	0000000000101101;
	232 :	0000001000111011;
	231 :	1111111000111110;
	230 :	1111110111100100;
	229 :	1111111110011001;
	228 :	0000000001001010;
	227 :	0000000010010110;
	226 :	0000000011111010;
	225 :	0000000010111001;
	224 :	1111111110100110;
	223 :	0000000000110001;
	222 :	0000000100110101;
	221 :	1111111100001101;
	220 :	0000001010101011;
	219 :	1111111101001101;
	218 :	1111110100111001;
	217 :	1111110100111010;
	216 :	0000000101000100;
	215 :	0000000011011000;
	214 :	1111111001100101;
	213 :	1111111011101001;
	212 :	0000000110110001;
	211 :	1111101101101100;
	210 :	0000000001110010;
	209 :	1111110100011101;
	208 :	1111111010000101;
	207 :	1111100111010000;
	206 :	0000000010111110;
	205 :	1111111100000010;
	204 :	1111111010000100;
	203 :	0000000011001011;
	202 :	0000001101100100;
	201 :	0000000110010100;
	200 :	0000001001010001;
	199 :	0000001000010001;
	198 :	0000000010000011;
	197 :	0000000001010011;
	196 :	0000000000000000;
	195 :	0000000000000111;
	194 :	0000000011111010;
	193 :	1111111111010010;
	192 :	0000001011111000;
	191 :	1111111110111001;
	190 :	0000000110001001;
	189 :	0000000111000111;
	188 :	0000001001011100;
	187 :	0000000001100101;
	186 :	0000000111100100;
	185 :	1111110100010011;
	184 :	1111110111101010;
	183 :	1111110011010011;
	182 :	1111111011100110;
	181 :	1111111100001100;
	180 :	1111110000000101;
	179 :	1111011110110101;
	178 :	1111111011110000;
	177 :	0000000100001100;
	176 :	1111111001100001;
	175 :	1111111111001010;
	174 :	0000010000111100;
	173 :	0000001100101001;
	172 :	1111111111010000;
	171 :	1111111111011111;
	170 :	0000000000101010;
	169 :	0000000000001110;
	168 :	0000000000100101;
	167 :	1111111101011101;
	166 :	1111111001000101;
	165 :	1111110000001001;
	164 :	1111111100001011;
	163 :	0000000101010110;
	162 :	0000001010010001;
	161 :	0000001011000001;
	160 :	0000000001111101;
	159 :	1111101101100011;
	158 :	0000001000011101;
	157 :	1111110100100111;
	156 :	1111110010001101;
	155 :	1111101100100000;
	154 :	1111100100001010;
	153 :	1111101100011010;
	152 :	1111101100001010;
	151 :	1111101011000101;
	150 :	1111101010001110;
	149 :	1111110000001111;
	148 :	1111110011101001;
	147 :	1111111010111001;
	146 :	1111111111011100;
	145 :	0000000011010101;
	144 :	1111111101111111;
	143 :	1111111111011001;
	142 :	0000000000001100;
	141 :	1111111111001010;
	140 :	1111111111101000;
	139 :	1111111101111100;
	138 :	1111111100110101;
	137 :	1111111110000100;
	136 :	0000000010101101;
	135 :	0000001001101001;
	134 :	0000001000011110;
	133 :	0000000001101001;
	132 :	1111111011011010;
	131 :	1111101110011011;
	130 :	0000000011101010;
	129 :	1111110100010110;
	128 :	1111111000110011;
	127 :	1111111001010110;
	126 :	1111110110000101;
	125 :	1111110111100001;
	124 :	1111111100010100;
	123 :	1111110110010010;
	122 :	1111101110000111;
	121 :	1111011101010100;
	120 :	1111101001001100;
	119 :	1111110100101001;
	118 :	1111111011110000;
	117 :	1111111101010110;
	116 :	1111111110000000;
	115 :	1111111111100111;
	114 :	1111111111100010;
	113 :	1111111111001011;
	112 :	1111111111100010;
	111 :	1111111111011011;
	110 :	0000000001000110;
	109 :	0000000011101111;
	108 :	0000000001011000;
	107 :	0000000001010011;
	106 :	1111111111011001;
	105 :	1111110110010010;
	104 :	1111111101100100;
	103 :	0000001000001001;
	102 :	0000001110000001;
	101 :	0000000111010100;
	100 :	1111111111010010;
	99 :	0000000010000010;
	98 :	1111111101111010;
	97 :	1111111001010010;
	96 :	1111111010000100;
	95 :	1111110100011111;
	94 :	1111110110001101;
	93 :	1111101100111111;
	92 :	1111110001001100;
	91 :	1111111000010101;
	90 :	1111111100011001;
	89 :	1111111110101010;
	88 :	1111111111000100;
	87 :	0000000000001000;
	86 :	0000000000001011;
	85 :	1111111111111010;
	84 :	0000000001000100;
	83 :	1111111111011111;
	82 :	0000000001011001;
	81 :	0000000000001110;
	80 :	1111111111100001;
	79 :	1111111110000110;
	78 :	1111111101001110;
	77 :	1111111000011100;
	76 :	1111111010110110;
	75 :	1111111000001001;
	74 :	1111110100100001;
	73 :	1111101110100001;
	72 :	1111110101100100;
	71 :	1111110111000110;
	70 :	1111110001111001;
	69 :	1111111110101111;
	68 :	1111110011111111;
	67 :	1111110100011001;
	66 :	1111111000011011;
	65 :	1111111010101000;
	64 :	1111111010110111;
	63 :	1111111011011100;
	62 :	1111111101001100;
	61 :	1111111111110101;
	60 :	1111111111000101;
	59 :	0000000000011111;
	58 :	0000000000101111;
	57 :	0000000000100001;
	56 :	0000000000010011;
	55 :	1111111111001111;
	54 :	1111111111110000;
	53 :	0000000000000101;
	52 :	1111111111111111;
	51 :	1111111110011100;
	50 :	1111111110101110;
	49 :	1111111111001010;
	48 :	1111111101101010;
	47 :	1111111101000011;
	46 :	1111111110000110;
	45 :	1111111100000001;
	44 :	1111111010011100;
	43 :	1111111010001011;
	42 :	1111111100011001;
	41 :	1111111100001100;
	40 :	1111111010110011;
	39 :	1111111101100111;
	38 :	1111111101110011;
	37 :	1111111111000111;
	36 :	1111111110000001;
	35 :	1111111101100000;
	34 :	1111111111011101;
	33 :	0000000000000000;
	32 :	0000000000110110;
	31 :	1111111111110000;
	30 :	0000000000010100;
	29 :	0000000000111101;
	28 :	1111111111111111;
	27 :	1111111111110111;
	26 :	1111111111000101;
	25 :	0000000000000111;
	24 :	1111111111011000;
	23 :	1111111111101110;
	22 :	1111111111111110;
	21 :	0000000000001111;
	20 :	1111111111111100;
	19 :	1111111111110111;
	18 :	0000000000101100;
	17 :	1111111111100001;
	16 :	0000000000111000;
	15 :	0000000000110100;
	14 :	0000000000101011;
	13 :	1111111111111011;
	12 :	1111111111110011;
	11 :	1111111111101001;
	10 :	0000000000000010;
	9 :	0000000000100001;
	8 :	0000000000011011;
	7 :	1111111111010011;
	6 :	1111111111101000;
	5 :	0000000000001110;
	4 :	1111111111001110;
	3 :	1111111111111000;
	2 :	1111111111101010;
	1 :	0000000000000101;
	0 :	1111111111101000;
END;
