-- begin_signature
-- weight_memory(num_weight
-- 30
-- data_width
-- 16
-- address_width
-- 5
-- weight_file
-- "C:/SystemVerilog_NPU/w_2_0.mif")
-- end_signature
WIDTH=16;
DEPTH=30;

ADDRESS_RADIX=UNS;
DATA_RADIX=BIN;

CONTENT BEGIN
	29 :	0000110100110100;
	28 :	1111100111101011;
	27 :	0000000001101110;
	26 :	0000011001110000;
	25 :	1110111000011010;
	24 :	0000000001110000;
	23 :	0001110001110110;
	22 :	1111010110000011;
	21 :	0000101001001011;
	20 :	0000110000010011;
	19 :	1110111000100011;
	18 :	1111011101010010;
	17 :	1111111111101010;
	16 :	1111011011000100;
	15 :	0001001000001001;
	14 :	0001001011000011;
	13 :	1111101101011011;
	12 :	0000110101011000;
	11 :	1111010000000000;
	10 :	1110110001111100;
	9 :	1111101110101000;
	8 :	1110100011000001;
	7 :	1111001000001010;
	6 :	0000001100011111;
	5 :	1111011010000011;
	4 :	0001001011100110;
	3 :	0001001111010111;
	2 :	0001011000010010;
	1 :	0000100001100011;
	0 :	1110110010101011;
END;
