-- begin_signature
-- weight_memory(num_weight
-- 784
-- data_width
-- 16
-- address_width
-- 10
-- weight_file
-- "C:/SystemVerilog_NPU/w_1_23.mif")
-- end_signature
WIDTH=16;
DEPTH=784;

ADDRESS_RADIX=UNS;
DATA_RADIX=BIN;

CONTENT BEGIN
	783 :	1111111111110101;
	782 :	1111111111101111;
	781 :	1111111111110100;
	780 :	0000000000001011;
	779 :	1111111111011011;
	778 :	0000000000111111;
	777 :	0000000010101001;
	776 :	1111111111011110;
	775 :	0000000000000001;
	774 :	1111111111011111;
	773 :	0000000000011000;
	772 :	0000000000101000;
	771 :	0000000000111100;
	770 :	0000000000000000;
	769 :	1111111111101111;
	768 :	1111111111001001;
	767 :	0000000000111001;
	766 :	1111111111110001;
	765 :	1111111111100110;
	764 :	1111111110111000;
	763 :	0000000000101001;
	762 :	1111111111111110;
	761 :	1111111111111011;
	760 :	1111111111111111;
	759 :	0000000000000100;
	758 :	0000000000011011;
	757 :	1111111111101100;
	756 :	0000000000001011;
	755 :	0000000000011001;
	754 :	0000000000110110;
	753 :	1111111111101000;
	752 :	0000000000011101;
	751 :	0000000000111011;
	750 :	0000000010100111;
	749 :	0000000101011101;
	748 :	0000000010011011;
	747 :	0000000001100101;
	746 :	1111111101111000;
	745 :	1111111101110111;
	744 :	0000001001011010;
	743 :	0000001001110110;
	742 :	0000000101101110;
	741 :	0000000101011011;
	740 :	0000000100100100;
	739 :	0000000010000111;
	738 :	1111111100011001;
	737 :	1111111010100110;
	736 :	1111111110010100;
	735 :	1111111110010100;
	734 :	1111111110100101;
	733 :	1111111111010001;
	732 :	1111111111110111;
	731 :	0000000000011000;
	730 :	1111111111100010;
	729 :	1111111110101011;
	728 :	1111111111101101;
	727 :	1111111111011111;
	726 :	0000000000011011;
	725 :	0000000000000111;
	724 :	0000000010001000;
	723 :	0000000011000010;
	722 :	0000001000011101;
	721 :	0000000111110011;
	720 :	0000001000100010;
	719 :	0000010001011001;
	718 :	0000001110111001;
	717 :	0000001000001101;
	716 :	0000000000010011;
	715 :	0000000101100100;
	714 :	0000000000011001;
	713 :	0000000110110100;
	712 :	0000001000110011;
	711 :	1111111111101000;
	710 :	1111110111101100;
	709 :	1111111100000000;
	708 :	1111110101011001;
	707 :	1111110001000000;
	706 :	1111111000000110;
	705 :	1111111010111100;
	704 :	1111111100101100;
	703 :	1111111111100010;
	702 :	1111111111111000;
	701 :	1111111111101011;
	700 :	1111111111110011;
	699 :	1111111111101000;
	698 :	0000000000010101;
	697 :	1111111111111000;
	696 :	1111111111001101;
	695 :	0000000000111001;
	694 :	0000000100101101;
	693 :	0000000001100001;
	692 :	0000001001000011;
	691 :	0000001000100110;
	690 :	0000010110001011;
	689 :	0000000110000111;
	688 :	1111111010011110;
	687 :	0000000010110100;
	686 :	0000001000001100;
	685 :	0000001010010001;
	684 :	0000001100100101;
	683 :	0000000000110100;
	682 :	0000000110001100;
	681 :	0000001000011011;
	680 :	1111111110110101;
	679 :	1111111110100011;
	678 :	1111111011100000;
	677 :	1111111111010101;
	676 :	1111111100111100;
	675 :	1111111111101001;
	674 :	1111111111101110;
	673 :	1111111111101010;
	672 :	1111111111111001;
	671 :	1111111111111100;
	670 :	0000000000001011;
	669 :	0000000011011100;
	668 :	0000000100010000;
	667 :	0000000110111111;
	666 :	1111111110001001;
	665 :	0000000000110010;
	664 :	0000000101101010;
	663 :	1111110111001111;
	662 :	1111101001000111;
	661 :	1111110011101101;
	660 :	1111111000011010;
	659 :	1111111011110110;
	658 :	0000001001011111;
	657 :	0000000100101100;
	656 :	0000001100101101;
	655 :	0000001101001110;
	654 :	1111111010111001;
	653 :	0000000010110101;
	652 :	0000000001101101;
	651 :	1111101111100111;
	650 :	1111111110101110;
	649 :	0000000100010101;
	648 :	0000000111010111;
	647 :	0000000010010110;
	646 :	1111111111111101;
	645 :	1111111111011101;
	644 :	1111111111111000;
	643 :	1111111110101011;
	642 :	0000000000101011;
	641 :	0000000010111100;
	640 :	0000000000111000;
	639 :	0000010010110011;
	638 :	0000001010111101;
	637 :	0000000100010011;
	636 :	0000000011100101;
	635 :	0000000110001001;
	634 :	0000001000010110;
	633 :	0000000001011111;
	632 :	1111111110000110;
	631 :	1111111100111101;
	630 :	0000001110010111;
	629 :	1111100100111011;
	628 :	1111111010100000;
	627 :	0000000001110100;
	626 :	1111111011111100;
	625 :	0000001010111001;
	624 :	0000001011011000;
	623 :	1111110110001000;
	622 :	1111111111100000;
	621 :	0000001000101010;
	620 :	0000001011111001;
	619 :	0000000001001101;
	618 :	1111111111011000;
	617 :	1111111111001011;
	616 :	1111111111110100;
	615 :	1111111111110110;
	614 :	1111111111010111;
	613 :	0000000100011111;
	612 :	0000001100000100;
	611 :	0000011010000010;
	610 :	1111111100111011;
	609 :	0000010000000000;
	608 :	0000011011011001;
	607 :	0000000110101000;
	606 :	0000001100110110;
	605 :	0000010001110111;
	604 :	0000000010101000;
	603 :	0000001111011010;
	602 :	0000010011111111;
	601 :	0000000100100111;
	600 :	0000001010011001;
	599 :	0000000110100101;
	598 :	0000010001011011;
	597 :	1111111101001010;
	596 :	0000000110000011;
	595 :	0000000010001101;
	594 :	0000000000010101;
	593 :	0000100001001010;
	592 :	0000010010011010;
	591 :	1111111101100110;
	590 :	1111111100100000;
	589 :	1111111110100110;
	588 :	0000000000001101;
	587 :	0000000000000000;
	586 :	1111111111011100;
	585 :	0000000100101100;
	584 :	0000001111110001;
	583 :	0000010111011000;
	582 :	0000000100100110;
	581 :	0000000111111111;
	580 :	0000001010010110;
	579 :	1111111011011001;
	578 :	1111111110111110;
	577 :	0000001111100011;
	576 :	0000000000101000;
	575 :	0000000011101001;
	574 :	1111111001111101;
	573 :	0000010000010100;
	572 :	0000000111000010;
	571 :	0000000100011100;
	570 :	1111111100010111;
	569 :	0000001101110010;
	568 :	1111111101110001;
	567 :	1111011011100100;
	566 :	1111111010110000;
	565 :	0000011101000000;
	564 :	0000010100011010;
	563 :	0000000010100000;
	562 :	0000000001110101;
	561 :	1111111111101100;
	560 :	0000000000000000;
	559 :	1111111111110100;
	558 :	1111111111011110;
	557 :	0000000100111000;
	556 :	0000010100101011;
	555 :	0000000000100000;
	554 :	1111110111100101;
	553 :	0000000101111010;
	552 :	0000010011100100;
	551 :	1111111110111010;
	550 :	0000000001010110;
	549 :	0000000100010110;
	548 :	0000000101101100;
	547 :	1111101101100111;
	546 :	1111111101111010;
	545 :	1111100000111101;
	544 :	1111111101000100;
	543 :	0000000101011100;
	542 :	1111101011100010;
	541 :	1111100101001010;
	540 :	1111111000111000;
	539 :	1111101110110000;
	538 :	1111110101010001;
	537 :	0000001110011111;
	536 :	0000010110000101;
	535 :	0000000000100001;
	534 :	0000000011100001;
	533 :	1111111111101100;
	532 :	0000000000000111;
	531 :	0000000000000101;
	530 :	1111111110110111;
	529 :	0000000001101011;
	528 :	0000001010110010;
	527 :	0000000110010111;
	526 :	1111110100010100;
	525 :	0000001001101100;
	524 :	0000000100011100;
	523 :	0000001010000110;
	522 :	1111110111000101;
	521 :	1111111000100011;
	520 :	0000000011010101;
	519 :	1111101101111110;
	518 :	1111010100101101;
	517 :	1111010001001110;
	516 :	1111010101000110;
	515 :	1111010000100001;
	514 :	1111101010000011;
	513 :	1111101111010010;
	512 :	1111100100010001;
	511 :	1111111100001100;
	510 :	1111110001111011;
	509 :	0000000011010010;
	508 :	0000010100100101;
	507 :	0000000000111101;
	506 :	1111111110011000;
	505 :	0000000000101100;
	504 :	0000000000000011;
	503 :	1111111111101001;
	502 :	1111111111101011;
	501 :	0000000001000001;
	500 :	0000000111110001;
	499 :	0000001101111101;
	498 :	0000000101010010;
	497 :	0000000100010010;
	496 :	1111111100110101;
	495 :	1111111010011011;
	494 :	0000001011010011;
	493 :	1111110100101110;
	492 :	1111011110000110;
	491 :	1111101110110001;
	490 :	1111110110000101;
	489 :	1111111011011101;
	488 :	1111101111110110;
	487 :	1111110010001111;
	486 :	1111111000111101;
	485 :	1111100110110110;
	484 :	1111101110000100;
	483 :	1111100101011101;
	482 :	1111101101111110;
	481 :	1111110001001000;
	480 :	0000000011111100;
	479 :	0000000011010111;
	478 :	1111111110011011;
	477 :	0000000000100011;
	476 :	0000000000010110;
	475 :	0000000001000001;
	474 :	0000000001001111;
	473 :	1111111111011110;
	472 :	0000001110011101;
	471 :	0000010011101101;
	470 :	0000010011010011;
	469 :	0000000011101010;
	468 :	0000001101100011;
	467 :	0000000011001001;
	466 :	1111111011110000;
	465 :	1111111011100001;
	464 :	0000000000100001;
	463 :	0000000111110011;
	462 :	0000001101000101;
	461 :	0000001011010001;
	460 :	0000001111110100;
	459 :	1111110110100001;
	458 :	0000000011001010;
	457 :	1111101101011101;
	456 :	1111110001101000;
	455 :	1111100101011000;
	454 :	1111100011101111;
	453 :	1111110011010111;
	452 :	1111111010100011;
	451 :	1111111100101011;
	450 :	1111111110111100;
	449 :	1111111111101111;
	448 :	0000000000011011;
	447 :	0000000000011101;
	446 :	0000000000111101;
	445 :	0000000000000100;
	444 :	0000010010010001;
	443 :	0000001010000110;
	442 :	1111101101101011;
	441 :	1111111011101011;
	440 :	0000001001100000;
	439 :	0000000100101111;
	438 :	0000000100010000;
	437 :	1111111111101011;
	436 :	1111110111100001;
	435 :	1111110100001100;
	434 :	1111101100011011;
	433 :	1111111100100110;
	432 :	0000001001100011;
	431 :	1111110011011101;
	430 :	0000011101001100;
	429 :	0000001010101010;
	428 :	0000000101101000;
	427 :	1111111001011001;
	426 :	1111111010001111;
	425 :	1111111010111110;
	424 :	1111111100110011;
	423 :	1111111011101010;
	422 :	1111111101111100;
	421 :	0000000000111010;
	420 :	1111111111000110;
	419 :	1111111110010001;
	418 :	0000000000010000;
	417 :	1111111110101001;
	416 :	0000001011100000;
	415 :	0000001101101000;
	414 :	1111111100111111;
	413 :	1111101000101010;
	412 :	0000001001001101;
	411 :	1111111000000010;
	410 :	0000000110010110;
	409 :	1111110000101110;
	408 :	1111101000100101;
	407 :	1111111010111000;
	406 :	1111111110111100;
	405 :	1111110110010010;
	404 :	0000001111011001;
	403 :	1111111100010000;
	402 :	0000000100011010;
	401 :	1111111101000111;
	400 :	0000001010110100;
	399 :	0000001011010000;
	398 :	0000000111110010;
	397 :	0000000010011111;
	396 :	0000001100001001;
	395 :	1111111110011010;
	394 :	0000000001010101;
	393 :	1111111111001101;
	392 :	0000000000010101;
	391 :	1111111111111101;
	390 :	1111111111010111;
	389 :	1111111100100110;
	388 :	1111111111011110;
	387 :	0000000000000100;
	386 :	1111110111111000;
	385 :	1111110011000100;
	384 :	1111110010111100;
	383 :	1111110101111001;
	382 :	1111101111001011;
	381 :	1111111101100100;
	380 :	1111110001101111;
	379 :	1111111000001001;
	378 :	1111111111011001;
	377 :	0000001111000010;
	376 :	0000010111111000;
	375 :	0000001010010100;
	374 :	1111111011011101;
	373 :	1111110000011000;
	372 :	1111111011100110;
	371 :	0000001011001011;
	370 :	0000000101001111;
	369 :	0000010100101001;
	368 :	0000001111010011;
	367 :	1111111110100110;
	366 :	1111111111111000;
	365 :	1111111111110110;
	364 :	1111111111011110;
	363 :	1111111111100000;
	362 :	1111111111001010;
	361 :	1111111100010100;
	360 :	1111101011100100;
	359 :	1111101001111111;
	358 :	1111101100100111;
	357 :	1111110011100101;
	356 :	1111110111100011;
	355 :	1111111100101110;
	354 :	0000000000111010;
	353 :	1111101000010101;
	352 :	0000000101001110;
	351 :	1111111000001010;
	350 :	0000000011000100;
	349 :	0000001110011010;
	348 :	0000000000100101;
	347 :	0000010000101000;
	346 :	0000001001010010;
	345 :	0000001000010101;
	344 :	0000011001111111;
	343 :	1111111110101101;
	342 :	1111111111111100;
	341 :	0000000101000100;
	340 :	0000001001110000;
	339 :	1111111011101111;
	338 :	0000000000100011;
	337 :	1111111111011001;
	336 :	1111111111011010;
	335 :	1111111111011111;
	334 :	1111111111101111;
	333 :	1111111011110001;
	332 :	1111101010001111;
	331 :	1111011011111100;
	330 :	1111001111111110;
	329 :	1111011110100111;
	328 :	1111010000110110;
	327 :	1111100011101000;
	326 :	1111101010101111;
	325 :	1111110010101001;
	324 :	0000000001101111;
	323 :	1111110010110100;
	322 :	1111111101001110;
	321 :	1111111100100110;
	320 :	0000000010011110;
	319 :	1111110110011111;
	318 :	1111111110111111;
	317 :	0000000000100111;
	316 :	1111111110000101;
	315 :	1111101101110000;
	314 :	0000000010000000;
	313 :	0000000101100001;
	312 :	0000000100100111;
	311 :	1111111010101011;
	310 :	1111111111110111;
	309 :	0000000001010011;
	308 :	0000000000000011;
	307 :	0000000001101110;
	306 :	0000000000111011;
	305 :	1111111101111111;
	304 :	1111101101111110;
	303 :	1111001000010100;
	302 :	1111001100101000;
	301 :	1111001111100000;
	300 :	1110111110010000;
	299 :	1110100011110101;
	298 :	1110101000000110;
	297 :	1110101010000011;
	296 :	1110111100001010;
	295 :	1111000000111110;
	294 :	1111000111111101;
	293 :	1111100010110001;
	292 :	0000000101010110;
	291 :	0000000010101011;
	290 :	1111111100011100;
	289 :	0000001011101101;
	288 :	1111111100001101;
	287 :	1111110110011010;
	286 :	1111111110011100;
	285 :	0000000100101101;
	284 :	0000000001010010;
	283 :	1111111011000101;
	282 :	0000000000010110;
	281 :	0000000000001011;
	280 :	1111111110111001;
	279 :	0000000000011010;
	278 :	0000000010001110;
	277 :	1111111110001011;
	276 :	1111111001110111;
	275 :	1111100011011101;
	274 :	1111011101000111;
	273 :	1111010010000100;
	272 :	1111011000110100;
	271 :	1111011011010001;
	270 :	1111100100000111;
	269 :	1111010110010100;
	268 :	1111011110110100;
	267 :	1111011001001001;
	266 :	1111001111111110;
	265 :	1111010110011101;
	264 :	0000000010100001;
	263 :	0000000111010110;
	262 :	1111111100100110;
	261 :	0000000001100101;
	260 :	0000000011110011;
	259 :	0000000001111010;
	258 :	1111111000010111;
	257 :	1111111111100000;
	256 :	1111111111101011;
	255 :	1111111010101101;
	254 :	0000000000110000;
	253 :	0000000000101110;
	252 :	1111111111001110;
	251 :	1111111111110011;
	250 :	0000000011100001;
	249 :	1111111101101000;
	248 :	0000000111111100;
	247 :	0000000110010001;
	246 :	1111111000101100;
	245 :	1111110100000101;
	244 :	0000000111001100;
	243 :	0000011010011111;
	242 :	0000010100001011;
	241 :	0000000100001111;
	240 :	0000010010000010;
	239 :	0000011010110000;
	238 :	1111111001001111;
	237 :	0000001010010101;
	236 :	0000001010101000;
	235 :	0000000111001010;
	234 :	0000000100110011;
	233 :	0000001000010110;
	232 :	1111101111110110;
	231 :	1111111010010101;
	230 :	1111110011001001;
	229 :	0000000110000001;
	228 :	1111110110001110;
	227 :	1111111110100010;
	226 :	1111111110111111;
	225 :	0000000000111101;
	224 :	1111111111100001;
	223 :	0000000000100111;
	222 :	0000000101001001;
	221 :	0000000111111010;
	220 :	0000010101111101;
	219 :	0000001100000010;
	218 :	1111111100010111;
	217 :	0000010111100001;
	216 :	0000100111110110;
	215 :	0000010001111011;
	214 :	0000010100010011;
	213 :	0000010010111000;
	212 :	0000011010100111;
	211 :	0000001011101000;
	210 :	1111111100000001;
	209 :	1111110001000011;
	208 :	0000000011100110;
	207 :	0000001101010001;
	206 :	0000001110100001;
	205 :	0000000000000111;
	204 :	0000000111110010;
	203 :	0000000001110111;
	202 :	0000000011001011;
	201 :	0000010011110000;
	200 :	1111111000110100;
	199 :	1111111111101001;
	198 :	0000000000100100;
	197 :	0000000000001010;
	196 :	0000000001001101;
	195 :	0000000000010011;
	194 :	0000000100110110;
	193 :	0000001101101101;
	192 :	0000010011110111;
	191 :	0000010110100110;
	190 :	0000010010110011;
	189 :	0000001110000111;
	188 :	0000000110100000;
	187 :	0000001111100000;
	186 :	0000000100011011;
	185 :	1111111100011111;
	184 :	1111111111101110;
	183 :	1111110101100000;
	182 :	0000000101010010;
	181 :	1111110100111100;
	180 :	1111111110010000;
	179 :	0000000000100011;
	178 :	0000001011101000;
	177 :	0000001011011110;
	176 :	0000000110000010;
	175 :	0000001001111000;
	174 :	0000010011001010;
	173 :	0000011000100000;
	172 :	0000000000111001;
	171 :	0000000000010001;
	170 :	0000000001100110;
	169 :	0000000000000000;
	168 :	0000000000000100;
	167 :	0000000000000000;
	166 :	0000000000110111;
	165 :	0000000000111100;
	164 :	1111111010110101;
	163 :	0000001100000010;
	162 :	0000001101101000;
	161 :	0000001000110011;
	160 :	0000001100010000;
	159 :	0000000011111001;
	158 :	0000001110010001;
	157 :	0000001011011001;
	156 :	0000001011011100;
	155 :	1111101111011011;
	154 :	1111101101100011;
	153 :	0000000110001101;
	152 :	1111111010011011;
	151 :	0000010010001001;
	150 :	0000011001000111;
	149 :	0000010001110101;
	148 :	0000001000011000;
	147 :	1111111101001110;
	146 :	0000001100101100;
	145 :	0000010001001000;
	144 :	1111111111110110;
	143 :	1111111110111110;
	142 :	0000000000011000;
	141 :	0000000000001110;
	140 :	1111111111001011;
	139 :	0000000000100011;
	138 :	0000000000001111;
	137 :	0000000011011111;
	136 :	0000000101110111;
	135 :	0000000001111100;
	134 :	0000000110001111;
	133 :	0000001100100111;
	132 :	1111111010010100;
	131 :	1111111111111010;
	130 :	1111111001010001;
	129 :	1111101110100100;
	128 :	0000000110010010;
	127 :	0000001000111010;
	126 :	1111110010011100;
	125 :	1111101011100000;
	124 :	1111111100011001;
	123 :	1111111001100010;
	122 :	1111110001101100;
	121 :	1111101110101000;
	120 :	1111110000001010;
	119 :	1111111111100101;
	118 :	0000000010010101;
	117 :	0000000010001110;
	116 :	0000000001010101;
	115 :	0000000000011001;
	114 :	1111111111000101;
	113 :	1111111111111101;
	112 :	1111111111101111;
	111 :	1111111111111110;
	110 :	1111111111111001;
	109 :	0000000000100101;
	108 :	0000000011011010;
	107 :	1111111010001101;
	106 :	1111110011101001;
	105 :	1111111001010100;
	104 :	1111111101000001;
	103 :	0000001010110000;
	102 :	1111111010110101;
	101 :	1111110011010010;
	100 :	1111111000101011;
	99 :	1111111101110011;
	98 :	1111111010111000;
	97 :	0000000010011111;
	96 :	1111111001000011;
	95 :	1111110001010001;
	94 :	0000000000001101;
	93 :	0000000100001010;
	92 :	0000000100111010;
	91 :	0000000001011010;
	90 :	1111111111110011;
	89 :	1111111111111011;
	88 :	0000000000011000;
	87 :	1111111110110100;
	86 :	1111111111111001;
	85 :	1111111111110100;
	84 :	1111111111111111;
	83 :	1111111111010111;
	82 :	0000000000000101;
	81 :	0000000000010111;
	80 :	1111111111010111;
	79 :	1111111111111000;
	78 :	1111111111110101;
	77 :	0000000001011110;
	76 :	0000000001010000;
	75 :	0000000100101100;
	74 :	0000000001000000;
	73 :	1111111110011010;
	72 :	0000000000000111;
	71 :	1111111100101100;
	70 :	1111111011000011;
	69 :	1111110111010101;
	68 :	1111111010101010;
	67 :	1111111011110010;
	66 :	1111111110010101;
	65 :	1111111111011011;
	64 :	0000000000011011;
	63 :	0000000000110100;
	62 :	0000000000001011;
	61 :	0000000000000010;
	60 :	0000000000011011;
	59 :	1111111111100011;
	58 :	0000000000011110;
	57 :	1111111111110100;
	56 :	0000000000001000;
	55 :	0000000000111101;
	54 :	1111111110100101;
	53 :	1111111111110101;
	52 :	0000000000001010;
	51 :	0000000000000001;
	50 :	1111111110111101;
	49 :	1111111111111111;
	48 :	1111111111100000;
	47 :	1111111111101010;
	46 :	0000000000000000;
	45 :	0000000000000000;
	44 :	0000000000001001;
	43 :	0000000000110010;
	42 :	1111111110111110;
	41 :	1111111111000111;
	40 :	1111111111100111;
	39 :	1111111111100100;
	38 :	1111111111111111;
	37 :	0000000000000000;
	36 :	0000000000100000;
	35 :	1111111111101110;
	34 :	0000000000010111;
	33 :	0000000000001110;
	32 :	0000000000010110;
	31 :	1111111111111011;
	30 :	1111111111111101;
	29 :	0000000000101000;
	28 :	0000000000011011;
	27 :	0000000000000000;
	26 :	0000000000000010;
	25 :	0000000000001011;
	24 :	1111111111110001;
	23 :	0000000000010011;
	22 :	1111111111011110;
	21 :	0000000000110010;
	20 :	0000000000010010;
	19 :	1111111111100011;
	18 :	0000000000011110;
	17 :	0000000000000001;
	16 :	0000000000000000;
	15 :	1111111111010100;
	14 :	1111111111011011;
	13 :	1111111111001001;
	12 :	0000000000001010;
	11 :	0000000000100010;
	10 :	1111111111011100;
	9 :	1111111111110101;
	8 :	1111111111101110;
	7 :	0000000000001110;
	6 :	0000000000010001;
	5 :	1111111111011000;
	4 :	0000000000101101;
	3 :	1111111111111100;
	2 :	1111111111111111;
	1 :	0000000000001010;
	0 :	1111111111011010;
END;
