-- begin_signature
-- weight_memory(num_weight
-- 30
-- data_width
-- 16
-- address_width
-- 5
-- weight_file
-- "C:/SystemVerilog_NPU/w_3_8.mif")
-- end_signature
WIDTH=16;
DEPTH=30;

ADDRESS_RADIX=UNS;
DATA_RADIX=BIN;

CONTENT BEGIN
	29 :	0000010010000010;
	28 :	1111100101110000;
	27 :	1110010011000111;
	26 :	0010100110011100;
	25 :	1111000110110110;
	24 :	0000111001111001;
	23 :	0001101011001011;
	22 :	1111001011000001;
	21 :	1111101101100101;
	20 :	0000010001111001;
	19 :	1111101010000011;
	18 :	0000000011101000;
	17 :	0000101100100111;
	16 :	1111010010111001;
	15 :	1111110010010010;
	14 :	0001011100101000;
	13 :	1101011100011011;
	12 :	1111111110001011;
	11 :	0001011011000000;
	10 :	1111100100011100;
	9 :	1111011011011101;
	8 :	1111010100110111;
	7 :	0001001101011110;
	6 :	0000010111010010;
	5 :	0001011010011100;
	4 :	1111010110001001;
	3 :	1111101101111100;
	2 :	1101111111100100;
	1 :	0001000001101110;
	0 :	0010001011011110;
END;
