-- begin_signature
-- weight_memory(num_weight
-- 30
-- data_width
-- 16
-- address_width
-- 5
-- weight_file
-- "C:/SystemVerilog_NPU/w_2_20.mif")
-- end_signature
WIDTH=16;
DEPTH=30;

ADDRESS_RADIX=UNS;
DATA_RADIX=BIN;

CONTENT BEGIN
	29 :	1111011111100111;
	28 :	0000001101101000;
	27 :	0000001000011001;
	26 :	0000001101011000;
	25 :	0000001101001100;
	24 :	0000001000101110;
	23 :	0000100111100000;
	22 :	0000010100111000;
	21 :	0000000111101101;
	20 :	1111110110110100;
	19 :	0000011001011000;
	18 :	0000001110011010;
	17 :	1111110001010101;
	16 :	1111101010010001;
	15 :	1111110001011110;
	14 :	0000010010010001;
	13 :	0000010001000000;
	12 :	0000001001010101;
	11 :	0000000100000011;
	10 :	0000000001101111;
	9 :	0000010010011011;
	8 :	1111111101110011;
	7 :	1111100001100011;
	6 :	1111111110000001;
	5 :	0000100111000001;
	4 :	1111110000001101;
	3 :	1111101011101101;
	2 :	0000101110001001;
	1 :	1111111000110110;
	0 :	1111100110101111;
END;
