-- begin_signature
-- weight_memory(num_weight
-- 30
-- data_width
-- 16
-- address_width
-- 5
-- weight_file
-- "C:/SystemVerilog_NPU/w_2_17.mif")
-- end_signature
WIDTH=16;
DEPTH=30;

ADDRESS_RADIX=UNS;
DATA_RADIX=BIN;

CONTENT BEGIN
	29 :	1111111111001111;
	28 :	1111100000111101;
	27 :	0000011110111101;
	26 :	0001000011011101;
	25 :	0001111010101110;
	24 :	1111110001100000;
	23 :	0000011110011110;
	22 :	0000011001000111;
	21 :	1111011010001100;
	20 :	1101110000011001;
	19 :	0000100001001010;
	18 :	0000000001001001;
	17 :	1111000001011100;
	16 :	0000010010110100;
	15 :	1110101110000100;
	14 :	0000100111000111;
	13 :	0000111001000110;
	12 :	1111000010001101;
	11 :	1111101010100001;
	10 :	0000100010010001;
	9 :	1111010101011110;
	8 :	0000101011101010;
	7 :	0000001000011101;
	6 :	1111011111101000;
	5 :	1111101010010000;
	4 :	0000000110000001;
	3 :	0000011110111010;
	2 :	0000001100010000;
	1 :	0000011001111101;
	0 :	0001001111101111;
END;
