-- begin_signature
-- weight_memory(num_weight
-- 30
-- data_width
-- 16
-- address_width
-- 5
-- weight_file
-- "C:/SystemVerilog_NPU/w_2_29.mif")
-- end_signature
WIDTH=16;
DEPTH=30;

ADDRESS_RADIX=UNS;
DATA_RADIX=BIN;

CONTENT BEGIN
	29 :	1111100010011011;
	28 :	0000101110110010;
	27 :	1111011101011000;
	26 :	1111001011110010;
	25 :	1111101110000011;
	24 :	1111111111000001;
	23 :	1111100110010111;
	22 :	0000000000111011;
	21 :	0000100000011000;
	20 :	0000010011001011;
	19 :	0000101000100111;
	18 :	1111110111011011;
	17 :	1111110001110101;
	16 :	1111001100100111;
	15 :	0000001000110000;
	14 :	1111110001001001;
	13 :	0000000000110110;
	12 :	0000010001010000;
	11 :	0000011000101011;
	10 :	1111110010001111;
	9 :	0000100010001100;
	8 :	1111110010010100;
	7 :	1111110001100000;
	6 :	1111101000000111;
	5 :	0001000100101111;
	4 :	1111001111001101;
	3 :	1111111010110010;
	2 :	0000010111000110;
	1 :	1111001101111010;
	0 :	1111011011001001;
END;
